{
  "version": "1.0",
  "truncation": null,
  "padding": null,
  "added_tokens": [
    {
      "id": 0,
      "content": "[UNK]",
      "single_word": false,
      "lstrip": false,
      "rstrip": false,
      "normalized": false,
      "special": true
    },
    {
      "id": 1,
      "content": "[CLS]",
      "single_word": false,
      "lstrip": false,
      "rstrip": false,
      "normalized": false,
      "special": true
    },
    {
      "id": 2,
      "content": "[SEP]",
      "single_word": false,
      "lstrip": false,
      "rstrip": false,
      "normalized": false,
      "special": true
    },
    {
      "id": 3,
      "content": "[PAD]",
      "single_word": false,
      "lstrip": false,
      "rstrip": false,
      "normalized": false,
      "special": true
    },
    {
      "id": 4,
      "content": "[MASK]",
      "single_word": false,
      "lstrip": false,
      "rstrip": false,
      "normalized": false,
      "special": true
    }
  ],
  "normalizer": null,
  "pre_tokenizer": {
    "type": "Sequence",
    "pretokenizers": [
      {
        "type": "Split",
        "pattern": {
          "Regex": "(?i)[sdmt]|ll|ve|re|[^\\r\\n\\w]?+[a-zA-Z]+|\\d{1,3}|\\s?[^\\s\\w]++[\\r\\n]*|\\s*[\\r\\n]|\\s+(?!\\S)|\\s+"
        },
        "behavior": "Isolated",
        "invert": false
      },
      {
        "type": "ByteLevel",
        "add_prefix_space": false,
        "trim_offsets": true,
        "use_regex": false
      }
    ]
  },
  "post_processor": null,
  "decoder": null,
  "model": {
    "type": "BPE",
    "dropout": null,
    "unk_token": "[UNK]",
    "continuing_subword_prefix": null,
    "end_of_word_suffix": null,
    "fuse_unk": false,
    "byte_fallback": false,
    "ignore_merges": false,
    "vocab": {
      "[UNK]": 0,
      "[CLS]": 1,
      "[SEP]": 2,
      "[PAD]": 3,
      "[MASK]": 4,
      "!": 5,
      "%": 6,
      "'": 7,
      "(": 8,
      ")": 9,
      "-": 10,
      ".": 11,
      "0": 12,
      "1": 13,
      "2": 14,
      "3": 15,
      "4": 16,
      "5": 17,
      "6": 18,
      "7": 19,
      "8": 20,
      "9": 21,
      ":": 22,
      "A": 23,
      "B": 24,
      "C": 25,
      "D": 26,
      "E": 27,
      "F": 28,
      "G": 29,
      "H": 30,
      "I": 31,
      "J": 32,
      "K": 33,
      "L": 34,
      "M": 35,
      "N": 36,
      "O": 37,
      "P": 38,
      "Q": 39,
      "R": 40,
      "S": 41,
      "T": 42,
      "U": 43,
      "V": 44,
      "W": 45,
      "X": 46,
      "Y": 47,
      "Z": 48,
      "_": 49,
      "a": 50,
      "b": 51,
      "c": 52,
      "d": 53,
      "e": 54,
      "f": 55,
      "g": 56,
      "h": 57,
      "i": 58,
      "j": 59,
      "k": 60,
      "l": 61,
      "m": 62,
      "n": 63,
      "o": 64,
      "p": 65,
      "q": 66,
      "r": 67,
      "s": 68,
      "t": 69,
      "u": 70,
      "v": 71,
      "w": 72,
      "x": 73,
      "y": 74,
      "z": 75,
      "Ċ": 76,
      "Ġ": 77,
      "00": 78,
      "000": 79,
      "Ġ-": 80,
      "at": 81,
      ".d": 82,
      ".dat": 83,
      "30": 84,
      "10": 85,
      "20": 86,
      "40": 87,
      "70": 88,
      "mp": 89,
      "15": 90,
      "60": 91,
      "__": 92,
      ".mp": 93,
      ".mpd": 94,
      "80": 95,
      "19": 96,
      "99": 97,
      "in": 98,
      "71": 99,
      "50": 100,
      "or": 101,
      "ĠM": 102,
      "24": 103,
      "14": 104,
      "ĠA": 105,
      "ĠF": 106,
      "72": 107,
      "ĠL": 108,
      "16": 109,
      "36": 110,
      "th": 111,
      "ain": 112,
      "302": 113,
      "me": 114,
      "ĠN": 115,
      "ĠAu": 116,
      "ame": 117,
      "LE": 118,
      "ĠMain": 119,
      "ON": 120,
      "TR": 121,
      "ILE": 122,
      "ĠFILE": 123,
      "ĠLTR": 124,
      "thor": 125,
      "ĠName": 126,
      "ĠAuthor": 127,
      "ĠLTRON": 128,
      "90": 129,
      "er": 130,
      "78": 131,
      "32": 132,
      "12": 133,
      "300": 134,
      "66": 135,
      "28": 136,
      "25": 137,
      "98": 138,
      "48": 139,
      "17": 140,
      "38": 141,
      "18": 142,
      "65": 143,
      "707": 144,
      "ĠT": 145,
      "100": 146,
      "ĠC": 147,
      "13": 148,
      "56": 149,
      "42": 150,
      "79": 151,
      "120": 152,
      "64": 153,
      "ĠS": 154,
      "500": 155,
      "ĠB": 156,
      "44": 157,
      "278": 158,
      "39": 159,
      "110": 160,
      "150": 161,
      "35": 162,
      "102": 163,
      "866": 164,
      "320": 165,
      "88": 166,
      "76": 167,
      "160": 168,
      "74": 169,
      "an": 170,
      "140": 171,
      "34": 172,
      "75": 173,
      "96": 174,
      "ĠH": 175,
      "26": 176,
      "200": 177,
      "ar": 178,
      "ĠR": 179,
      "130": 180,
      "ĠTr": 181,
      "11": 182,
      "54": 183,
      "23": 184,
      "999": 185,
      "420": 186,
      "58": 187,
      "73": 188,
      "on": 189,
      "52": 190,
      "303": 191,
      "210": 192,
      "08": 193,
      "ck": 194,
      "29": 195,
      "180": 196,
      "43": 197,
      "68": 198,
      "366": 199,
      "655": 200,
      "240": 201,
      "310": 202,
      "306": 203,
      "362": 204,
      "170": 205,
      "ĠP": 206,
      "se": 207,
      "371": 208,
      "190": 209,
      "ol": 210,
      "95": 211,
      "600": 212,
      "22": 213,
      "77": 214,
      "ow": 215,
      "84": 216,
      "59": 217,
      "ter": 218,
      "220": 219,
      "280": 220,
      "800": 221,
      "33": 222,
      "112": 223,
      "370": 224,
      "614": 225,
      "ĠHo": 226,
      "al": 227,
      "301": 228,
      "re": 229,
      "379": 230,
      "ĠSt": 231,
      "94": 232,
      "996": 233,
      "le": 234,
      "325": 235,
      "ig": 236,
      "101": 237,
      "230": 238,
      "260": 239,
      "400": 240,
      "ed": 241,
      "104": 242,
      "46": 243,
      "ĠG": 244,
      "en": 245,
      "ĠD": 246,
      "93": 247,
      "et": 248,
      "250": 249,
      "270": 250,
      "ing": 251,
      "128": 252,
      "259": 253,
      "uck": 254,
      "087": 255,
      "53": 256,
      "242": 257,
      "304": 258,
      "290": 259,
      "92": 260,
      "144": 261,
      "el": 262,
      "ĠE": 263,
      "es": 264,
      "272": 265,
      "ĠU": 266,
      "55": 267,
      "992": 268,
      "ac": 269,
      "981": 270,
      "360": 271,
      "ĠHou": 272,
      "340": 273,
      "ri": 274,
      "960": 275,
      "243": 276,
      "ad": 277,
      "ĠTow": 278,
      "430": 279,
      "152": 280,
      "ro": 281,
      "62": 282,
      "ĠHouse": 283,
      "ĠTruck": 284,
      "241": 285,
      "208": 286,
      "ĠV": 287,
      "57": 288,
      "213": 289,
      "966": 290,
      "168": 291,
      "136": 292,
      "997": 293,
      "107": 294,
      "288": 295,
      "ĠCr": 296,
      "82": 297,
      "91": 298,
      "47": 299,
      "998": 300,
      "igh": 301,
      "407": 302,
      "176": 303,
      "382": 304,
      "390": 305,
      "ĠI": 306,
      "86": 307,
      "330": 308,
      "380": 309,
      "ic": 310,
      "83": 311,
      "as": 312,
      "ge": 313,
      "440": 314,
      "he": 315,
      "421": 316,
      "ion": 317,
      "870": 318,
      "819": 319,
      "ĠO": 320,
      "279": 321,
      "21": 322,
      "ĠCo": 323,
      "542": 324,
      "ĠRo": 325,
      "216": 326,
      "480": 327,
      "017": 328,
      "ane": 329,
      "880": 330,
      "155": 331,
      "416": 332,
      "il": 333,
      "346": 334,
      "900": 335,
      "27": 336,
      "198": 337,
      "41": 338,
      "604": 339,
      "923": 340,
      "195": 341,
      "ĠStar": 342,
      "350": 343,
      "51": 344,
      "984": 345,
      "192": 346,
      "184": 347,
      "op": 348,
      "06": 349,
      "052": 350,
      "and": 351,
      "tr": 352,
      "447": 353,
      "31": 354,
      "ĠBri": 355,
      "383": 356,
      "307": 357,
      "321": 358,
      "um": 359,
      "129": 360,
      "191": 361,
      "574": 362,
      "ĠEx": 363,
      "040": 364,
      "427": 365,
      "258": 366,
      "37": 367,
      "367": 368,
      "163": 369,
      "97": 370,
      "978": 371,
      "322": 372,
      "987": 373,
      "all": 374,
      "it": 375,
      "560": 376,
      "520": 377,
      "450": 378,
      "368": 379,
      "139": 380,
      "460": 381,
      "ĠBu": 382,
      "ĠCrane": 383,
      "609": 384,
      "030": 385,
      "193": 386,
      "408": 387,
      "os": 388,
      "980": 389,
      "ff": 390,
      "ĠTower": 391,
      "287": 392,
      "003": 393,
      "174": 394,
      "ith": 395,
      "ack": 396,
      "700": 397,
      "750": 398,
      "69": 399,
      "87": 400,
      "570": 401,
      "403": 402,
      "ler": 403,
      "428": 404,
      "ĠW": 405,
      "235": 406,
      "951": 407,
      "224": 408,
      "019": 409,
      "256": 410,
      "990": 411,
      "ĠVol": 412,
      "un": 413,
      "410": 414,
      "CS": 415,
      "ĠUCS": 416,
      "45": 417,
      "61": 418,
      "374": 419,
      "378": 420,
      "580": 421,
      "ĠSh": 422,
      "iv": 423,
      "245": 424,
      "dge": 425,
      "122": 426,
      "638": 427,
      "sp": 428,
      "ighter": 429,
      "001": 430,
      "114": 431,
      "567": 432,
      "ĠMo": 433,
      "982": 434,
      "010": 435,
      "ĠBridge": 436,
      "mo": 437,
      "308": 438,
      "ort": 439,
      "ĠCol": 440,
      "106": 441,
      "err": 442,
      "09": 443,
      "108": 444,
      "ay": 445,
      "ĠLo": 446,
      "179": 447,
      "680": 448,
      "296": 449,
      "940": 450,
      "seum": 451,
      "osseum": 452,
      "ĠColosseum": 453,
      "248": 454,
      "470": 455,
      "ch": 456,
      "760": 457,
      "490": 458,
      "342": 459,
      "965": 460,
      "162": 461,
      "720": 462,
      "232": 463,
      "ation": 464,
      "530": 465,
      "663": 466,
      "640": 467,
      "924": 468,
      "ile": 469,
      "with": 470,
      "ĠTra": 471,
      "81": 472,
      "ĠCar": 473,
      "352": 474,
      "683": 475,
      "329": 476,
      "ĠRac": 477,
      "433": 478,
      "244": 479,
      "323": 480,
      "324": 481,
      "ĠUn": 482,
      "132": 483,
      "49": 484,
      "id": 485,
      "605": 486,
      "156": 487,
      "284": 488,
      "151": 489,
      "993": 490,
      "ĠBen": 491,
      "ur": 492,
      "ĠBl": 493,
      "113": 494,
      "312": 495,
      "07": 496,
      "616": 497,
      "540": 498,
      "ire": 499,
      "ul": 500,
      "is": 501,
      "Ġwith": 502,
      "178": 503,
      "444": 504,
      "994": 505,
      "ee": 506,
      "025": 507,
      "ĠThe": 508,
      "393": 509,
      "85": 510,
      "ct": 511,
      "63": 512,
      "264": 513,
      "123": 514,
      "499": 515,
      "196": 516,
      "643": 517,
      "bile": 518,
      "404": 519,
      "985": 520,
      "186": 521,
      "766": 522,
      "tor": 523,
      "124": 524,
      "ced": 525,
      "way": 526,
      "336": 527,
      "146": 528,
      "ini": 529,
      "070": 530,
      "610": 531,
      "105": 532,
      "043": 533,
      "118": 534,
      "est": 535,
      "116": 536,
      "608": 537,
      "309": 538,
      "550": 539,
      "119": 540,
      "ie": 541,
      "389": 542,
      "449": 543,
      "488": 544,
      "ĠCon": 545,
      "tron": 546,
      "ĠVoltron": 547,
      "ĠOff": 548,
      "ut": 549,
      "ĠSp": 550,
      "624": 551,
      "173": 552,
      "ld": 553,
      "464": 554,
      "958": 555,
      "484": 556,
      "057": 557,
      "417": 558,
      "147": 559,
      "eri": 560,
      "660": 561,
      "445": 562,
      "620": 563,
      "648": 564,
      "510": 565,
      "148": 566,
      "950": 567,
      "av": 568,
      "970": 569,
      "ĠTrain": 570,
      "ĠTree": 571,
      "035": 572,
      "454": 573,
      "roc": 574,
      "03": 575,
      "125": 576,
      "ĠBo": 577,
      "002": 578,
      "328": 579,
      "ĠTown": 580,
      "590": 581,
      "021": 582,
      "406": 583,
      "930": 584,
      "ĠCor": 585,
      "072": 586,
      "ner": 587,
      "ers": 588,
      "ord": 589,
      "254": 590,
      "989": 591,
      "253": 592,
      "545": 593,
      "339": 594,
      "ower": 595,
      "028": 596,
      "875": 597,
      "292": 598,
      "654": 599,
      "246": 600,
      "933": 601,
      "925": 602,
      "ĠBig": 603,
      "erial": 604,
      "974": 605,
      "219": 606,
      "601": 607,
      "376": 608,
      "ĠX": 609,
      "255": 610,
      "172": 611,
      "ĠFire": 612,
      "121": 613,
      "448": 614,
      "st": 615,
      "344": 616,
      "ĠPl": 617,
      "ĠJ": 618,
      "891": 619,
      "577": 620,
      "012": 621,
      "ĠRe": 622,
      "939": 623,
      "509": 624,
      "02": 625,
      "823": 626,
      "041": 627,
      "688": 628,
      "126": 629,
      "412": 630,
      "495": 631,
      "ild": 632,
      "489": 633,
      "086": 634,
      "860": 635,
      "67": 636,
      "mperial": 637,
      "ĠImperial": 638,
      "134": 639,
      "759": 640,
      "656": 641,
      "ĠBat": 642,
      "197": 643,
      "ĠTran": 644,
      "589": 645,
      "995": 646,
      "911": 647,
      "ĠCh": 648,
      "474": 649,
      "914": 650,
      "212": 651,
      "ĠPower": 652,
      "age": 653,
      "650": 654,
      "690": 655,
      "710": 656,
      "154": 657,
      "ster": 658,
      "ver": 659,
      "752": 660,
      "111": 661,
      "-w": 662,
      "ĠHigh": 663,
      "89": 664,
      "eed": 665,
      "305": 666,
      "094": 667,
      "ĠDe": 668,
      "661": 669,
      "177": 670,
      "mb": 671,
      "443": 672,
      "01": 673,
      "138": 674,
      "158": 675,
      "159": 676,
      "ĠStarf": 677,
      "920": 678,
      "948": 679,
      "432": 680,
      "ĠBuild": 681,
      "ĠStarfighter": 682,
      "-wing": 683,
      "859": 684,
      "115": 685,
      "ĠIn": 686,
      "424": 687,
      "ĠMini": 688,
      "986": 689,
      "opter": 690,
      "669": 691,
      "ue": 692,
      "gh": 693,
      "840": 694,
      "238": 695,
      "459": 696,
      "913": 697,
      "784": 698,
      "ader": 699,
      "142": 700,
      "tain": 701,
      "ĠY": 702,
      "elic": 703,
      "456": 704,
      "tle": 705,
      "ĠTransp": 706,
      "elicopter": 707,
      "799": 708,
      "ir": 709,
      "166": 710,
      "188": 711,
      "268": 712,
      "528": 713,
      "ag": 714,
      "ĠHelicopter": 715,
      "109": 716,
      "886": 717,
      "ĠAd": 718,
      "698": 719,
      "630": 720,
      "mobile": 721,
      "976": 722,
      "384": 723,
      "751": 724,
      "234": 725,
      "820": 726,
      "354": 727,
      "ĠHighway": 728,
      "135": 729,
      "585": 730,
      "872": 731,
      "252": 732,
      "ĠAdv": 733,
      "496": 734,
      "ĠTransport": 735,
      "164": 736,
      "ade": 737,
      "ĠCa": 738,
      "ice": 739,
      "472": 740,
      "392": 741,
      "973": 742,
      "906": 743,
      "sc": 744,
      "740": 745,
      "754": 746,
      "ited": 747,
      "678": 748,
      "809": 749,
      "182": 750,
      "359": 751,
      "007": 752,
      "394": 753,
      "ĠCorner": 754,
      "266": 755,
      "395": 756,
      "485": 757,
      "675": 758,
      "189": 759,
      "ĠExp": 760,
      "867": 761,
      "ĠBatmobile": 762,
      "988": 763,
      "225": 764,
      "518": 765,
      "ive": 766,
      "653": 767,
      "ĠSe": 768,
      "art": 769,
      "ang": 770,
      "ĠMer": 771,
      "ĠTrac": 772,
      "ester": 773,
      "ĠExc": 774,
      "cedes": 775,
      "ĠMercedes": 776,
      "056": 777,
      "199": 778,
      "ĠSn": 779,
      "228": 780,
      "217": 781,
      "602": 782,
      "082": 783,
      "808": 784,
      "426": 785,
      "885": 786,
      "del": 787,
      "850": 788,
      "623": 789,
      "020": 790,
      "967": 791,
      "265": 792,
      "ĠUnited": 793,
      "365": 794,
      "358": 795,
      "149": 796,
      "bo": 797,
      "orsc": 798,
      "ĠAn": 799,
      "681": 800,
      "ĠPorsc": 801,
      "ĠPorsche": 802,
      "ĠSnow": 803,
      "031": 804,
      "ine": 805,
      "-W": 806,
      "576": 807,
      "926": 808,
      "015": 809,
      "276": 810,
      "229": 811,
      "375": 812,
      "ator": 813,
      "ĠFighter": 814,
      "318": 815,
      "145": 816,
      "169": 817,
      "473": 818,
      "ĠStation": 819,
      "936": 820,
      "386": 821,
      "ĠCen": 822,
      "979": 823,
      "207": 824,
      "236": 825,
      "up": 826,
      "157": 827,
      "483": 828,
      "ĠMan": 829,
      "761": 830,
      "ĠStat": 831,
      "ĠRoad": 832,
      "117": 833,
      "334": 834,
      "297": 835,
      "372": 836,
      "bb": 837,
      "ĠFl": 838,
      "ĠHobb": 839,
      "ĠHobby": 840,
      "670": 841,
      "615": 842,
      "674": 843,
      "em": 844,
      "-Wing": 845,
      "316": 846,
      "ĠMa": 847,
      "781": 848,
      "285": 849,
      "ĠRacer": 850,
      "356": 851,
      "816": 852,
      "127": 853,
      "267": 854,
      "227": 855,
      "785": 856,
      "437": 857,
      "743": 858,
      "737": 859,
      "ard": 860,
      "415": 861,
      "ce": 862,
      "206": 863,
      "204": 864,
      "165": 865,
      "705": 866,
      "932": 867,
      "523": 868,
      "780": 869,
      "ib": 870,
      "133": 871,
      "883": 872,
      "852": 873,
      "479": 874,
      "641": 875,
      "175": 876,
      "ĠRol": 877,
      "bel": 878,
      "ĠRebel": 879,
      "214": 880,
      "611": 881,
      "201": 882,
      "559": 883,
      "507": 884,
      "ĠBlack": 885,
      "05": 886,
      "222": 887,
      "ĠII": 888,
      "errain": 889,
      "aw": 890,
      "702": 891,
      "319": 892,
      "273": 893,
      "282": 894,
      "194": 895,
      "187": 896,
      "co": 897,
      "361": 898,
      "218": 899,
      "Ġand": 900,
      "599": 901,
      "498": 902,
      "ĠAp": 903,
      "262": 904,
      "iz": 905,
      "283": 906,
      "531": 907,
      "373": 908,
      "787": 909,
      "647": 910,
      "036": 911,
      "742": 912,
      "869": 913,
      "486": 914,
      "732": 915,
      "167": 916,
      "758": 917,
      "233": 918,
      "953": 919,
      "of": 920,
      "975": 921,
      "yer": 922,
      "ĠTerrain": 923,
      "ons": 924,
      "066": 925,
      "536": 926,
      "161": 927,
      "ĠOld": 928,
      "fford": 929,
      "chester": 930,
      "ĠTrafford": 931,
      "ĠRace": 932,
      "ĠManchester": 933,
      "846": 934,
      "512": 935,
      "103": 936,
      "080": 937,
      "465": 938,
      "788": 939,
      "568": 940,
      "469": 941,
      "239": 942,
      "006": 943,
      "422": 944,
      "770": 945,
      "141": 946,
      "088": 947,
      "iler": 948,
      "226": 949,
      "326": 950,
      "171": 951,
      "aster": 952,
      "492": 953,
      "552": 954,
      "333": 955,
      "ĠHall": 956,
      "815": 957,
      "956": 958,
      "091": 959,
      "ĠJet": 960,
      "876": 961,
      "511": 962,
      "Ġof": 963,
      "501": 964,
      "090": 965,
      "ick": 966,
      "ĠAir": 967,
      "ĠStre": 968,
      "road": 969,
      "904": 970,
      "153": 971,
      "'s": 972,
      "544": 973,
      "ĠAut": 974,
      "ĠTractor": 975,
      "612": 976,
      "ok": 977,
      "137": 978,
      "423": 979,
      "143": 980,
      "584": 981,
      "355": 982,
      "ĠLa": 983,
      "438": 984,
      "755": 985,
      "185": 986,
      "391": 987,
      "ath": 988,
      "avator": 989,
      "ĠPlane": 990,
      "ĠDeath": 991,
      "ĠExcavator": 992,
      "363": 993,
      "ĠCru": 994,
      "sters": 995,
      "ĠStreet": 996,
      "ace": 997,
      "ĠBrick": 998,
      "eeder": 999,
      "927": 1000,
      "598": 1001,
      "ĠDu": 1002,
      "ĠTrailer": 1003,
      "491": 1004,
      "865": 1005,
      "839": 1006,
      "385": 1007,
      "712": 1008,
      "ĠCoaster": 1009,
      "ĠRoller": 1010,
      "890": 1011,
      "der": 1012,
      "ank": 1013,
      "830": 1014,
      "ĠBuilding": 1015,
      "778": 1016,
      "709": 1017,
      "sh": 1018,
      "tre": 1019,
      "ust": 1020,
      "ĠAroc": 1021,
      "ĠBenz": 1022,
      "ĠArocs": 1023,
      "008": 1024,
      "ric": 1025,
      "heel": 1026,
      "446": 1027,
      "ĠGre": 1028,
      "ĠCool": 1029,
      "767": 1030,
      "237": 1031,
      "597": 1032,
      "131": 1033,
      "ĠBr": 1034,
      "592": 1035,
      "790": 1036,
      "971": 1037,
      "695": 1038,
      "546": 1039,
      "884": 1040,
      "554": 1041,
      "ĠLand": 1042,
      "811": 1043,
      "991": 1044,
      "983": 1045,
      "treme": 1046,
      "929": 1047,
      "606": 1048,
      "934": 1049,
      "083": 1050,
      "ĠShut": 1051,
      "ĠShuttle": 1052,
      "271": 1053,
      "ss": 1054,
      "796": 1055,
      "ĠDest": 1056,
      "royer": 1057,
      "ĠDestroyer": 1058,
      "453": 1059,
      "961": 1060,
      "060": 1061,
      "719": 1062,
      "050": 1063,
      "274": 1064,
      "ĠCraw": 1065,
      "ĠCrawler": 1066,
      "ock": 1067,
      "ĠMack": 1068,
      "them": 1069,
      "ĠCl": 1070,
      "269": 1071,
      "ĠAnthem": 1072,
      "402": 1073,
      "ĠPick": 1074,
      "451": 1075,
      "696": 1076,
      "522": 1077,
      "ple": 1078,
      "281": 1079,
      "ĠRS": 1080,
      "ĠOffroad": 1081,
      "411": 1082,
      "829": 1083,
      "478": 1084,
      "810": 1085,
      "am": 1086,
      "rol": 1087,
      "ĠAr": 1088,
      "364": 1089,
      "183": 1090,
      "349": 1091,
      "ĠWheel": 1092,
      "ĠSpace": 1093,
      "922": 1094,
      "ĠGar": 1095,
      "493": 1096,
      "724": 1097,
      "858": 1098,
      "221": 1099,
      "736": 1100,
      "793": 1101,
      "418": 1102,
      "speeder": 1103,
      "ĠSnowspeeder": 1104,
      "353": 1105,
      "517": 1106,
      "341": 1107,
      "848": 1108,
      "494": 1109,
      "202": 1110,
      "619": 1111,
      "ure": 1112,
      "763": 1113,
      "504": 1114,
      "543": 1115,
      "637": 1116,
      "ĠLog": 1117,
      "419": 1118,
      "774": 1119,
      "181": 1120,
      "738": 1121,
      "ĠBe": 1122,
      "013": 1123,
      "425": 1124,
      "635": 1125,
      "291": 1126,
      "038": 1127,
      "952": 1128,
      "-M": 1129,
      "ĠComb": 1130,
      "455": 1131,
      "223": 1132,
      "277": 1133,
      "947": 1134,
      "657": 1135,
      "209": 1136,
      "om": 1137,
      "ĠGarage": 1138,
      "211": 1139,
      "347": 1140,
      "ĠInter": 1141,
      "734": 1142,
      "919": 1143,
      "313": 1144,
      "672": 1145,
      "205": 1146,
      "627": 1147,
      "215": 1148,
      "275": 1149,
      "port": 1150,
      "004": 1151,
      "249": 1152,
      "729": 1153,
      "882": 1154,
      "434": 1155,
      "ng": 1156,
      "946": 1157,
      "igade": 1158,
      "ent": 1159,
      "ight": 1160,
      "ĠBrigade": 1161,
      "458": 1162,
      "452": 1163,
      "005": 1164,
      "646": 1165,
      "iser": 1166,
      "ĠCruiser": 1167,
      "263": 1168,
      "877": 1169,
      "te": 1170,
      "431": 1171,
      "664": 1172,
      "844": 1173,
      "977": 1174,
      "fe": 1175,
      "ft": 1176,
      "tic": 1177,
      "ĠBuck": 1178,
      "777": 1179,
      "462": 1180,
      "umn": 1181,
      "ĠAutumn": 1182,
      "776": 1183,
      "IE": 1184,
      "ĠTIE": 1185,
      "547": 1186,
      "081": 1187,
      "662": 1188,
      "298": 1189,
      "526": 1190,
      "607": 1191,
      "564": 1192,
      "699": 1193,
      "ian": 1194,
      "806": 1195,
      "928": 1196,
      "357": 1197,
      "261": 1198,
      "910": 1199,
      "ond": 1200,
      "294": 1201,
      "ĠShop": 1202,
      "289": 1203,
      "396": 1204,
      "338": 1205,
      "899": 1206,
      "ĠCafe": 1207,
      "693": 1208,
      "ĠExtreme": 1209,
      "ide": 1210,
      "825": 1211,
      "bh": 1212,
      "ĠLie": 1213,
      "untain": 1214,
      "bherr": 1215,
      "ĠLiebherr": 1216,
      "864": 1217,
      "718": 1218,
      "247": 1219,
      "730": 1220,
      "lor": 1221,
      "ugh": 1222,
      "798": 1223,
      "ind": 1224,
      "401": 1225,
      "716": 1226,
      "ĠRough": 1227,
      "ĠAdvent": 1228,
      "618": 1229,
      "639": 1230,
      "047": 1231,
      "ity": 1232,
      "045": 1233,
      "941": 1234,
      "613": 1235,
      "632": 1236,
      "704": 1237,
      "957": 1238,
      "879": 1239,
      "mm": 1240,
      "667": 1241,
      "516": 1242,
      "ĠMust": 1243,
      "ĠFord": 1244,
      "797": 1245,
      "ĠBucket": 1246,
      "ĠMustang": 1247,
      "071": 1248,
      "332": 1249,
      "018": 1250,
      "315": 1251,
      "629": 1252,
      "706": 1253,
      "ĠSk": 1254,
      "414": 1255,
      "814": 1256,
      "587": 1257,
      "405": 1258,
      "qu": 1259,
      "ĠMobile": 1260,
      "457": 1261,
      "399": 1262,
      "ĠFerr": 1263,
      "ĠSm": 1264,
      "ally": 1265,
      "642": 1266,
      "792": 1267,
      "ĠSup": 1268,
      "762": 1269,
      "tru": 1270,
      "636": 1271,
      "311": 1272,
      "ĠMet": 1273,
      "685": 1274,
      "ĠAdventure": 1275,
      "034": 1276,
      "331": 1277,
      "tt": 1278,
      "-S": 1279,
      "617": 1280,
      "ater": 1281,
      "ĠHar": 1282,
      "ari": 1283,
      "725": 1284,
      "ĠState": 1285,
      "ĠFerrari": 1286,
      "ail": 1287,
      "659": 1288,
      "ĠGr": 1289,
      "348": 1290,
      "arth": 1291,
      "ress": 1292,
      "ĠDarth": 1293,
      "ĠLoader": 1294,
      "ĠMaul": 1295,
      "676": 1296,
      "337": 1297,
      "ke": 1298,
      "ĠDump": 1299,
      "768": 1300,
      "345": 1301,
      "515": 1302,
      "692": 1303,
      "au": 1304,
      "645": 1305,
      "ible": 1306,
      "397": 1307,
      "299": 1308,
      "ĠMar": 1309,
      "317": 1310,
      "ĠComm": 1311,
      "ĠFlat": 1312,
      "ĠCommand": 1313,
      "293": 1314,
      "ĠFor": 1315,
      "ĠRally": 1316,
      "251": 1317,
      "521": 1318,
      "099": 1319,
      "633": 1320,
      "836": 1321,
      "888": 1322,
      "314": 1323,
      "ĠAT": 1324,
      "anced": 1325,
      "ĠPar": 1326,
      "mot": 1327,
      "tainer": 1328,
      "ĠAdvanced": 1329,
      "772": 1330,
      "964": 1331,
      "ĠRes": 1332,
      "ill": 1333,
      "764": 1334,
      "409": 1335,
      "ĠLion": 1336,
      "827": 1337,
      "203": 1338,
      "tible": 1339,
      "728": 1340,
      "ert": 1341,
      "ĠConver": 1342,
      "ĠExplor": 1343,
      "ĠConvertible": 1344,
      "ĠExplorer": 1345,
      "ĠMed": 1346,
      "558": 1347,
      "odel": 1348,
      "562": 1349,
      "ĠPas": 1350,
      "seng": 1351,
      "ell": 1352,
      "-Model": 1353,
      "ĠSmall": 1354,
      "ĠLions": 1355,
      "ĠPasseng": 1356,
      "ĠPassenger": 1357,
      "024": 1358,
      "857": 1359,
      "968": 1360,
      "stru": 1361,
      "231": 1362,
      "shop": 1363,
      "struct": 1364,
      "059": 1365,
      "944": 1366,
      "847": 1367,
      "628": 1368,
      "969": 1369,
      "708": 1370,
      "369": 1371,
      "694": 1372,
      "487": 1373,
      "ĠBank": 1374,
      "ĠContainer": 1375,
      "286": 1376,
      "377": 1377,
      "ach": 1378,
      "rop": 1379,
      "573": 1380,
      "vo": 1381,
      "658": 1382,
      "ĠSi": 1383,
      "ĠBook": 1384,
      "ĠBookshop": 1385,
      "073": 1386,
      "826": 1387,
      "733": 1388,
      "551": 1389,
      "eg": 1390,
      "Ġ%": 1391,
      "085": 1392,
      "ĠVolvo": 1393,
      "ivers": 1394,
      "ĠUnivers": 1395,
      "ĠUniversal": 1396,
      "942": 1397,
      "009": 1398,
      "954": 1399,
      "sons": 1400,
      "mpsons": 1401,
      "ination": 1402,
      "ĠAl": 1403,
      "381": 1404,
      "ĠSet": 1405,
      "ĠCombination": 1406,
      "ĠSimpsons": 1407,
      "935": 1408,
      "477": 1409,
      "ĠGroc": 1410,
      "ĠGreen": 1411,
      "ĠGrocer": 1412,
      "689": 1413,
      "894": 1414,
      "257": 1415,
      "ĠProp": 1416,
      "ĠHot": 1417,
      "335": 1418,
      "556": 1419,
      "ĠMountain": 1420,
      "ĠPlan": 1421,
      "548": 1422,
      "AS": 1423,
      "856": 1424,
      "461": 1425,
      ".ld": 1426,
      "398": 1427,
      "436": 1428,
      "746": 1429,
      "lect": 1430,
      "ĠOffice": 1431,
      ".ldr": 1432,
      "lectric": 1433,
      "388": 1434,
      "756": 1435,
      "gw": 1436,
      "ĠCre": 1437,
      "ĠHogw": 1438,
      "ĠGT": 1439,
      "arts": 1440,
      "ĠHogwarts": 1441,
      "832": 1442,
      "387": 1443,
      "aur": 1444,
      "ect": 1445,
      "442": 1446,
      "682": 1447,
      "503": 1448,
      "Ġin": 1449,
      "orgh": 1450,
      "ant": 1451,
      "ĠGall": 1452,
      "mborgh": 1453,
      "ardo": 1454,
      "ĠLamborgh": 1455,
      "ĠGallardo": 1456,
      "ĠLamborghini": 1457,
      "813": 1458,
      "04": 1459,
      "026": 1460,
      "per": 1461,
      "ĠPol": 1462,
      "ĠGal": 1463,
      "comot": 1464,
      "comotive": 1465,
      "467": 1466,
      "039": 1467,
      "644": 1468,
      "ĠRest": 1469,
      "ĠDet": 1470,
      "isian": 1471,
      "ĠParisian": 1472,
      "aurant": 1473,
      "ĠRestaurant": 1474,
      "ĠDetect": 1475,
      "505": 1476,
      "079": 1477,
      "586": 1478,
      "own": 1479,
      "ĠCenter": 1480,
      "ĠPolice": 1481,
      "054": 1482,
      "563": 1483,
      "078": 1484,
      "972": 1485,
      "bed": 1486,
      "ĠExpress": 1487,
      "ĠFlatbed": 1488,
      "812": 1489,
      "684": 1490,
      "ear": 1491,
      "343": 1492,
      "ĠBlock": 1493,
      "715": 1494,
      "828": 1495,
      "804": 1496,
      "878": 1497,
      "818": 1498,
      "668": 1499,
      "side": 1500,
      "Ġx": 1501,
      "ĠHe": 1502,
      "ives": 1503,
      "ĠDetectives": 1504,
      "429": 1505,
      "666": 1506,
      "ĠPet": 1507,
      "ĠModel": 1508,
      "ĠLocomotive": 1509,
      "481": 1510,
      "582": 1511,
      "588": 1512,
      "634": 1513,
      "921": 1514,
      "ĠSuper": 1515,
      "468": 1516,
      "915": 1517,
      "ĠK": 1518,
      "ĠApple": 1519,
      "782": 1520,
      "801": 1521,
      "ĠCas": 1522,
      "ĠCastle": 1523,
      "519": 1524,
      "lo": 1525,
      "949": 1526,
      "677": 1527,
      "502": 1528,
      "ĠSqu": 1529,
      "089": 1530,
      "ĠStatue": 1531,
      "mith": 1532,
      "smith": 1533,
      "ĠBlacksmith": 1534,
      "ĠMon": 1535,
      "aring": 1536,
      "ĠRoaring": 1537,
      "ĠRoadsters": 1538,
      "439": 1539,
      "744": 1540,
      "ase": 1541,
      "od": 1542,
      "042": 1543,
      "802": 1544,
      "625": 1545,
      "295": 1546,
      "565": 1547,
      "327": 1548,
      "val": 1549,
      "ĠSat": 1550,
      "ieval": 1551,
      "ĠMedieval": 1552,
      "838": 1553,
      "ven": 1554,
      "594": 1555,
      "urn": 1556,
      "ĠSaturn": 1557,
      "773": 1558,
      "527": 1559,
      "iner": 1560,
      "909": 1561,
      "ĠCity": 1562,
      "sel": 1563,
      "ĠDie": 1564,
      "621": 1565,
      "ĠBlue": 1566,
      "ĠDiesel": 1567,
      "561": 1568,
      "525": 1569,
      "ai": 1570,
      "oper": 1571,
      "ĠAirport": 1572,
      "769": 1573,
      "849": 1574,
      "mpire": 1575,
      "726": 1576,
      "731": 1577,
      "ĠEmpire": 1578,
      "ĠBusters": 1579,
      "044": 1580,
      "476": 1581,
      "cue": 1582,
      "ĠNAS": 1583,
      "745": 1584,
      "ollo": 1585,
      "ĠApollo": 1586,
      "ĠRescue": 1587,
      "ĠNASA": 1588,
      "938": 1589,
      "902": 1590,
      "482": 1591,
      "435": 1592,
      "779": 1593,
      "ĠLib": 1594,
      "ĠRun": 1595,
      "erty": 1596,
      "ĠLiberty": 1597,
      "475": 1598,
      "955": 1599,
      "593": 1600,
      "ĠRunner": 1601,
      "901": 1602,
      "441": 1603,
      "ĠBus": 1604,
      "struction": 1605,
      "ĠBlockade": 1606,
      "578": 1607,
      "538": 1608,
      "061": 1609,
      "-R": 1610,
      "ĠTrack": 1611,
      "581": 1612,
      "529": 1613,
      "861": 1614,
      "icle": 1615,
      "-Ro": 1616,
      "889": 1617,
      "016": 1618,
      "514": 1619,
      "916": 1620,
      "for": 1621,
      "ized": 1622,
      "ĠPickup": 1623,
      "027": 1624,
      "ĠFr": 1625,
      "063": 1626,
      "011": 1627,
      "466": 1628,
      "821": 1629,
      "506": 1630,
      "ĠLine": 1631,
      "ĠHau": 1632,
      "ĠHauler": 1633,
      "579": 1634,
      "871": 1635,
      "-B": 1636,
      "896": 1637,
      "508": 1638,
      "ĠRail": 1639,
      "549": 1640,
      "roliner": 1641,
      "ĠMetroliner": 1642,
      "626": 1643,
      "014": 1644,
      "868": 1645,
      "652": 1646,
      "532": 1647,
      "622": 1648,
      "man": 1649,
      "ĠLond": 1650,
      "084": 1651,
      "959": 1652,
      "ĠLondon": 1653,
      "805": 1654,
      "555": 1655,
      "ĠHor": 1656,
      "539": 1657,
      "665": 1658,
      "887": 1659,
      "917": 1660,
      "ĠLi": 1661,
      "ast": 1662,
      "-D": 1663,
      "zer": 1664,
      "ost": 1665,
      "ĠSea": 1666,
      "ĠTur": 1667,
      "945": 1668,
      "ĠRobo": 1669,
      "571": 1670,
      "862": 1671,
      "ĠRover": 1672,
      "055": 1673,
      "534": 1674,
      "eh": 1675,
      "ozer": 1676,
      "ub": 1677,
      "603": 1678,
      "ĠAtt": 1679,
      "ĠVeh": 1680,
      "ĠAttack": 1681,
      "ĠVehicle": 1682,
      "513": 1683,
      "077": 1684,
      "ated": 1685,
      "714": 1686,
      "ĠHut": 1687,
      "686": 1688,
      "ulated": 1689,
      "ĠArtic": 1690,
      "ĠArticulated": 1691,
      "893": 1692,
      "807": 1693,
      "931": 1694,
      "ĠTh": 1695,
      "ĠRig": 1696,
      "ĠRed": 1697,
      "ĠEn": 1698,
      "ider": 1699,
      "803": 1700,
      "962": 1701,
      "ersk": 1702,
      "ĠMaersk": 1703,
      "ĠBeach": 1704,
      "841": 1705,
      "-e": 1706,
      "497": 1707,
      "572": 1708,
      "-electric": 1709,
      "723": 1710,
      "032": 1711,
      "053": 1712,
      "men": 1713,
      "unch": 1714,
      "ĠAll": 1715,
      "596": 1716,
      "898": 1717,
      "riv": 1718,
      "ĠHouses": 1719,
      "854": 1720,
      "795": 1721,
      "ition": 1722,
      "-E": 1723,
      "ike": 1724,
      "ph": 1725,
      "ra": 1726,
      "687": 1727,
      "892": 1728,
      "dition": 1729,
      "ĠEdition": 1730,
      "avy": 1731,
      "ĠMark": 1732,
      "ĠHeavy": 1733,
      "727": 1734,
      "068": 1735,
      "691": 1736,
      "413": 1737,
      "786": 1738,
      "ĠBase": 1739,
      "907": 1740,
      "351": 1741,
      "ars": 1742,
      "ĠGear": 1743,
      "537": 1744,
      "actic": 1745,
      "ĠOce": 1746,
      "inders": 1747,
      "ĠGrinders": 1748,
      "ĠOcean": 1749,
      "566": 1750,
      "765": 1751,
      "ix": 1752,
      "tral": 1753,
      "cep": 1754,
      "ĠIntercep": 1755,
      "908": 1756,
      "ham": 1757,
      "ĠMart": 1758,
      "ĠFive": 1759,
      "783": 1760,
      "ĠCater": 1761,
      "ĠSeven": 1762,
      "ĠGalactic": 1763,
      "ĠCaterham": 1764,
      "874": 1765,
      "943": 1766,
      "us": 1767,
      "ĠTri": 1768,
      "ĠHotel": 1769,
      "524": 1770,
      "048": 1771,
      "ĠStor": 1772,
      "ash": 1773,
      "imo": 1774,
      "ĠNe": 1775,
      "enz": 1776,
      "ĠMotor": 1777,
      "ĠUnimo": 1778,
      "-Benz": 1779,
      "ĠTriple": 1780,
      "ĠUnimog": 1781,
      "912": 1782,
      "541": 1783,
      "bre": 1784,
      "dul": 1785,
      "ip": 1786,
      "erbre": 1787,
      "ĠGing": 1788,
      "ĠModul": 1789,
      "ĠCommander": 1790,
      "ĠMarket": 1791,
      "erbread": 1792,
      "ĠGingerbread": 1793,
      "ĠModulars": 1794,
      "679": 1795,
      "ye": 1796,
      "651": 1797,
      "583": 1798,
      "463": 1799,
      "ĠGreat": 1800,
      "471": 1801,
      "789": 1802,
      "717": 1803,
      "ĠAme": 1804,
      "ĠAmeric": 1805,
      "EK": 1806,
      "cer": 1807,
      "fen": 1808,
      "591": 1809,
      "ĠBul": 1810,
      "ĠDefen": 1811,
      "ment": 1812,
      "ĠDefender": 1813,
      "569": 1814,
      "775": 1815,
      "822": 1816,
      "ks": 1817,
      "ts": 1818,
      "wag": 1819,
      "ĠCroc": 1820,
      "etle": 1821,
      "ĠVolks": 1822,
      "ĠBeetle": 1823,
      "odile": 1824,
      "wagen": 1825,
      "ĠCrocodile": 1826,
      "ĠVolkswagen": 1827,
      "557": 1828,
      "595": 1829,
      "069": 1830,
      "ĠSpeed": 1831,
      "izon": 1832,
      "ĠSky": 1833,
      "ĠHorizon": 1834,
      "-A": 1835,
      "853": 1836,
      "711": 1837,
      "arg": 1838,
      "ĠCab": 1839,
      "ĠCrew": 1840,
      "029": 1841,
      "ĠAst": 1842,
      "963": 1843,
      "575": 1844,
      "855": 1845,
      "cre": 1846,
      "ames": 1847,
      "ĠTarg": 1848,
      "ĠBond": 1849,
      "ĠDB": 1850,
      "ĠJames": 1851,
      "ĠMartin": 1852,
      "ĠAstin": 1853,
      "ĠTarga": 1854,
      "851": 1855,
      "ĠHol": 1856,
      "iday": 1857,
      "ĠRSR": 1858,
      "ĠHoliday": 1859,
      "058": 1860,
      "ĠZ": 1861,
      "722": 1862,
      "ĠTank": 1863,
      "ĠCent": 1864,
      "037": 1865,
      "824": 1866,
      "098": 1867,
      "673": 1868,
      "843": 1869,
      "Mw": 1870,
      "pl": 1871,
      "ina": 1872,
      "ĠWh": 1873,
      "ĠInstruction": 1874,
      "ĠCentral": 1875,
      "096": 1876,
      "ĠMix": 1877,
      "ĠVader": 1878,
      "ĠMixer": 1879,
      "WD": 1880,
      "cy": 1881,
      "cra": 1882,
      "ate": 1883,
      "ĠFre": 1884,
      "ĠTw": 1885,
      "ĠRider": 1886,
      "ĠGas": 1887,
      "ĠLaunch": 1888,
      "-AT": 1889,
      "craft": 1890,
      "553": 1891,
      "095": 1892,
      "EG": 1893,
      "gy": 1894,
      "rag": 1895,
      "ĠLEG": 1896,
      "are": 1897,
      "ĠDrag": 1898,
      "ĠChal": 1899,
      "ĠLift": 1900,
      "ĠLEGO": 1901,
      "074": 1902,
      "aas": 1903,
      "903": 1904,
      "erion": 1905,
      "ĠUl": 1906,
      "ĠVC": 1907,
      "837": 1908,
      "ĠXerion": 1909,
      "ĠClaas": 1910,
      "062": 1911,
      "za": 1912,
      "535": 1913,
      "748": 1914,
      "lus": 1915,
      "rs": 1916,
      "ĠFort": 1917,
      "ĠExclus": 1918,
      "ĠTurbo": 1919,
      "ĠCabin": 1920,
      "ĠTwin": 1921,
      "ĠExclusive": 1922,
      "905": 1923,
      "794": 1924,
      "eing": 1925,
      "eam": 1926,
      "ĠBell": 1927,
      "rey": 1928,
      "ĠOsp": 1929,
      "ĠBoeing": 1930,
      "ĠOsprey": 1931,
      "ev": 1932,
      "ĠSol": 1933,
      "753": 1934,
      "ĠCooper": 1935,
      "ldozer": 1936,
      "ĠBulldozer": 1937,
      "065": 1938,
      "771": 1939,
      "051": 1940,
      "ĠPat": 1941,
      "ĠRoadster": 1942,
      "ĠFreight": 1943,
      "023": 1944,
      "Xf": 1945,
      "hXf": 1946,
      "ls": 1947,
      "nge": 1948,
      "721": 1949,
      "ĠCro": 1950,
      "881": 1951,
      "lenge": 1952,
      "ĠCott": 1953,
      "ĠWag": 1954,
      "-ST": 1955,
      "ĠChallenge": 1956,
      "ĠUlt": 1957,
      "hXfMw": 1958,
      "ĠCottage": 1959,
      "697": 1960,
      "873": 1961,
      "ab": 1962,
      "ax": 1963,
      "ĠGo": 1964,
      "unt": 1965,
      "ĠSkul": 1966,
      "741": 1967,
      "747": 1968,
      "forcer": 1969,
      "ĠEnforcer": 1970,
      "757": 1971,
      "897": 1972,
      "ggy": 1973,
      "ĠBuggy": 1974,
      "fal": 1975,
      "gar": 1976,
      "ĠTrafal": 1977,
      "ĠSquare": 1978,
      "ĠNew": 1979,
      "ĠTrafalgar": 1980,
      "049": 1981,
      "fro": 1982,
      "tro": 1983,
      "Ġfro": 1984,
      "649": 1985,
      "ĠPo": 1986,
      "ett": 1987,
      "ĠRod": 1988,
      "ĠRock": 1989,
      "ĠRobot": 1990,
      "Ġfrom": 1991,
      "817": 1992,
      "713": 1993,
      "-U": 1994,
      "City": 1995,
      "ba": 1996,
      "ging": 1997,
      "703": 1998,
      "ĠHover": 1999,
      "831": 2000,
      "ĠLogging": 2001,
      "-Up": 2002,
      "ĠHovercraft": 2003,
      "076": 2004,
      "533": 2005,
      "937": 2006,
      "ork": 2007,
      "ley": 2008,
      "trol": 2009,
      "842": 2010,
      "vester": 2011,
      "ĠBoba": 2012,
      "ĠHarvester": 2013,
      "022": 2014,
      "erv": 2015,
      "ĠSen": 2016,
      "ite": 2017,
      "ĠMetro": 2018,
      "car": 2019,
      "ĠFat": 2020,
      "ĠFett": 2021,
      "ĠLeg": 2022,
      "ĠBike": 2023,
      "ale": 2024,
      "asons": 2025,
      "ĠChang": 2026,
      "ĠSeasons": 2027,
      "ĠChanging": 2028,
      "739": 2029,
      "ber": 2030,
      "cle": 2031,
      "ĠFX": 2032,
      "erman": 2033,
      "ĠTo": 2034,
      "eep": 2035,
      "631": 2036,
      "918": 2037,
      "835": 2038,
      "host": 2039,
      "Ġth": 2040,
      "amel": 2041,
      "ĠCamel": 2042,
      "ĠSop": 2043,
      "ĠGerman": 2044,
      "ĠGhost": 2045,
      "Ġthe": 2046,
      "ĠSopwith": 2047,
      "791": 2048,
      "749": 2049,
      "son": 2050,
      "ĠShell": 2051,
      "ĠChas": 2052,
      "ĠSnowpl": 2053,
      "ĠMotorized": 2054,
      "ĠPatrol": 2055,
      "ĠSnowplow": 2056,
      "Rx": 2057,
      "bx": 2058,
      "ot": 2059,
      "uard": 2060,
      "ĠCust": 2061,
      "ĠWr": 2062,
      "ĠCombine": 2063,
      "ĠTanker": 2064,
      "ĠWagon": 2065,
      "Rxbx": 2066,
      "ĠCustom": 2067,
      "097": 2068,
      "ĠChe": 2069,
      "ĠSy": 2070,
      "ance": 2071,
      "ĠUp": 2072,
      "ĠShip": 2073,
      "urs": 2074,
      "avid": 2075,
      "ĠFly": 2076,
      "ĠAuto": 2077,
      "ĠPropel": 2078,
      "ĠCreat": 2079,
      "ĠCustomized": 2080,
      "046": 2081,
      "701": 2082,
      "yz": 2083,
      "845": 2084,
      "ĠStunt": 2085,
      "ĠWash": 2086,
      "ĠClock": 2087,
      "ĠFron": 2088,
      "ĠBeachside": 2089,
      "ake": 2090,
      "water": 2091,
      "ĠFall": 2092,
      "ĠDes": 2093,
      "ingwater": 2094,
      "ĠFallingwater": 2095,
      "af": 2096,
      "ĠHome": 2097,
      "acation": 2098,
      "ĠHours": 2099,
      "ĠVacation": 2100,
      "under": 2101,
      "ĠBoy": 2102,
      "ĠHarley": 2103,
      "-David": 2104,
      "ĠThunder": 2105,
      "-Davidson": 2106,
      "gk": 2107,
      "ĠSP": 2108,
      "ĠSc": 2109,
      "eta": 2110,
      "ĠRailway": 2111,
      "EKP": 2112,
      "gkEKP": 2113,
      "092": 2114,
      "863": 2115,
      "bai": 2116,
      "ĠEW": 2117,
      "ĠBoat": 2118,
      "ĠDubai": 2119,
      "ĠInterceptor": 2120,
      "064": 2121,
      "671": 2122,
      "ĠControl": 2123,
      "mul": 2124,
      "vet": 2125,
      "vrol": 2126,
      "ĠBon": 2127,
      "ĠCorvet": 2128,
      "ĠFork": 2129,
      "ĠFormul": 2130,
      "ĠGalax": 2131,
      "ĠChevrol": 2132,
      "ĠCorvette": 2133,
      "ĠFormula": 2134,
      "ĠGalaxy": 2135,
      "ĠChevrolet": 2136,
      "033": 2137,
      "067": 2138,
      "mtro": 2139,
      "night": 2140,
      "oon": 2141,
      "to": 2142,
      "ĠSch": 2143,
      "ĠPurs": 2144,
      "ĠEye": 2145,
      "ĠIs": 2146,
      "ung": 2147,
      "cher": 2148,
      "ĠStormtro": 2149,
      "ĠSkulls": 2150,
      "ooner": 2151,
      "ĠSchooner": 2152,
      "ĠPursu": 2153,
      "ĠStormtrooper": 2154,
      "sation": 2155,
      "ĠQ": 2156,
      "arch": 2157,
      "ĠConcre": 2158,
      "ĠMonarch": 2159,
      "ĠTracked": 2160,
      "-Roader": 2161,
      "ĠSensation": 2162,
      "ĠConcrete": 2163,
      "ĠMonarchs": 2164,
      "mme": 2165,
      "pot": 2166,
      "town": 2167,
      "ĠCat": 2168,
      "ĠPriv": 2169,
      "ĠDown": 2170,
      "ĠDriv": 2171,
      "ĠEmme": 2172,
      "ĠOl": 2173,
      "ĠDepot": 2174,
      "ĠCrush": 2175,
      "ĠFront": 2176,
      "ĠPrivet": 2177,
      "ĠDowntown": 2178,
      "ĠDrive": 2179,
      "093": 2180,
      "895": 2181,
      "ak": 2182,
      "im": 2183,
      "ainfor": 2184,
      "ĠTest": 2185,
      "ĠServ": 2186,
      "ĠHill": 2187,
      "ĠRainfor": 2188,
      "als": 2189,
      "ĠAnim": 2190,
      "ĠArch": 2191,
      "ĠForest": 2192,
      "ĠPursuit": 2193,
      "ĠService": 2194,
      "ĠHillside": 2195,
      "ĠRainforest": 2196,
      "ĠAnimals": 2197,
      "ias": 2198,
      "sis": 2199,
      "ud": 2200,
      "ĠNa": 2201,
      "anza": 2202,
      "ĠWill": 2203,
      "uty": 2204,
      "cover": 2205,
      "ĠFXX": 2206,
      "ĠBonanza": 2207,
      "YM": 2208,
      "ze": 2209,
      "Ġaf": 2210,
      "olph": 2211,
      "ĠGte": 2212,
      "ĠDolph": 2213,
      "ĠElectric": 2214,
      "ĠCorse": 2215,
      "ĠYork": 2216,
      "ĠBrickto": 2217,
      "omon": 2218,
      "ĠSolomon": 2219,
      "ĠDolphin": 2220,
      "ĠBricktober": 2221,
      "834": 2222,
      "ĠDro": 2223,
      "rid": 2224,
      "ury": 2225,
      "ĠYear": 2226,
      "ĠSkyway": 2227,
      "ĠCentury": 2228,
      "ĠDesert": 2229,
      "ĠDroid": 2230,
      "075": 2231,
      "833": 2232,
      "ise": 2233,
      "ĠWind": 2234,
      "astal": 2235,
      "ĠDragster": 2236,
      "735": 2237,
      "Ġu": 2238,
      "ountain": 2239,
      "yal": 2240,
      "ĠFountain": 2241,
      "ĠTrev": 2242,
      "ings": 2243,
      "ĠRoyal": 2244,
      "ĠKnight": 2245,
      "ĠKings": 2246,
      "ĠPoe": 2247,
      "ĠTrevi": 2248,
      "ĠKnights": 2249,
      "AL": 2250,
      "ech": 2251,
      "oy": 2252,
      "orail": 2253,
      "ĠHy": 2254,
      "ĠStab": 2255,
      "ĠWAL": 2256,
      "ĠConstruct": 2257,
      "stem": 2258,
      "-Mech": 2259,
      "ĠSupport": 2260,
      "ĠSquad": 2261,
      "ĠMonorail": 2262,
      "ĠSystem": 2263,
      "ĠQu": 2264,
      "ĠEmmets": 2265,
      "ĠStable": 2266,
      "ĠWALLE": 2267,
      "ĠConstructo": 2268,
      "omp": 2269,
      "ose": 2270,
      "uri": 2271,
      "ored": 2272,
      "ĠStand": 2273,
      "ĠCra": 2274,
      "ĠFlyer": 2275,
      "ĠWhomp": 2276,
      "ĠLegored": 2277,
      "ĠFlyers": 2278,
      "ĠWillow": 2279,
      "ĠWhomping": 2280,
      "ĠLegoredo": 2281,
      "-treme": 2282,
      "-City": 2283,
      "ĠSon": 2284,
      "ĠSand": 2285,
      "ĠBay": 2286,
      "ĠGeta": 2287,
      "ctic": 2288,
      "ĠArctic": 2289,
      "-Sp": 2290,
      "ĠMarina": 2291,
      "ĠCross": 2292,
      "ĠChassis": 2293,
      "ĠSands": 2294,
      "ĠGetaway": 2295,
      "kin": 2296,
      "lake": 2297,
      "out": 2298,
      "ĠCy": 2299,
      "ĠSav": 2300,
      "ivias": 2301,
      "ĠConstruction": 2302,
      "artlake": 2303,
      "ĠHeartlake": 2304,
      "ĠStorage": 2305,
      "ĠOlivias": 2306,
      "ms": 2307,
      "oye": 2308,
      "stor": 2309,
      "ĠMind": 2310,
      "ĠTun": 2311,
      "ĠSw": 2312,
      "ĠEle": 2313,
      "ĠVill": 2314,
      "ĠWall": 2315,
      "iss": 2316,
      "ĠSport": 2317,
      "ĠChina": 2318,
      "izer": 2319,
      "-Rotor": 2320,
      "ĠVehicles": 2321,
      "ĠRocket": 2322,
      "ĠSavoye": 2323,
      "storms": 2324,
      "ĠMindstorms": 2325,
      "ĠVilla": 2326,
      "Iz": 2327,
      "Jm": 2328,
      "Yg": 2329,
      "sage": 2330,
      "uv": 2331,
      "ĠMes": 2332,
      "ĠSower": 2333,
      "ĠSub": 2334,
      "ĠPri": 2335,
      "ĠLouv": 2336,
      "ĠBoom": 2337,
      "ĠIntercept": 2338,
      "ĠSonic": 2339,
      "-Speed": 2340,
      "ĠTuner": 2341,
      "IzYg": 2342,
      "ĠMessage": 2343,
      "ĠLouvre": 2344,
      "ctr": 2345,
      "ker": 2346,
      "ron": 2347,
      "ĠMid": 2348,
      "ĠDo": 2349,
      "ĠUnder": 2350,
      "ager": 2351,
      "cycle": 2352,
      "ĠWright": 2353,
      "ĠStandard": 2354,
      "ĠElectr": 2355,
      "ĠUndercover": 2356,
      "cis": 2357,
      "pper": 2358,
      "Ġn": 2359,
      "ĠNight": 2360,
      "ĠTeam": 2361,
      "ĠSan": 2362,
      "ancis": 2363,
      "onder": 2364,
      "ĠHopper": 2365,
      "ene": 2366,
      "enced": 2367,
      "ĠCars": 2368,
      "erienced": 2369,
      "ĠExperienced": 2370,
      "anger": 2371,
      "bour": 2372,
      "ĠClub": 2373,
      "ĠHarbour": 2374,
      "ĠFrancis": 2375,
      "ĠEnd": 2376,
      "ĠScene": 2377,
      "ĠFrancisco": 2378,
      "-T": 2379,
      "land": 2380,
      "Ġcar": 2381,
      "atcher": 2382,
      "erkin": 2383,
      "ĠPerkin": 2384,
      "ĠEV": 2385,
      "icag": 2386,
      "ĠChicag": 2387,
      "ĠThatcher": 2388,
      "uardian": 2389,
      "ĠIsland": 2390,
      "ĠPerkins": 2391,
      "ĠChicago": 2392,
      "cin": 2393,
      "hin": 2394,
      "Ġtr": 2395,
      "ĠLas": 2396,
      "ĠHQ": 2397,
      "ĠRise": 2398,
      "ĠPre": 2399,
      "ĠDozer": 2400,
      "ĠVoy": 2401,
      "ĠRoader": 2402,
      "ĠRacing": 2403,
      "ida": 2404,
      "ĠSphin": 2405,
      "ngine": 2406,
      "ĠAlph": 2407,
      "ĠRailroad": 2408,
      "ĠNaida": 2409,
      "cinct": 2410,
      "ĠPrecinct": 2411,
      "ĠVoyager": 2412,
      "ĠSphinx": 2413,
      "ĠAlpha": 2414,
      "cons": 2415,
      "ĠMiss": 2416,
      "ĠFal": 2417,
      "mer": 2418,
      "ĠSith": 2419,
      "ĠVeg": 2420,
      "andler": 2421,
      "ĠLoad": 2422,
      "ĠChase": 2423,
      "ĠAirte": 2424,
      "ĠClaw": 2425,
      "ĠGrand": 2426,
      "persp": 2427,
      "ĠFortress": 2428,
      "ĠHypersp": 2429,
      "ĠCrossing": 2430,
      "ĠPrix": 2431,
      "ĠMission": 2432,
      "ĠFalcons": 2433,
      "ĠVegas": 2434,
      "ĠAirtech": 2435,
      "Dm": 2436,
      "SEK": 2437,
      "con": 2438,
      "cDm": 2439,
      "nation": 2440,
      "nie": 2441,
      "oSEK": 2442,
      "ĠRen": 2443,
      "ĠPad": 2444,
      "ĠPiz": 2445,
      "ĠIce": 2446,
      "ĠSpeeder": 2447,
      "coastal": 2448,
      "ĠLogo": 2449,
      "ĠInternation": 2450,
      "ĠIntercoastal": 2451,
      "ĠSeaport": 2452,
      "oSEKcDm": 2453,
      "ĠInternational": 2454,
      "ER": 2455,
      "air": 2456,
      "ift": 2457,
      "lift": 2458,
      "ĠMag": 2459,
      "ĠMach": 2460,
      "ĠCe": 2461,
      "ĠSur": 2462,
      "ĠRa": 2463,
      "ĠStack": 2464,
      "ĠDeep": 2465,
      "ĠOr": 2466,
      "ĠComp": 2467,
      "ĠCarg": 2468,
      "boat": 2469,
      "ures": 2470,
      "ĠPatroller": 2471,
      "ĠCreatures": 2472,
      "ĠMachine": 2473,
      "ny": 2474,
      "sst": 2475,
      "mper": 2476,
      "ory": 2477,
      "ĠFast": 2478,
      "ĠBang": 2479,
      "angh": 2480,
      "ĠPir": 2481,
      "old": 2482,
      "ĠSteam": 2483,
      "ĠShangh": 2484,
      "ĠTheory": 2485,
      "ĠSpike": 2486,
      "ĠCamper": 2487,
      "ĠCrosst": 2488,
      "ĠPropeller": 2489,
      "ĠCraze": 2490,
      "ĠPirate": 2491,
      "ĠShanghai": 2492,
      "ĠCrosstown": 2493,
      "-G": 2494,
      "SW": 2495,
      "cale": 2496,
      "ean": 2497,
      "iator": 2498,
      "iSW": 2499,
      "uW": 2500,
      "ug": 2501,
      "zy": 2502,
      "Ġrid": 2503,
      "ĠFis": 2504,
      "ĠLean": 2505,
      "ĠRanger": 2506,
      "ĠPD": 2507,
      "ĠPan": 2508,
      "ĠPis": 2509,
      "ĠShock": 2510,
      "ĠJeep": 2511,
      "-Scale": 2512,
      "ĠGrader": 2513,
      "ĠResp": 2514,
      "ĠMediator": 2515,
      "tsuW": 2516,
      "ĠZR": 2517,
      "ĠWhite": 2518,
      "ĠMidi": 2519,
      "iSWtsuW": 2520,
      "Ġride": 2521,
      "ĠFish": 2522,
      "ĠLeaning": 2523,
      "ĠPisa": 2524,
      "curi": 2525,
      "kes": 2526,
      "ty": 2527,
      "ĠHan": 2528,
      "ĠGard": 2529,
      "ĠShow": 2530,
      "iver": 2531,
      "ĠSecuri": 2532,
      "-St": 2533,
      "ĠCrusher": 2534,
      "ĠCement": 2535,
      "-Guardian": 2536,
      "ĠGarden": 2537,
      "ĠSecurity": 2538,
      "cc": 2539,
      "cl": 2540,
      "dy": 2541,
      "net": 2542,
      "Ġmo": 2543,
      "ĠMeg": 2544,
      "ĠAerial": 2545,
      "ĠFar": 2546,
      "ary": 2547,
      "ĠMoon": 2548,
      "ĠCore": 2549,
      "ĠChild": 2550,
      "box": 2551,
      "egade": 2552,
      "ĠRenegade": 2553,
      "ĠPizza": 2554,
      "ĠMagnet": 2555,
      "Ġmodel": 2556,
      "ĠMega": 2557,
      "ĠFarm": 2558,
      "ĠMagnetizer": 2559,
      "bine": 2560,
      "lf": 2561,
      "na": 2562,
      "ĠMr": 2563,
      "ĠHide": 2564,
      "aran": 2565,
      "ĠPost": 2566,
      "ĠElf": 2567,
      "ĠCarri": 2568,
      "amaran": 2569,
      "ĠHorse": 2570,
      "ĠTurbine": 2571,
      "ĠSolo": 2572,
      "ĠPropellor": 2573,
      "ĠCatamaran": 2574,
      "aul": 2575,
      "gen": 2576,
      "row": 2577,
      "ĠMic": 2578,
      "ernie": 2579,
      "ĠHaul": 2580,
      "olbox": 2581,
      "ĠGung": 2582,
      "etary": 2583,
      "ĠEmer": 2584,
      "ĠVernie": 2585,
      "ĠCabo": 2586,
      "ĠLanding": 2587,
      "ĠArm": 2588,
      "ĠWheels": 2589,
      "ĠFlatcar": 2590,
      "ĠMonster": 2591,
      "ĠHolidays": 2592,
      "ĠToolbox": 2593,
      "ĠCreative": 2594,
      "gency": 2595,
      "ĠMicro": 2596,
      "ĠGungan": 2597,
      "ĠEmergency": 2598,
      "ĠCaboose": 2599,
      "Ew": 2600,
      "Mc": 2601,
      "bul": 2602,
      "ly": 2603,
      "uEw": 2604,
      "ĠFir": 2605,
      "ĠEngine": 2606,
      "ĠCrunch": 2607,
      "ĠRotor": 2608,
      "ĠLodge": 2609,
      "ĠBox": 2610,
      "ĠSecre": 2611,
      "ĠLakes": 2612,
      "ĠSpeedboat": 2613,
      "ĠYears": 2614,
      "uEwMc": 2615,
      "ĠFirst": 2616,
      "ĠCruncher": 2617,
      "ĠSecret": 2618,
      "ĠLakeside": 2619,
      "MW": 2620,
      "cat": 2621,
      "mited": 2622,
      "yo": 2623,
      "int": 2624,
      "ĠTok": 2625,
      "ĠSung": 2626,
      "ĠBons": 2627,
      "ĠBMW": 2628,
      "led": 2629,
      "igale": 2630,
      "ĠGS": 2631,
      "ĠIron": 2632,
      "ĠOut": 2633,
      "ĠRoom": 2634,
      "ĠLock": 2635,
      "ĠYard": 2636,
      "ĠSnowmobile": 2637,
      "emun": 2638,
      "ĠDucat": 2639,
      "ĠLimited": 2640,
      "-Duty": 2641,
      "ĠStables": 2642,
      "ĠCycle": 2643,
      "ĠHyperspeed": 2644,
      "ĠCargo": 2645,
      "nyemun": 2646,
      "ĠPanigale": 2647,
      "ĠTokyo": 2648,
      "ĠSungnyemun": 2649,
      "ĠBonsai": 2650,
      "ĠDucati": 2651,
      "BL": 2652,
      "Lis": 2653,
      "lin": 2654,
      "ry": 2655,
      "top": 2656,
      "vac": 2657,
      "Ġat": 2658,
      "orry": 2659,
      "ĠLun": 2660,
      "ĠLev": 2661,
      "ĠLorry": 2662,
      "erlin": 2663,
      "ĠCut": 2664,
      "ĠBerlin": 2665,
      "sey": 2666,
      "igate": 2667,
      "ĠEvac": 2668,
      "ĠCozy": 2669,
      "ĠLook": 2670,
      "ĠMountaintop": 2671,
      "ĠFrigate": 2672,
      "ĠNebul": 2673,
      "LisBL": 2674,
      "ĠLunar": 2675,
      "ĠLevel": 2676,
      "ĠLookout": 2677,
      "ĠNebulon": 2678,
      "Cb": 2679,
      "KD": 2680,
      "bur": 2681,
      "post": 2682,
      "Ġ'": 2683,
      "ĠMin": 2684,
      "ĠGate": 2685,
      "enbur": 2686,
      "ĠUr": 2687,
      "andenbur": 2688,
      "ĠWe": 2689,
      "idman": 2690,
      "ĠBlast": 2691,
      "ĠRecon": 2692,
      "ĠInven": 2693,
      "ĠBrandenbur": 2694,
      "auri": 2695,
      "ĠSquidman": 2696,
      "uble": 2697,
      "ĠCentauri": 2698,
      "udKD": 2699,
      "ĠDouble": 2700,
      "ĠOutpost": 2701,
      "CbudKD": 2702,
      "ĠInventor": 2703,
      "ĠBrandenburg": 2704,
      "bon": 2705,
      "ey": 2706,
      "eper": 2707,
      "use": 2708,
      "ĠGuard": 2709,
      "riker": 2710,
      "andal": 2711,
      "ĠCarbon": 2712,
      "mbler": 2713,
      "artment": 2714,
      "angler": 2715,
      "ĠApartment": 2716,
      "ĠWrangler": 2717,
      "ĠQuick": 2718,
      "ĠRambler": 2719,
      "DF": 2720,
      "jDF": 2721,
      "yce": 2722,
      "ĠHaw": 2723,
      "ĠRiver": 2724,
      "ĠPit": 2725,
      "ĠCarav": 2726,
      "ĠRecycle": 2727,
      "ĠBatman": 2728,
      "ĠRoll": 2729,
      "ĠRolls": 2730,
      "ship": 2731,
      "-Royce": 2732,
      "ĠLaunching": 2733,
      "ĠCompac": 2734,
      "ĠResponder": 2735,
      "ĠHawk": 2736,
      "ĠPits": 2737,
      "ĠCaravan": 2738,
      "qo": 2739,
      "Ġmot": 2740,
      "ĠMrs": 2741,
      "end": 2742,
      "enon": 2743,
      "ĠDun": 2744,
      "ĠJok": 2745,
      "ĠTrans": 2746,
      "ĠClau": 2747,
      "ĠZenon": 2748,
      "ĠSkull": 2749,
      "ĠCrushers": 2750,
      "ĠDune": 2751,
      "ĠJoker": 2752,
      "ĠClaus": 2753,
      "ier": 2754,
      "vel": 2755,
      "Ġlift": 2756,
      "ĠFle": 2757,
      "ĠPier": 2758,
      "ĠVen": 2759,
      "trax": 2760,
      "ĠBattrax": 2761,
      "ĠTransc": 2762,
      "Ġtruck": 2763,
      "ĠFleet": 2764,
      "ĠTranscon": 2765,
      "ger": 2766,
      "lane": 2767,
      "ĠBre": 2768,
      "ĠHandler": 2769,
      "ĠRid": 2770,
      "ĠPand": 2771,
      "ĠSte": 2772,
      "ĠGold": 2773,
      "ĠStarter": 2774,
      "uma": 2775,
      "ĠBur": 2776,
      "ĠTrauma": 2777,
      "ĠIntru": 2778,
      "ĠQuad": 2779,
      "ĠRiding": 2780,
      "ĠIntruder": 2781,
      "IC": 2782,
      "NIC": 2783,
      "PS": 2784,
      "Pv": 2785,
      "QPS": 2786,
      "VPv": 2787,
      "ae": 2788,
      "bM": 2789,
      "be": 2790,
      "ele": 2791,
      "eill": 2792,
      "gE": 2793,
      "gok": 2794,
      "han": 2795,
      "if": 2796,
      "jo": 2797,
      "mill": 2798,
      "pic": 2799,
      "ssey": 2800,
      "veill": 2801,
      "orian": 2802,
      "ĠMandal": 2803,
      "ĠAmb": 2804,
      "ĠTae": 2805,
      "ĠTre": 2806,
      "ĠProw": 2807,
      "ĠEpic": 2808,
      "ĠOdy": 2809,
      "opper": 2810,
      "ulance": 2811,
      "eeper": 2812,
      "ĠSpin": 2813,
      "ave": 2814,
      "ĠRep": 2815,
      "ĠChopper": 2816,
      "ĠSmash": 2817,
      "ĠForge": 2818,
      "ĠPlanetary": 2819,
      "ods": 2820,
      "phan": 2821,
      "ĠGoods": 2822,
      "ĠLego": 2823,
      "ĠTogok": 2824,
      "ĠWindmill": 2825,
      "ĠSurveill": 2826,
      "ĠOrc": 2827,
      "-Striker": 2828,
      "ĠMining": 2829,
      "ĠCarbonite": 2830,
      "ĠStephan": 2831,
      "ĠMandalorian": 2832,
      "ĠAmbulance": 2833,
      "ĠTaejo": 2834,
      "ĠProwler": 2835,
      "ĠOdyssey": 2836,
      "ĠTogokhan": 2837,
      "ĠSurveillance": 2838,
      "-Q": 2839,
      "AAS": 2840,
      "ION": 2841,
      "LZ": 2842,
      "LAAS": 2843,
      "XV": 2844,
      "di": 2845,
      "ef": 2846,
      "gu": 2847,
      "rac": 2848,
      "wa": 2849,
      "Ġqu": 2850,
      "atment": 2851,
      "attro": 2852,
      "ĠAudi": 2853,
      "ĠTele": 2854,
      "ĠCLAAS": 2855,
      "ĠSco": 2856,
      "ĠHook": 2857,
      "ĠStud": 2858,
      "ĠGe": 2859,
      "eller": 2860,
      "ĠEmm": 2861,
      "ĠOiler": 2862,
      "unct": 2863,
      "ĠXER": 2864,
      "ĠJunct": 2865,
      "ĠYach": 2866,
      "ĠSnake": 2867,
      "ĠMotorcycle": 2868,
      "ĠRockef": 2869,
      "ĠForestmen": 2870,
      "ĠHideout": 2871,
      "qoLZ": 2872,
      "ĠTreatment": 2873,
      "Ġquattro": 2874,
      "ĠStudi": 2875,
      "ĠEmmas": 2876,
      "ĠXERION": 2877,
      "ĠJunction": 2878,
      "ĠYacht": 2879,
      "ĠRockefeller": 2880,
      "-h": 2881,
      "Ae": 2882,
      "FER": 2883,
      "Gj": 2884,
      "KAe": 2885,
      "Ul": 2886,
      "UKAe": 2887,
      "bs": 2888,
      "dn": 2889,
      "eze": 2890,
      "handler": 2891,
      "iff": 2892,
      "kers": 2893,
      "lGj": 2894,
      "uk": 2895,
      "aters": 2896,
      "ĠMine": 2897,
      "ĠSle": 2898,
      "ĠSail": 2899,
      "ĠSau": 2900,
      "ĠHer": 2901,
      "ĠHag": 2902,
      "ark": 2903,
      "ĠRam": 2904,
      "ĠPig": 2905,
      "ĠPod": 2906,
      "olation": 2907,
      "tering": 2908,
      "alker": 2909,
      "ĠStri": 2910,
      "ĠEiff": 2911,
      "ĠVan": 2912,
      "ĠOper": 2913,
      "ĠObs": 2914,
      "ĠWom": 2915,
      "ĠWonder": 2916,
      "ĠShark": 2917,
      "ĠRemo": 2918,
      "ĠBattering": 2919,
      "ĠInn": 2920,
      "atory": 2921,
      "ĠBuckbe": 2922,
      "ĠSkaters": 2923,
      "ĠKart": 2924,
      "ervatory": 2925,
      "ĠChasing": 2926,
      "ĠSydn": 2927,
      "ĠFlying": 2928,
      "ĠIsolation": 2929,
      "ĠCyber": 2930,
      "Ġnose": 2931,
      "Ġtrain": 2932,
      "ĠCarriage": 2933,
      "ĠArmy": 2934,
      "ĠUruk": 2935,
      "ĠGuarded": 2936,
      "ĠVenice": 2937,
      "ĠTelehandler": 2938,
      "-hai": 2939,
      "UllGj": 2940,
      "UKAeFER": 2941,
      "ĠSleeper": 2942,
      "ĠSaucer": 2943,
      "ĠHagrid": 2944,
      "ĠStrikers": 2945,
      "ĠEiffel": 2946,
      "ĠOpera": 2947,
      "ĠObservatory": 2948,
      "ĠWoman": 2949,
      "ĠBuckbeak": 2950,
      "ĠSydney": 2951,
      "UllGjm": 2952,
      "CH": 2953,
      "ECH": 2954,
      "bus": 2955,
      "ial": 2956,
      "ob": 2957,
      "work": 2958,
      "ines": 2959,
      "orter": 2960,
      "ĠTECH": 2961,
      "ĠCave": 2962,
      "ĠSite": 2963,
      "one": 2964,
      "ren": 2965,
      "elob": 2966,
      "room": 2967,
      "ĠShelob": 2968,
      "ĠTram": 2969,
      "ĠSpa": 2970,
      "ĠRecy": 2971,
      "ĠChine": 2972,
      "ĠTransporter": 2973,
      "ĠRoadwork": 2974,
      "ĠAirl": 2975,
      "ĠPark": 2976,
      "ĠAttacks": 2977,
      "ĠDoc": 2978,
      "ĠSurf": 2979,
      "cling": 2980,
      "ĠPandas": 2981,
      "ĠTECHNIC": 2982,
      "ĠRecycling": 2983,
      "ĠChinese": 2984,
      "NW": 2985,
      "eer": 2986,
      "hal": 2987,
      "tance": 2988,
      "orth": 2989,
      "ĠMcl": 2990,
      "ĠAB": 2991,
      "ĠAss": 2992,
      "ĠANW": 2993,
      "ĠBB": 2994,
      "ĠBand": 2995,
      "ĠBeta": 2996,
      "aren": 2997,
      "ĠVint": 2998,
      "hee": 2999,
      "umb": 3000,
      "ĠShorth": 3001,
      "erry": 3002,
      "irement": 3003,
      "istance": 3004,
      "ĠReind": 3005,
      "ĠRequ": 3006,
      "ĠRoadside": 3007,
      "ĠRaceway": 3008,
      "ĠMarvel": 3009,
      "ĠKhal": 3010,
      "ĠRobots": 3011,
      "ĠSenna": 3012,
      "ĠCats": 3013,
      "ĠElfie": 3014,
      "ĠBurj": 3015,
      "ifa": 3016,
      "ĠStudios": 3017,
      "ĠMclaren": 3018,
      "ĠAssistance": 3019,
      "ĠANWB": 3020,
      "ĠBandit": 3021,
      "ĠVintage": 3022,
      "ĠShorthair": 3023,
      "ĠReindeer": 3024,
      "ĠRequirement": 3025,
      "ĠKhalifa": 3026,
      "-C": 3027,
      "Gug": 3028,
      "JC": 3029,
      "Qw": 3030,
      "UP": 3031,
      "bage": 3032,
      "hAS": 3033,
      "iC": 3034,
      "lider": 3035,
      "lgE": 3036,
      "pter": 3037,
      "rhAS": 3038,
      "ual": 3039,
      "xiC": 3040,
      "xlgE": 3041,
      "zrhAS": 3042,
      "zxiC": 3043,
      "ontrol": 3044,
      "ĠStop": 3045,
      "ĠStron": 3046,
      "ĠGro": 3047,
      "ĠGlider": 3048,
      "etab": 3049,
      "ĠCopter": 3050,
      "unter": 3051,
      "uto": 3052,
      "ĠTrains": 3053,
      "ĠPluto": 3054,
      "ĠCherry": 3055,
      "ĠInv": 3056,
      "ghold": 3057,
      "boo": 3058,
      "ĠManual": 3059,
      "ĠFlower": 3060,
      "ĠMax": 3061,
      "ofy": 3062,
      "ĠGarbage": 3063,
      "ĠCenturi": 3064,
      "ĠWago": 3065,
      "ĠGoofy": 3066,
      "ĠForklift": 3067,
      "ĠNaboo": 3068,
      "-Terrain": 3069,
      "ĠPostal": 3070,
      "ĠWeetab": 3071,
      "ĠBreeze": 3072,
      "ĠRemote": 3073,
      "-Control": 3074,
      "GugzxiC": 3075,
      "QwxlgE": 3076,
      "ĠStronghold": 3077,
      "ĠCenturion": 3078,
      "ĠWeetabix": 3079,
      "ĠBreezeway": 3080,
      "-Controlled": 3081,
      "QwxlgEA": 3082,
      "Copter": 3083,
      "FT": 3084,
      "Fly": 3085,
      "bra": 3086,
      "col": 3087,
      "ctral": 3088,
      "cFly": 3089,
      "ectral": 3090,
      "iX": 3091,
      "ptain": 3092,
      "ton": 3093,
      "uqu": 3094,
      "uke": 3095,
      "wen": 3096,
      "walker": 3097,
      "incol": 3098,
      "orial": 3099,
      "ĠMem": 3100,
      "ĠMcFly": 3101,
      "ĠLuke": 3102,
      "ĠLincol": 3103,
      "ĠCur": 3104,
      "ĠSing": 3105,
      "ĠShee": 3106,
      "ĠRC": 3107,
      "ĠRet": 3108,
      "ĠPug": 3109,
      "sed": 3110,
      "reat": 3111,
      "ĠStell": 3112,
      "ĠDuty": 3113,
      "rier": 3114,
      "ĠCrater": 3115,
      "ĠOwen": 3116,
      "ĠCoastal": 3117,
      "ĠCobra": 3118,
      "ĠStarship": 3119,
      "ĠStargu": 3120,
      "itcher": 3121,
      "ĠMouse": 3122,
      "ĠRacers": 3123,
      "ĠTheater": 3124,
      "ĠSpectral": 3125,
      "ĠBouqu": 3126,
      "ĠXT": 3127,
      "-wheel": 3128,
      "ĠYod": 3129,
      "ĠCaptain": 3130,
      "ĠAircraft": 3131,
      "ĠBrown": 3132,
      "ĠPicker": 3133,
      "ĠHarrier": 3134,
      "ĠDumper": 3135,
      "ĠATX": 3136,
      "ĠMarty": 3137,
      "ĠSkywalker": 3138,
      "ĠRocky": 3139,
      "ĠSwitcher": 3140,
      "ĠCarrier": 3141,
      "ĠCute": 3142,
      "ĠCutter": 3143,
      "ĠCompact": 3144,
      "XVFT": 3145,
      "ĠMemorial": 3146,
      "ĠLincoln": 3147,
      "ĠCursed": 3148,
      "ĠSingle": 3149,
      "ĠSheep": 3150,
      "ĠRetreat": 3151,
      "ĠStellar": 3152,
      "ĠStarguider": 3153,
      "ĠBouquet": 3154,
      "-wheeler": 3155,
      "ĠYoda": 3156,
      "XVFTg": 3157,
      "-O": 3158,
      "PbM": 3159,
      "WPbM": 3160,
      "auty": 3161,
      "bor": 3162,
      "dm": 3163,
      "eyz": 3164,
      "fly": 3165,
      "gler": 3166,
      "hK": 3167,
      "hol": 3168,
      "ies": 3169,
      "oter": 3170,
      "py": 3171,
      "tter": 3172,
      "uation": 3173,
      "yn": 3174,
      "Ġ(": 3175,
      "ĠLad": 3176,
      "ĠSally": 3177,
      "arhol": 3178,
      "onizer": 3179,
      "ĠPart": 3180,
      "ĠPup": 3181,
      "lete": 3182,
      "ington": 3183,
      "roe": 3184,
      "ĠIonizer": 3185,
      "ĠOct": 3186,
      "ilyn": 3187,
      "ĠButter": 3188,
      "ĠWarhol": 3189,
      "ĠJack": 3190,
      "ĠAndy": 3191,
      "ĠAngler": 3192,
      "ĠFlame": 3193,
      "ĠBeauty": 3194,
      "ĠSkell": 3195,
      "ĠHarbor": 3196,
      "ĠGrab": 3197,
      "ĠMarilyn": 3198,
      "ĠMonroe": 3199,
      "ĠBoatside": 3200,
      "ĠComplete": 3201,
      "ĠChildren": 3202,
      "ĠEvacuation": 3203,
      "ĠStephanies": 3204,
      "ĠScooter": 3205,
      "-Out": 3206,
      "WPbMdm": 3207,
      "ĠLadder": 3208,
      "ĠParticle": 3209,
      "ĠPuppy": 3210,
      "ĠOctan": 3211,
      "ĠButterfly": 3212,
      "ĠWarhols": 3213,
      "ĠSkellington": 3214,
      "ĠChildrens": 3215,
      "WPbMdmz": 3216,
      "-I": 3217,
      "Bo": 3218,
      "Fs": 3219,
      "hroom": 3220,
      "usc": 3221,
      "Ġcon": 3222,
      "ore": 3223,
      "ĠMusc": 3224,
      "ĠAm": 3225,
      "ĠFri": 3226,
      "amele": 3227,
      "ĠCal": 3228,
      "ĠRon": 3229,
      "olside": 3230,
      "alent": 3231,
      "ĠDri": 3232,
      "ĠDir": 3233,
      "ĠDumb": 3234,
      "adise": 3235,
      "ĠValent": 3236,
      "asley": 3237,
      "ĠWid": 3238,
      "ĠShunt": 3239,
      "ĠColor": 3240,
      "ulk": 3241,
      "ief": 3242,
      "ĠPlace": 3243,
      "ĠRecover": 3244,
      "ĠBathroom": 3245,
      "ĠChamele": 3246,
      "ĠParadise": 3247,
      "ĠAlbus": 3248,
      "ĠPoint": 3249,
      "ĠPoolside": 3250,
      "ledore": 3251,
      "ĠWeasley": 3252,
      "ends": 3253,
      "endar": 3254,
      "Box": 3255,
      "Ġcontainer": 3256,
      "ĠMuscle": 3257,
      "ĠFriends": 3258,
      "ĠCalendar": 3259,
      "ĠDirt": 3260,
      "ĠDumbledore": 3261,
      "ĠWidow": 3262,
      "ĠShunti": 3263,
      "ĠRecovery": 3264,
      "ĠChameleon": 3265,
      "BBox": 3266,
      "Car": 3267,
      "PW": 3268,
      "UV": 3269,
      "aos": 3270,
      "crow": 3271,
      "ePW": 3272,
      "giv": 3273,
      "ho": 3274,
      "jl": 3275,
      "pe": 3276,
      "sgiv": 3277,
      "ĠBack": 3278,
      "anetary": 3279,
      "onse": 3280,
      "ĠGun": 3281,
      "ĠDair": 3282,
      "rio": 3283,
      "rion": 3284,
      "rift": 3285,
      "riot": 3286,
      "ĠOrion": 3287,
      "ĠSheri": 3288,
      "ĠShunter": 3289,
      "ĠSpy": 3290,
      "ĠChief": 3291,
      "ĠChaos": 3292,
      "ĠDem": 3293,
      "ĠAdrift": 3294,
      "ĠAnna": 3295,
      "ĠCentre": 3296,
      "anksgiv": 3297,
      "ĠInterpl": 3298,
      "ĠThanksgiv": 3299,
      "-Engine": 3300,
      "rak": 3301,
      "ĠSpeedCar": 3302,
      "ĠCabrio": 3303,
      "ĠZX": 3304,
      "plane": 3305,
      "arecrow": 3306,
      "ĠPatriot": 3307,
      "ĠScarecrow": 3308,
      "ĠOlaf": 3309,
      "aker": 3310,
      "ĠHyd": 3311,
      "ĠSweeper": 3312,
      "-Trak": 3313,
      "ĠLoading": 3314,
      "ĠHyperspace": 3315,
      "ĠStacker": 3316,
      "ĠResponse": 3317,
      "ĠCompactor": 3318,
      "ĠRepair": 3319,
      "racer": 3320,
      "ĠHero": 3321,
      "ĠPodracer": 3322,
      "hoe": 3323,
      "ĠBackhoe": 3324,
      "ĠGunship": 3325,
      "ĠDairy": 3326,
      "ĠSheriff": 3327,
      "ĠInterplanetary": 3328,
      "ĠThanksgiving": 3329,
      "-K": 3330,
      "GP": 3331,
      "JK": 3332,
      "KMw": 3333,
      "Nak": 3334,
      "Vv": 3335,
      "eace": 3336,
      "gGP": 3337,
      "lic": 3338,
      "pNak": 3339,
      "uel": 3340,
      "xon": 3341,
      "xKMw": 3342,
      "ĠAqu": 3343,
      "ĠFuel": 3344,
      "ĠLuck": 3345,
      "ĠBi": 3346,
      "ĠRV": 3347,
      "ĠPeace": 3348,
      "ĠDel": 3349,
      "ĠExxon": 3350,
      "itch": 3351,
      "-Wheel": 3352,
      "ĠJetport": 3353,
      "shal": 3354,
      "aman": 3355,
      "ĠMarshal": 3356,
      "ĠSuperman": 3357,
      "ĠKeeper": 3358,
      "-Road": 3359,
      "ublic": 3360,
      "ĠSpeedway": 3361,
      "ĠWhale": 3362,
      "gyro": 3363,
      "ĠAutogyro": 3364,
      "ĠFrone": 3365,
      "ivery": 3366,
      "-Star": 3367,
      "ĠTransit": 3368,
      "ĠRepublic": 3369,
      "ĠAirliner": 3370,
      "ĠInvader": 3371,
      "ĠDriver": 3372,
      "-Kart": 3373,
      "gGPl": 3374,
      "pNakp": 3375,
      "xKMwT": 3376,
      "ĠAquaman": 3377,
      "ĠLucky": 3378,
      "ĠDelivery": 3379,
      "CY": 3380,
      "FCY": 3381,
      "Gv": 3382,
      "Gw": 3383,
      "az": 3384,
      "amp": 3385,
      "ban": 3386,
      "dible": 3387,
      "fric": 3388,
      "ied": 3389,
      "ium": 3390,
      "mi": 3391,
      "mar": 3392,
      "og": 3393,
      "ou": 3394,
      "omer": 3395,
      "zone": 3396,
      "Ġst": 3397,
      "Ġlo": 3398,
      "ĠMias": 3399,
      "ĠAven": 3400,
      "ĠAfric": 3401,
      "ĠFro": 3402,
      "ĠNit": 3403,
      "ĠSou": 3404,
      "ĠBed": 3405,
      "ĠBip": 3406,
      "ĠHulk": 3407,
      "ĠStad": 3408,
      "let": 3409,
      "ĠEng": 3410,
      "ĠCrash": 3411,
      "ital": 3412,
      "ĠWitch": 3413,
      "ĠTrax": 3414,
      "ĠIncre": 3415,
      "ĠCase": 3416,
      "ĠSemi": 3417,
      "ĠExcurs": 3418,
      "ĠAnak": 3419,
      "ĠFlag": 3420,
      "ĠFlash": 3421,
      "ĠMail": 3422,
      "ĠStreak": 3423,
      "ĠLab": 3424,
      "omaster": 3425,
      "ĠAllied": 3426,
      "ĠAmerica": 3427,
      "ĠBullet": 3428,
      "ĠDragon": 3429,
      "ĠQB": 3430,
      "ĠCraft": 3431,
      "ĠSwamp": 3432,
      "ĠSubmar": 3433,
      "ĠMidnight": 3434,
      "-Trac": 3435,
      "ĠRamp": 3436,
      "ĠCargomaster": 3437,
      "ĠArmor": 3438,
      "ĠUrban": 3439,
      "ĠGroomer": 3440,
      "ĠValentines": 3441,
      "ĠDemon": 3442,
      "FCYGv": 3443,
      "Gwu": 3444,
      "Ġsteam": 3445,
      "Ġlocomotive": 3446,
      "ĠAvenger": 3447,
      "ĠAfrican": 3448,
      "ĠFrozone": 3449,
      "ĠNitro": 3450,
      "ĠSouth": 3451,
      "ĠBiplane": 3452,
      "ĠStadium": 3453,
      "ĠEngines": 3454,
      "ĠIncredible": 3455,
      "ĠExcursion": 3456,
      "ĠAnakin": 3457,
      "ĠSubmarine": 3458,
      "-Tractor": 3459,
      "Kh": 3460,
      "UJC": 3461,
      "Vs": 3462,
      "WUV": 3463,
      "Xv": 3464,
      "YbM": 3465,
      "bac": 3466,
      "ca": 3467,
      "fXv": 3468,
      "lon": 3469,
      "mion": 3470,
      "nny": 3471,
      "oiX": 3472,
      "poiX": 3473,
      "uJ": 3474,
      "uy": 3475,
      "ush": 3476,
      "wit": 3477,
      "wbac": 3478,
      "yVs": 3479,
      "zard": 3480,
      "Ġwit": 3481,
      "ora": 3482,
      "orld": 3483,
      "ĠMick": 3484,
      "ĠCri": 3485,
      "ĠBel": 3486,
      "ĠBir": 3487,
      "anos": 3488,
      "ĠTrike": 3489,
      "ĠPud": 3490,
      "ĠPush": 3491,
      "ĠStev": 3492,
      "igator": 3493,
      "igger": 3494,
      "edi": 3495,
      "ĠGam": 3496,
      "ĠGuardian": 3497,
      "ĠGuy": 3498,
      "ĠDance": 3499,
      "ĠDigger": 3500,
      "ĠEaster": 3501,
      "ĠCom": 3502,
      "ĠBunny": 3503,
      "ĠWorld": 3504,
      "und": 3505,
      "ĠBliz": 3506,
      "eria": 3507,
      "ĠJedi": 3508,
      "ĠMap": 3509,
      "ĠBear": 3510,
      "-Man": 3511,
      "-Sat": 3512,
      "ĠGranger": 3513,
      "key": 3514,
      "ĠPlanet": 3515,
      "ĠCreeper": 3516,
      "ĠLime": 3517,
      "ĠTurkey": 3518,
      "ĠThanos": 3519,
      "ĠAlligator": 3520,
      "ĠBull": 3521,
      "-Alon": 3522,
      "ĠNews": 3523,
      "ĠChewbac": 3524,
      "ĠEmmet": 3525,
      "-TE": 3526,
      "usement": 3527,
      "ĠStephanie": 3528,
      "ĠHermion": 3529,
      "ĠAirline": 3530,
      "ĠAmusement": 3531,
      "UJCyVs": 3532,
      "poiXJC": 3533,
      "ĠMickey": 3534,
      "ĠCrisis": 3535,
      "ĠBelle": 3536,
      "ĠBird": 3537,
      "ĠPudsey": 3538,
      "ĠSteve": 3539,
      "ĠGamora": 3540,
      "ĠBlizzard": 3541,
      "-Along": 3542,
      "ĠChewbacca": 3543,
      "ĠHermione": 3544,
      "UJCyVsi": 3545,
      "-P": 3546,
      "AC": 3547,
      "HAC": 3548,
      "IN": 3549,
      "QN": 3550,
      "ape": 3551,
      "bag": 3552,
      "cord": 3553,
      "dre": 3554,
      "eet": 3555,
      "gn": 3556,
      "hn": 3557,
      "has": 3558,
      "ien": 3559,
      "iers": 3560,
      "ma": 3561,
      "ovel": 3562,
      "ohn": 3563,
      "rin": 3564,
      "ybag": 3565,
      "ĠMil": 3566,
      "ĠMay": 3567,
      "ĠAer": 3568,
      "ther": 3569,
      "ĠTig": 3570,
      "ĠTine": 3571,
      "ĠTug": 3572,
      "ange": 3573,
      "ĠPhas": 3574,
      "reck": 3575,
      "ĠDin": 3576,
      "ĠEB": 3577,
      "ĠVi": 3578,
      "hem": 3579,
      "ĠOf": 3580,
      "ĠCoach": 3581,
      "ĠWHAC": 3582,
      "ĠShovel": 3583,
      "ĠUnit": 3584,
      "ĠPliers": 3585,
      "ĠJohn": 3586,
      "ĠRey": 3587,
      "ĠRecord": 3588,
      "ĠYell": 3589,
      "scape": 3590,
      "ĠSears": 3591,
      "ĠAndre": 3592,
      "cock": 3593,
      "ĠBeast": 3594,
      "roplane": 3595,
      "ĠAlien": 3596,
      "ĠDetector": 3597,
      "ĠTracking": 3598,
      "ĠSeaplane": 3599,
      "ĠChalet": 3600,
      "ĠWillis": 3601,
      "ĠSwiss": 3602,
      "ĠSweet": 3603,
      "ĠOrange": 3604,
      "ĠPanther": 3605,
      "ĠHancock": 3606,
      "ĠMinnie": 3607,
      "ĠBreaker": 3608,
      "ĠScout": 3609,
      "ĠGround": 3610,
      "ĠHydroplane": 3611,
      "INgn": 3612,
      "rinter": 3613,
      "ĠMilk": 3614,
      "ĠMayhem": 3615,
      "ĠTiger": 3616,
      "ĠPhasma": 3617,
      "ĠWHACK": 3618,
      "ĠYellow": 3619,
      "ĠAlienator": 3620,
      "INgniX": 3621,
      "Af": 3622,
      "Ag": 3623,
      "BE": 3624,
      "FAf": 3625,
      "Gp": 3626,
      "Ir": 3627,
      "MT": 3628,
      "Nog": 3629,
      "NMT": 3630,
      "PV": 3631,
      "PZ": 3632,
      "Pb": 3633,
      "RW": 3634,
      "TT": 3635,
      "XX": 3636,
      "ZBE": 3637,
      "aff": 3638,
      "bin": 3639,
      "bital": 3640,
      "cro": 3641,
      "gir": 3642,
      "hO": 3643,
      "jAg": 3644,
      "kjAg": 3645,
      "lick": 3646,
      "pt": 3647,
      "pion": 3648,
      "rat": 3649,
      "uFAf": 3650,
      "uNog": 3651,
      "vz": 3652,
      "xgu": 3653,
      "ylo": 3654,
      "yna": 3655,
      "zeria": 3656,
      "orpion": 3657,
      "ĠMPV": 3658,
      "ĠMTT": 3659,
      "ĠATR": 3660,
      "ĠFed": 3661,
      "ĠLXX": 3662,
      "eration": 3663,
      "ĠCpt": 3664,
      "ĠSmo": 3665,
      "ĠSlick": 3666,
      "ĠBee": 3667,
      "ĠTrade": 3668,
      "ĠStage": 3669,
      "ĠStriker": 3670,
      "ĠStrat": 3671,
      "ĠGandal": 3672,
      "ĠDyna": 3673,
      "ĠEag": 3674,
      "asure": 3675,
      "ĠCoast": 3676,
      "ĠRobin": 3677,
      "ĠWork": 3678,
      "ĠWreck": 3679,
      "ĠMoto": 3680,
      "ĠBling": 3681,
      "ĠBatgir": 3682,
      "ueZBE": 3683,
      "ĠIII": 3684,
      "ĠArriv": 3685,
      "ĠWheelie": 3686,
      "ention": 3687,
      "ĠFerry": 3688,
      "ĠKylo": 3689,
      "etta": 3690,
      "soner": 3691,
      "ĠScorpion": 3692,
      "ĠPrisoner": 3693,
      "ĠPizzeria": 3694,
      "ĠOrder": 3695,
      "ĠOrbital": 3696,
      "ĠBerlinetta": 3697,
      "ĠBurger": 3698,
      "gEhO": 3699,
      "ĠInvention": 3700,
      "ĠBedroom": 3701,
      "ĠHulkbus": 3702,
      "-Plane": 3703,
      "QNNMT": 3704,
      "ĠAero": 3705,
      "ĠAndreas": 3706,
      "PZuFAf": 3707,
      "PbJ": 3708,
      "RWuNog": 3709,
      "cross": 3710,
      "xguM": 3711,
      "ĠFederation": 3712,
      "ĠLXXXV": 3713,
      "ĠSmokin": 3714,
      "ĠSlickster": 3715,
      "ĠGandalf": 3716,
      "ĠDynamo": 3717,
      "ĠEagle": 3718,
      "ĠWorkshop": 3719,
      "ĠWrecker": 3720,
      "ĠMotocross": 3721,
      "ĠBatgirl": 3722,
      "ĠArrives": 3723,
      "QNNMTvz": 3724,
      "PZuFAfi": 3725,
      "AT": 3726,
      "Cr": 3727,
      "Cqo": 3728,
      "Ef": 3729,
      "FH": 3730,
      "HK": 3731,
      "HO": 3732,
      "Pol": 3733,
      "QM": 3734,
      "Rif": 3735,
      "UEf": 3736,
      "VK": 3737,
      "XT": 3738,
      "XZ": 3739,
      "YD": 3740,
      "Ye": 3741,
      "Ype": 3742,
      "cp": 3743,
      "fil": 3744,
      "isp": 3745,
      "king": 3746,
      "kRif": 3747,
      "lay": 3748,
      "mn": 3749,
      "ouse": 3750,
      "qM": 3751,
      "rUEf": 3752,
      "ten": 3753,
      "yFH": 3754,
      "ymn": 3755,
      "orren": 3756,
      "ĠMK": 3757,
      "ĠMaster": 3758,
      "ĠAAT": 3759,
      "ĠFix": 3760,
      "ĠLigh": 3761,
      "thol": 3762,
      "thouse": 3763,
      "ĠNXT": 3764,
      "ĠMainten": 3765,
      "ĠTail": 3766,
      "ĠTumb": 3767,
      "ĠTorren": 3768,
      "ĠSal": 3769,
      "ĠBar": 3770,
      "ĠBaker": 3771,
      "ĠHunter": 3772,
      "ĠPle": 3773,
      "ĠPro": 3774,
      "oland": 3775,
      "ĠGymn": 3776,
      "ĠDisp": 3777,
      "ĠEscape": 3778,
      "ĠVect": 3779,
      "ĠOver": 3780,
      "ando": 3781,
      "trator": 3782,
      "osaur": 3783,
      "ĠWu": 3784,
      "ĠWalker": 3785,
      "ĠTrail": 3786,
      "ĠSpider": 3787,
      "ĠTrainer": 3788,
      "ĠBount": 3789,
      "ĠStarfight": 3790,
      "ĠInfil": 3791,
      "ĠAirboat": 3792,
      "ĠAirplane": 3793,
      "ĠClown": 3794,
      "ĠClone": 3795,
      "motion": 3796,
      "ĠLife": 3797,
      "tralight": 3798,
      "ĠUltralight": 3799,
      "ĠPatcher": 3800,
      "ĠPothol": 3801,
      "ĠLegoland": 3802,
      "ĠChaser": 3803,
      "ĠDesig": 3804,
      "ĠBone": 3805,
      "ĠCrazy": 3806,
      "ĠTunerX": 3807,
      "ĠEndor": 3808,
      "-Station": 3809,
      "ĠArmando": 3810,
      "ĠVenom": 3811,
      "ĠPanda": 3812,
      "-It": 3813,
      "ĠAmaz": 3814,
      "ĠChiefs": 3815,
      "ĠHydro": 3816,
      "ĠBikes": 3817,
      "azar": 3818,
      "ĠDino": 3819,
      "ĠViking": 3820,
      "Crater": 3821,
      "CqoYD": 3822,
      "Polybag": 3823,
      "XZCqoYD": 3824,
      "YeVK": 3825,
      "YpeYeVK": 3826,
      "yFHrUEf": 3827,
      "ĠLighthouse": 3828,
      "ĠMaintenance": 3829,
      "ĠTumbler": 3830,
      "ĠTorrent": 3831,
      "ĠSalazar": 3832,
      "ĠBaron": 3833,
      "ĠBakery": 3834,
      "ĠPleasure": 3835,
      "ĠGymnast": 3836,
      "ĠDisplay": 3837,
      "ĠVector": 3838,
      "ĠOverh": 3839,
      "ĠBounty": 3840,
      "ĠInfiltrator": 3841,
      "ĠPothole": 3842,
      "ĠAmazon": 3843,
      "cpz": 3844,
      "CN": 3845,
      "EF": 3846,
      "MI": 3847,
      "PR": 3848,
      "RC": 3849,
      "RMI": 3850,
      "YCN": 3851,
      "azer": 3852,
      "helicopter": 3853,
      "ia": 3854,
      "mol": 3855,
      "nzy": 3856,
      "oal": 3857,
      "rader": 3858,
      "tal": 3859,
      "Ġhelicopter": 3860,
      "inn": 3861,
      "ĠARC": 3862,
      "ĠFash": 3863,
      "ĠFinn": 3864,
      "ĠTip": 3865,
      "ĠSide": 3866,
      "ĠSUV": 3867,
      "anone": 3868,
      "ĠRX": 3869,
      "ĠRay": 3870,
      "ola": 3871,
      "ĠHosp": 3872,
      "lest": 3873,
      "ĠGir": 3874,
      "ĠGond": 3875,
      "ĠDavid": 3876,
      "ĠDanone": 3877,
      "ĠEZ": 3878,
      "esmo": 3879,
      "ĠUNIC": 3880,
      "ĠVulk": 3881,
      "ĠVPR": 3882,
      "ĠItal": 3883,
      "ĠWild": 3884,
      "ĠWave": 3885,
      "ĠCart": 3886,
      "ĠBlazer": 3887,
      "ismol": 3888,
      "ĠSprinter": 3889,
      "ĠReven": 3890,
      "ĠBattle": 3891,
      "ĠChom": 3892,
      "ĠSeismol": 3893,
      "ĠWheelin": 3894,
      "ĠForager": 3895,
      "ĠSiesmo": 3896,
      "egic": 3897,
      "ĠGTO": 3898,
      "ĠKoal": 3899,
      "ĠKrader": 3900,
      "uba": 3901,
      "ĠFreeze": 3902,
      "ĠFrenzy": 3903,
      "ĠTwo": 3904,
      "ĠScuba": 3905,
      "ĠPursuer": 3906,
      "ĠQuest": 3907,
      "ĠSonar": 3908,
      "-Sprinter": 3909,
      "ĠCelest": 3910,
      "ĠRaid": 3911,
      "ĠStudio": 3912,
      "ĠSailboat": 3913,
      "ĠRemover": 3914,
      "ĠValentine": 3915,
      "-Roadster": 3916,
      "ogic": 3917,
      "affe": 3918,
      "ĠStrategic": 3919,
      "ĠDesign": 3920,
      "YCNRMI": 3921,
      "ĠFashion": 3922,
      "ĠTipper": 3923,
      "ĠHospital": 3924,
      "ĠGiraffe": 3925,
      "ĠGondola": 3926,
      "ĠUNICEF": 3927,
      "ĠItalia": 3928,
      "ĠRevenge": 3929,
      "ĠChomly": 3930,
      "ĠSeismologic": 3931,
      "ĠKoala": 3932,
      "ĠCelestial": 3933,
      "bc": 3934,
      "Ab": 3935,
      "Li": 3936,
      "Qu": 3937,
      "Ss": 3938,
      "Xk": 3939,
      "XSs": 3940,
      "do": 3941,
      "dian": 3942,
      "eor": 3943,
      "eal": 3944,
      "evo": 3945,
      "guard": 3946,
      "hA": 3947,
      "iary": 3948,
      "ller": 3949,
      "ov": 3950,
      "ough": 3951,
      "pro": 3952,
      "sar": 3953,
      "tide": 3954,
      "uff": 3955,
      "wal": 3956,
      "xil": 3957,
      "yP": 3958,
      "yra": 3959,
      "Ġcer": 3960,
      "Ġpro": 3961,
      "atosaur": 3962,
      "ĠMiner": 3963,
      "ĠFet": 3964,
      "ĠNov": 3965,
      "ĠAuxil": 3966,
      "eral": 3967,
      "ĠTactic": 3968,
      "ĠTyra": 3969,
      "ĠRad": 3970,
      "ĠRight": 3971,
      "ĠRip": 3972,
      "ĠPul": 3973,
      "ĠPelic": 3974,
      "olition": 3975,
      "ĠStock": 3976,
      "ĠStaff": 3977,
      "ĠGen": 3978,
      "ĠGri": 3979,
      "acon": 3980,
      "ĠCover": 3981,
      "ĠCoup": 3982,
      "itor": 3983,
      "ĠShuff": 3984,
      "urers": 3985,
      "ulQu": 3986,
      "ĠPlough": 3987,
      "ĠCharg": 3988,
      "ĠIndian": 3989,
      "ĠSebul": 3990,
      "ĠTracer": 3991,
      "-Whee": 3992,
      "ĠApatosaur": 3993,
      "ĠLandscape": 3994,
      "ĠBeacon": 3995,
      "ĠAdventurers": 3996,
      "ĠSuppl": 3997,
      "ĠMeteor": 3998,
      "ĠATV": 3999,
      "ellite": 4000,
      "ĠAlt": 4001,
      "ĠPolybag": 4002,
      "ĠMonitor": 4003,
      "ĠSatellite": 4004,
      "phant": 4005,
      "ĠStore": 4006,
      "ĠLauncher": 4007,
      "ĠScud": 4008,
      "ĠElephant": 4009,
      "ĠOutdo": 4010,
      "ĠGolden": 4011,
      "ĠSurface": 4012,
      "ĠDriller": 4013,
      "ĠDemolition": 4014,
      "ĠMailbox": 4015,
      "ĠGuardians": 4016,
      "ĠDinosaur": 4017,
      "ĠViper": 4018,
      "ĠStrata": 4019,
      "ĠProbe": 4020,
      "ĠPromotion": 4021,
      "ĠLifeguard": 4022,
      "ĠSidewal": 4023,
      "AbXSs": 4024,
      "Life": 4025,
      "evous": 4026,
      "Ġcereal": 4027,
      "Ġpromotion": 4028,
      "ĠMineral": 4029,
      "ĠNova": 4030,
      "ĠAuxiliary": 4031,
      "ĠTactical": 4032,
      "ĠTyrax": 4033,
      "ĠRadar": 4034,
      "ĠRiptide": 4035,
      "ĠPulsar": 4036,
      "ĠPelican": 4037,
      "ĠGeneral": 4038,
      "ĠGrievous": 4039,
      "ĠCovered": 4040,
      "ĠCoupe": 4041,
      "ĠCharger": 4042,
      "ĠSebulba": 4043,
      "-Wheeled": 4044,
      "ĠApatosaurus": 4045,
      "ĠSupply": 4046,
      "ĠScuderia": 4047,
      "ĠOutdoor": 4048,
      "ĠPromotional": 4049,
      "ĠSidewalk": 4050,
      "ap": 4051,
      "QX": 4052,
      "TF": 4053,
      "YH": 4054,
      "abo": 4055,
      "bd": 4056,
      "bike": 4057,
      "de": 4058,
      "gun": 4059,
      "hk": 4060,
      "ki": 4061,
      "nel": 4062,
      "oth": 4063,
      "rint": 4064,
      "ture": 4065,
      "wo": 4066,
      "wreck": 4067,
      "zari": 4068,
      "Ġon": 4069,
      "Ġch": 4070,
      "attle": 4071,
      "ĠMerry": 4072,
      "ĠAzari": 4073,
      "ĠLight": 4074,
      "ĠNeed": 4075,
      "ertru": 4076,
      "ĠCow": 4077,
      "ĠSun": 4078,
      "ĠPack": 4079,
      "ĠPort": 4080,
      "ĠGertru": 4081,
      "ĠDash": 4082,
      "acell": 4083,
      "ried": 4084,
      "ĠVul": 4085,
      "ĠCrab": 4086,
      "ilot": 4087,
      "oplane": 4088,
      "tra": 4089,
      "ĠBuried": 4090,
      "ĠWater": 4091,
      "ayak": 4092,
      "uracell": 4093,
      "tory": 4094,
      "ĠSprint": 4095,
      "ĠBooth": 4096,
      "ĠSeattle": 4097,
      "board": 4098,
      "ĠWheelgun": 4099,
      "ĠSki": 4100,
      "ĠSkid": 4101,
      "ĠSkate": 4102,
      "ĠSkele": 4103,
      "-Ski": 4104,
      "ĠCream": 4105,
      "ĠKitch": 4106,
      "ĠKayak": 4107,
      "ĠRunabo": 4108,
      "-Round": 4109,
      "ĠTurtle": 4110,
      "phone": 4111,
      "ĠMotorbike": 4112,
      "ĠAstro": 4113,
      "ĠUltra": 4114,
      "ĠGoat": 4115,
      "ĠShipwreck": 4116,
      "ĠDesk": 4117,
      "ĠBonnie": 4118,
      "ĠSaver": 4119,
      "ĠTunnel": 4120,
      "ĠLaser": 4121,
      "ĠMagic": 4122,
      "-Go": 4123,
      "ĠFisherman": 4124,
      "ĠSteer": 4125,
      "ĠTreasure": 4126,
      "ĠTelephone": 4127,
      "iefs": 4128,
      "Boxed": 4129,
      "-Pilot": 4130,
      "QNTF": 4131,
      "ĠAeroplane": 4132,
      "ĠAndrea": 4133,
      "ĠDesigner": 4134,
      "ĠSidecar": 4135,
      "apof": 4136,
      "QXn": 4137,
      "hkQNTF": 4138,
      "Ġchiefs": 4139,
      "ĠNeedle": 4140,
      "ĠSuntory": 4141,
      "ĠPackage": 4142,
      "ĠGertrude": 4143,
      "ĠDasher": 4144,
      "ĠVulture": 4145,
      "boarder": 4146,
      "ĠSkateboarder": 4147,
      "ĠSkeleton": 4148,
      "ĠKitchen": 4149
    },
    "merges": [
      "0 0",
      "00 0",
      "Ġ -",
      "a t",
      ". d",
      ".d at",
      "3 0",
      "1 0",
      "2 0",
      "4 0",
      "7 0",
      "m p",
      "1 5",
      "6 0",
      "_ _",
      ". mp",
      ".mp d",
      "8 0",
      "1 9",
      "9 9",
      "i n",
      "7 1",
      "5 0",
      "o r",
      "Ġ M",
      "2 4",
      "1 4",
      "Ġ A",
      "Ġ F",
      "7 2",
      "Ġ L",
      "1 6",
      "3 6",
      "t h",
      "a in",
      "30 2",
      "m e",
      "Ġ N",
      "ĠA u",
      "a me",
      "L E",
      "ĠM ain",
      "O N",
      "T R",
      "I LE",
      "ĠF ILE",
      "ĠL TR",
      "th or",
      "ĠN ame",
      "ĠAu thor",
      "ĠLTR ON",
      "9 0",
      "e r",
      "7 8",
      "3 2",
      "1 2",
      "3 00",
      "6 6",
      "2 8",
      "2 5",
      "9 8",
      "4 8",
      "1 7",
      "3 8",
      "1 8",
      "6 5",
      "70 7",
      "Ġ T",
      "1 00",
      "Ġ C",
      "1 3",
      "5 6",
      "4 2",
      "7 9",
      "1 20",
      "6 4",
      "Ġ S",
      "5 00",
      "Ġ B",
      "4 4",
      "2 78",
      "3 9",
      "1 10",
      "15 0",
      "3 5",
      "10 2",
      "8 66",
      "3 20",
      "8 8",
      "7 6",
      "1 60",
      "7 4",
      "a n",
      "1 40",
      "3 4",
      "7 5",
      "9 6",
      "Ġ H",
      "2 6",
      "2 00",
      "a r",
      "Ġ R",
      "1 30",
      "ĠT r",
      "1 1",
      "5 4",
      "2 3",
      "99 9",
      "4 20",
      "5 8",
      "7 3",
      "o n",
      "5 2",
      "30 3",
      "2 10",
      "0 8",
      "c k",
      "2 9",
      "1 80",
      "4 3",
      "6 8",
      "36 6",
      "65 5",
      "2 40",
      "3 10",
      "30 6",
      "36 2",
      "1 70",
      "Ġ P",
      "s e",
      "3 71",
      "19 0",
      "o l",
      "9 5",
      "6 00",
      "2 2",
      "7 7",
      "o w",
      "8 4",
      "5 9",
      "t er",
      "2 20",
      "2 80",
      "8 00",
      "3 3",
      "1 12",
      "3 70",
      "6 14",
      "ĠH o",
      "a l",
      "30 1",
      "r e",
      "3 79",
      "ĠS t",
      "9 4",
      "99 6",
      "l e",
      "32 5",
      "i g",
      "10 1",
      "2 30",
      "2 60",
      "4 00",
      "e d",
      "10 4",
      "4 6",
      "Ġ G",
      "e n",
      "Ġ D",
      "9 3",
      "e t",
      "2 50",
      "2 70",
      "in g",
      "12 8",
      "25 9",
      "u ck",
      "08 7",
      "5 3",
      "24 2",
      "30 4",
      "2 90",
      "9 2",
      "14 4",
      "e l",
      "Ġ E",
      "e s",
      "2 72",
      "Ġ U",
      "5 5",
      "99 2",
      "a c",
      "98 1",
      "3 60",
      "ĠHo u",
      "3 40",
      "r i",
      "9 60",
      "24 3",
      "a d",
      "ĠT ow",
      "4 30",
      "15 2",
      "r o",
      "6 2",
      "ĠHou se",
      "ĠTr uck",
      "24 1",
      "20 8",
      "Ġ V",
      "5 7",
      "2 13",
      "9 66",
      "16 8",
      "1 36",
      "99 7",
      "10 7",
      "28 8",
      "ĠC r",
      "8 2",
      "9 1",
      "4 7",
      "99 8",
      "ig h",
      "40 7",
      "17 6",
      "38 2",
      "3 90",
      "Ġ I",
      "8 6",
      "3 30",
      "3 80",
      "i c",
      "8 3",
      "a s",
      "g e",
      "4 40",
      "h e",
      "42 1",
      "i on",
      "8 70",
      "8 19",
      "Ġ O",
      "2 79",
      "2 1",
      "ĠC o",
      "5 42",
      "ĠR o",
      "2 16",
      "4 80",
      "0 17",
      "an e",
      "8 80",
      "15 5",
      "4 16",
      "i l",
      "34 6",
      "9 00",
      "2 7",
      "19 8",
      "4 1",
      "60 4",
      "9 23",
      "19 5",
      "ĠSt ar",
      "3 50",
      "5 1",
      "98 4",
      "19 2",
      "18 4",
      "o p",
      "0 6",
      "0 52",
      "an d",
      "t r",
      "44 7",
      "3 1",
      "ĠB ri",
      "38 3",
      "30 7",
      "32 1",
      "u m",
      "12 9",
      "19 1",
      "5 74",
      "ĠE x",
      "0 40",
      "42 7",
      "25 8",
      "3 7",
      "36 7",
      "16 3",
      "9 7",
      "9 78",
      "32 2",
      "98 7",
      "al l",
      "i t",
      "5 60",
      "5 20",
      "4 50",
      "36 8",
      "13 9",
      "4 60",
      "ĠB u",
      "ĠCr ane",
      "60 9",
      "0 30",
      "19 3",
      "40 8",
      "o s",
      "9 80",
      "f f",
      "ĠTow er",
      "28 7",
      "00 3",
      "17 4",
      "i th",
      "a ck",
      "7 00",
      "7 50",
      "6 9",
      "8 7",
      "5 70",
      "40 3",
      "l er",
      "4 28",
      "Ġ W",
      "2 35",
      "95 1",
      "2 24",
      "0 19",
      "25 6",
      "99 0",
      "ĠV ol",
      "u n",
      "4 10",
      "C S",
      "ĠU CS",
      "4 5",
      "6 1",
      "3 74",
      "3 78",
      "5 80",
      "ĠS h",
      "i v",
      "24 5",
      "d ge",
      "12 2",
      "6 38",
      "s p",
      "igh ter",
      "00 1",
      "1 14",
      "56 7",
      "ĠM o",
      "98 2",
      "0 10",
      "ĠBri dge",
      "m o",
      "30 8",
      "or t",
      "ĠC ol",
      "10 6",
      "er r",
      "0 9",
      "10 8",
      "a y",
      "ĠL o",
      "17 9",
      "6 80",
      "2 96",
      "9 40",
      "se um",
      "os seum",
      "ĠCol osseum",
      "24 8",
      "4 70",
      "c h",
      "7 60",
      "4 90",
      "3 42",
      "9 65",
      "16 2",
      "7 20",
      "2 32",
      "at ion",
      "5 30",
      "66 3",
      "6 40",
      "9 24",
      "i le",
      "w ith",
      "ĠTr a",
      "8 1",
      "ĠC ar",
      "35 2",
      "68 3",
      "32 9",
      "ĠR ac",
      "43 3",
      "24 4",
      "32 3",
      "3 24",
      "ĠU n",
      "1 32",
      "4 9",
      "i d",
      "60 5",
      "15 6",
      "28 4",
      "15 1",
      "99 3",
      "ĠB en",
      "u r",
      "ĠB l",
      "1 13",
      "3 12",
      "0 7",
      "6 16",
      "5 40",
      "i re",
      "u l",
      "i s",
      "Ġ with",
      "1 78",
      "44 4",
      "99 4",
      "e e",
      "0 25",
      "ĠT he",
      "39 3",
      "8 5",
      "c t",
      "6 3",
      "2 64",
      "12 3",
      "4 99",
      "19 6",
      "64 3",
      "b ile",
      "40 4",
      "98 5",
      "18 6",
      "7 66",
      "t or",
      "1 24",
      "c ed",
      "w ay",
      "3 36",
      "14 6",
      "in i",
      "0 70",
      "6 10",
      "10 5",
      "0 43",
      "1 18",
      "es t",
      "1 16",
      "60 8",
      "30 9",
      "5 50",
      "1 19",
      "i e",
      "38 9",
      "44 9",
      "48 8",
      "ĠC on",
      "tr on",
      "ĠVol tron",
      "ĠO ff",
      "u t",
      "ĠS p",
      "6 24",
      "17 3",
      "l d",
      "4 64",
      "9 58",
      "48 4",
      "0 57",
      "4 17",
      "14 7",
      "er i",
      "6 60",
      "44 5",
      "6 20",
      "6 48",
      "5 10",
      "14 8",
      "9 50",
      "a v",
      "9 70",
      "ĠTr ain",
      "ĠTr ee",
      "0 35",
      "4 54",
      "ro c",
      "0 3",
      "12 5",
      "ĠB o",
      "00 2",
      "32 8",
      "ĠTow n",
      "5 90",
      "0 21",
      "40 6",
      "9 30",
      "ĠC or",
      "0 72",
      "n er",
      "er s",
      "or d",
      "25 4",
      "98 9",
      "25 3",
      "54 5",
      "3 39",
      "ow er",
      "0 28",
      "8 75",
      "29 2",
      "65 4",
      "24 6",
      "9 33",
      "9 25",
      "ĠB ig",
      "eri al",
      "9 74",
      "2 19",
      "60 1",
      "3 76",
      "Ġ X",
      "25 5",
      "1 72",
      "ĠF ire",
      "12 1",
      "4 48",
      "s t",
      "3 44",
      "ĠP l",
      "Ġ J",
      "8 91",
      "5 77",
      "0 12",
      "ĠR e",
      "9 39",
      "50 9",
      "0 2",
      "8 23",
      "0 41",
      "6 88",
      "12 6",
      "4 12",
      "4 95",
      "il d",
      "48 9",
      "08 6",
      "8 60",
      "6 7",
      "mp erial",
      "ĠI mperial",
      "13 4",
      "75 9",
      "65 6",
      "ĠB at",
      "19 7",
      "ĠTr an",
      "58 9",
      "99 5",
      "9 11",
      "ĠC h",
      "4 74",
      "9 14",
      "2 12",
      "ĠP ower",
      "a ge",
      "6 50",
      "6 90",
      "7 10",
      "15 4",
      "s ter",
      "v er",
      "75 2",
      "11 1",
      "- w",
      "ĠH igh",
      "8 9",
      "e ed",
      "30 5",
      "0 94",
      "ĠD e",
      "66 1",
      "17 7",
      "m b",
      "44 3",
      "0 1",
      "1 38",
      "15 8",
      "15 9",
      "ĠStar f",
      "9 20",
      "9 48",
      "4 32",
      "ĠBu ild",
      "ĠStarf ighter",
      "-w ing",
      "8 59",
      "1 15",
      "ĠI n",
      "4 24",
      "ĠM ini",
      "98 6",
      "op ter",
      "66 9",
      "u e",
      "g h",
      "8 40",
      "2 38",
      "4 59",
      "9 13",
      "78 4",
      "ad er",
      "14 2",
      "t ain",
      "Ġ Y",
      "el ic",
      "4 56",
      "t le",
      "ĠTran sp",
      "elic opter",
      "7 99",
      "i r",
      "16 6",
      "18 8",
      "26 8",
      "5 28",
      "a g",
      "ĠH elicopter",
      "10 9",
      "88 6",
      "ĠA d",
      "6 98",
      "6 30",
      "mo bile",
      "9 76",
      "38 4",
      "75 1",
      "2 34",
      "8 20",
      "35 4",
      "ĠHigh way",
      "13 5",
      "58 5",
      "8 72",
      "25 2",
      "ĠAd v",
      "4 96",
      "ĠTransp ort",
      "16 4",
      "ad e",
      "ĠC a",
      "ic e",
      "4 72",
      "39 2",
      "9 73",
      "90 6",
      "s c",
      "7 40",
      "75 4",
      "it ed",
      "6 78",
      "80 9",
      "18 2",
      "35 9",
      "00 7",
      "39 4",
      "ĠCor ner",
      "2 66",
      "39 5",
      "48 5",
      "6 75",
      "18 9",
      "ĠEx p",
      "86 7",
      "ĠBat mobile",
      "98 8",
      "2 25",
      "5 18",
      "iv e",
      "65 3",
      "ĠS e",
      "ar t",
      "an g",
      "ĠM er",
      "ĠTr ac",
      "es ter",
      "ĠEx c",
      "ced es",
      "ĠMer cedes",
      "0 56",
      "19 9",
      "ĠS n",
      "2 28",
      "2 17",
      "60 2",
      "08 2",
      "80 8",
      "42 6",
      "88 5",
      "d el",
      "8 50",
      "6 23",
      "0 20",
      "96 7",
      "2 65",
      "ĠUn ited",
      "36 5",
      "35 8",
      "14 9",
      "b o",
      "or sc",
      "ĠA n",
      "68 1",
      "ĠP orsc",
      "ĠPorsc he",
      "ĠSn ow",
      "0 31",
      "in e",
      "- W",
      "5 76",
      "9 26",
      "0 15",
      "2 76",
      "2 29",
      "3 75",
      "at or",
      "ĠF ighter",
      "3 18",
      "14 5",
      "16 9",
      "4 73",
      "ĠSt ation",
      "9 36",
      "38 6",
      "ĠC en",
      "9 79",
      "20 7",
      "2 36",
      "u p",
      "15 7",
      "48 3",
      "ĠM an",
      "76 1",
      "ĠSt at",
      "ĠRo ad",
      "1 17",
      "3 34",
      "29 7",
      "3 72",
      "b b",
      "ĠF l",
      "ĠHo bb",
      "ĠHobb y",
      "6 70",
      "6 15",
      "6 74",
      "e m",
      "-W ing",
      "3 16",
      "ĠM a",
      "78 1",
      "28 5",
      "ĠRac er",
      "3 56",
      "8 16",
      "12 7",
      "26 7",
      "22 7",
      "78 5",
      "43 7",
      "74 3",
      "73 7",
      "ar d",
      "4 15",
      "c e",
      "20 6",
      "20 4",
      "16 5",
      "70 5",
      "9 32",
      "5 23",
      "7 80",
      "i b",
      "13 3",
      "88 3",
      "8 52",
      "4 79",
      "64 1",
      "17 5",
      "ĠR ol",
      "b el",
      "ĠRe bel",
      "2 14",
      "6 11",
      "20 1",
      "5 59",
      "50 7",
      "ĠBl ack",
      "0 5",
      "22 2",
      "ĠI I",
      "err ain",
      "a w",
      "70 2",
      "3 19",
      "2 73",
      "28 2",
      "19 4",
      "18 7",
      "c o",
      "36 1",
      "2 18",
      "Ġ and",
      "5 99",
      "4 98",
      "ĠA p",
      "26 2",
      "i z",
      "28 3",
      "53 1",
      "3 73",
      "78 7",
      "64 7",
      "0 36",
      "7 42",
      "86 9",
      "48 6",
      "7 32",
      "16 7",
      "75 8",
      "23 3",
      "95 3",
      "o f",
      "9 75",
      "y er",
      "ĠT errain",
      "on s",
      "0 66",
      "5 36",
      "16 1",
      "ĠO ld",
      "ff ord",
      "ch ester",
      "ĠTra fford",
      "ĠRac e",
      "ĠMan chester",
      "84 6",
      "5 12",
      "10 3",
      "0 80",
      "4 65",
      "78 8",
      "56 8",
      "46 9",
      "2 39",
      "00 6",
      "42 2",
      "7 70",
      "14 1",
      "0 88",
      "il er",
      "2 26",
      "32 6",
      "1 71",
      "as ter",
      "4 92",
      "5 52",
      "33 3",
      "ĠH all",
      "8 15",
      "9 56",
      "0 91",
      "ĠJ et",
      "8 76",
      "5 11",
      "Ġ of",
      "50 1",
      "0 90",
      "i ck",
      "ĠA ir",
      "ĠSt re",
      "ro ad",
      "90 4",
      "15 3",
      "' s",
      "5 44",
      "ĠAu t",
      "ĠTrac tor",
      "6 12",
      "o k",
      "13 7",
      "42 3",
      "14 3",
      "58 4",
      "35 5",
      "ĠL a",
      "4 38",
      "75 5",
      "18 5",
      "39 1",
      "at h",
      "av ator",
      "ĠPl ane",
      "ĠDe ath",
      "ĠExc avator",
      "36 3",
      "ĠCr u",
      "ster s",
      "ĠStre et",
      "ac e",
      "ĠBri ck",
      "eed er",
      "92 7",
      "5 98",
      "ĠD u",
      "ĠTra iler",
      "4 91",
      "8 65",
      "8 39",
      "38 5",
      "71 2",
      "ĠCo aster",
      "ĠRol ler",
      "8 90",
      "d er",
      "an k",
      "8 30",
      "ĠBuild ing",
      "7 78",
      "70 9",
      "s h",
      "t re",
      "u st",
      "ĠA roc",
      "ĠBen z",
      "ĠAroc s",
      "00 8",
      "ri c",
      "he el",
      "44 6",
      "ĠG re",
      "ĠCo ol",
      "76 7",
      "23 7",
      "59 7",
      "13 1",
      "ĠB r",
      "59 2",
      "7 90",
      "9 71",
      "6 95",
      "54 6",
      "88 4",
      "5 54",
      "ĠL and",
      "8 11",
      "99 1",
      "98 3",
      "tre me",
      "9 29",
      "60 6",
      "9 34",
      "08 3",
      "ĠSh ut",
      "ĠShut tle",
      "2 71",
      "s s",
      "79 6",
      "ĠD est",
      "ro yer",
      "ĠDest royer",
      "4 53",
      "96 1",
      "0 60",
      "7 19",
      "0 50",
      "2 74",
      "ĠCr aw",
      "ĠCraw ler",
      "o ck",
      "ĠM ack",
      "th em",
      "ĠC l",
      "26 9",
      "ĠAn them",
      "40 2",
      "ĠP ick",
      "4 51",
      "6 96",
      "52 2",
      "p le",
      "28 1",
      "ĠR S",
      "ĠOff road",
      "4 11",
      "8 29",
      "4 78",
      "8 10",
      "a m",
      "r ol",
      "ĠA r",
      "36 4",
      "18 3",
      "34 9",
      "ĠW heel",
      "ĠSp ace",
      "9 22",
      "ĠG ar",
      "4 93",
      "7 24",
      "8 58",
      "22 1",
      "7 36",
      "79 3",
      "4 18",
      "sp eeder",
      "ĠSnow speeder",
      "35 3",
      "5 17",
      "34 1",
      "8 48",
      "4 94",
      "20 2",
      "6 19",
      "u re",
      "76 3",
      "50 4",
      "54 3",
      "6 37",
      "ĠLo g",
      "4 19",
      "7 74",
      "18 1",
      "7 38",
      "ĠB e",
      "0 13",
      "4 25",
      "6 35",
      "29 1",
      "0 38",
      "9 52",
      "- M",
      "ĠCo mb",
      "4 55",
      "2 23",
      "2 77",
      "94 7",
      "65 7",
      "20 9",
      "o m",
      "ĠGar age",
      "2 11",
      "34 7",
      "ĠIn ter",
      "7 34",
      "9 19",
      "3 13",
      "6 72",
      "20 5",
      "62 7",
      "2 15",
      "2 75",
      "p ort",
      "00 4",
      "24 9",
      "72 9",
      "88 2",
      "4 34",
      "n g",
      "94 6",
      "ig ade",
      "en t",
      "igh t",
      "ĠBr igade",
      "4 58",
      "4 52",
      "00 5",
      "64 6",
      "is er",
      "ĠCru iser",
      "26 3",
      "8 77",
      "t e",
      "43 1",
      "66 4",
      "8 44",
      "9 77",
      "f e",
      "f t",
      "t ic",
      "ĠB uck",
      "77 7",
      "46 2",
      "um n",
      "ĠAut umn",
      "7 76",
      "I E",
      "ĠT IE",
      "54 7",
      "08 1",
      "66 2",
      "2 98",
      "5 26",
      "60 7",
      "56 4",
      "6 99",
      "i an",
      "80 6",
      "9 28",
      "35 7",
      "26 1",
      "9 10",
      "on d",
      "29 4",
      "ĠSh op",
      "28 9",
      "39 6",
      "3 38",
      "8 99",
      "ĠCa fe",
      "6 93",
      "ĠEx treme",
      "id e",
      "8 25",
      "b h",
      "ĠL ie",
      "un tain",
      "bh err",
      "ĠLie bherr",
      "8 64",
      "71 8",
      "24 7",
      "7 30",
      "l or",
      "u gh",
      "7 98",
      "in d",
      "40 1",
      "71 6",
      "ĠRo ugh",
      "ĠAdv ent",
      "6 18",
      "6 39",
      "0 47",
      "it y",
      "0 45",
      "94 1",
      "6 13",
      "6 32",
      "70 4",
      "95 7",
      "8 79",
      "m m",
      "66 7",
      "5 16",
      "ĠM ust",
      "ĠF ord",
      "79 7",
      "ĠBuck et",
      "ĠMust ang",
      "0 71",
      "3 32",
      "0 18",
      "3 15",
      "6 29",
      "70 6",
      "ĠS k",
      "4 14",
      "8 14",
      "58 7",
      "40 5",
      "q u",
      "ĠMo bile",
      "4 57",
      "3 99",
      "ĠF err",
      "ĠS m",
      "all y",
      "6 42",
      "79 2",
      "ĠS up",
      "76 2",
      "tr u",
      "6 36",
      "3 11",
      "ĠM et",
      "68 5",
      "ĠAdvent ure",
      "0 34",
      "33 1",
      "t t",
      "- S",
      "6 17",
      "at er",
      "ĠH ar",
      "ar i",
      "72 5",
      "ĠStat e",
      "ĠFerr ari",
      "a il",
      "65 9",
      "ĠG r",
      "3 48",
      "ar th",
      "re ss",
      "ĠD arth",
      "ĠLo ader",
      "ĠMa ul",
      "6 76",
      "33 7",
      "k e",
      "ĠDu mp",
      "76 8",
      "34 5",
      "5 15",
      "6 92",
      "a u",
      "64 5",
      "ib le",
      "39 7",
      "2 99",
      "ĠM ar",
      "3 17",
      "ĠCo mm",
      "ĠFl at",
      "ĠComm and",
      "29 3",
      "ĠF or",
      "ĠR ally",
      "25 1",
      "52 1",
      "0 99",
      "6 33",
      "8 36",
      "88 8",
      "3 14",
      "ĠA T",
      "an ced",
      "ĠP ar",
      "mo t",
      "tain er",
      "ĠAdv anced",
      "7 72",
      "9 64",
      "ĠR es",
      "il l",
      "7 64",
      "40 9",
      "ĠL ion",
      "82 7",
      "20 3",
      "t ible",
      "72 8",
      "er t",
      "ĠCon ver",
      "ĠExp lor",
      "ĠConver tible",
      "ĠExplor er",
      "ĠM ed",
      "5 58",
      "o del",
      "56 2",
      "ĠP as",
      "se ng",
      "el l",
      "-M odel",
      "ĠSm all",
      "ĠLion s",
      "ĠPas seng",
      "ĠPasseng er",
      "0 24",
      "8 57",
      "96 8",
      "s tru",
      "23 1",
      "sh op",
      "stru ct",
      "0 59",
      "9 44",
      "84 7",
      "6 28",
      "96 9",
      "70 8",
      "36 9",
      "6 94",
      "48 7",
      "ĠB ank",
      "ĠCon tainer",
      "28 6",
      "3 77",
      "ac h",
      "ro p",
      "5 73",
      "v o",
      "65 8",
      "ĠS i",
      "ĠBo ok",
      "ĠBook shop",
      "0 73",
      "8 26",
      "73 3",
      "55 1",
      "e g",
      "Ġ %",
      "08 5",
      "ĠVol vo",
      "iv ers",
      "ĠUn ivers",
      "ĠUnivers al",
      "9 42",
      "00 9",
      "9 54",
      "s ons",
      "mp sons",
      "in ation",
      "ĠA l",
      "38 1",
      "ĠS et",
      "ĠComb ination",
      "ĠSi mpsons",
      "9 35",
      "4 77",
      "ĠG roc",
      "ĠGre en",
      "ĠGroc er",
      "68 9",
      "8 94",
      "25 7",
      "ĠP rop",
      "ĠHo t",
      "3 35",
      "5 56",
      "ĠMo untain",
      "ĠPl an",
      "5 48",
      "A S",
      "8 56",
      "46 1",
      ". ld",
      "3 98",
      "4 36",
      "74 6",
      "le ct",
      "ĠOff ice",
      ".ld r",
      "lect ric",
      "38 8",
      "7 56",
      "g w",
      "ĠC re",
      "ĠHo gw",
      "ĠG T",
      "art s",
      "ĠHogw arts",
      "8 32",
      "38 7",
      "a ur",
      "e ct",
      "4 42",
      "68 2",
      "50 3",
      "Ġ in",
      "or gh",
      "an t",
      "ĠG all",
      "mb orgh",
      "ard o",
      "ĠLa mborgh",
      "ĠGall ardo",
      "ĠLamborgh ini",
      "8 13",
      "0 4",
      "0 26",
      "p er",
      "ĠP ol",
      "ĠG al",
      "co mot",
      "comot ive",
      "46 7",
      "0 39",
      "64 4",
      "ĠR est",
      "ĠD et",
      "is ian",
      "ĠPar isian",
      "aur ant",
      "ĠRest aurant",
      "ĠDet ect",
      "50 5",
      "0 79",
      "58 6",
      "ow n",
      "ĠCen ter",
      "ĠPol ice",
      "0 54",
      "56 3",
      "0 78",
      "9 72",
      "b ed",
      "ĠExp ress",
      "ĠFlat bed",
      "8 12",
      "68 4",
      "e ar",
      "34 3",
      "ĠBl ock",
      "7 15",
      "8 28",
      "80 4",
      "8 78",
      "8 18",
      "66 8",
      "s ide",
      "Ġ x",
      "ĠH e",
      "iv es",
      "ĠDetect ives",
      "42 9",
      "66 6",
      "ĠP et",
      "ĠMo del",
      "ĠLo comotive",
      "48 1",
      "58 2",
      "5 88",
      "6 34",
      "92 1",
      "ĠSup er",
      "4 68",
      "9 15",
      "Ġ K",
      "ĠAp ple",
      "78 2",
      "80 1",
      "ĠC as",
      "ĠCas tle",
      "5 19",
      "l o",
      "94 9",
      "6 77",
      "50 2",
      "ĠS qu",
      "08 9",
      "ĠStat ue",
      "m ith",
      "s mith",
      "ĠBlack smith",
      "ĠM on",
      "ar ing",
      "ĠRo aring",
      "ĠRoad sters",
      "4 39",
      "7 44",
      "a se",
      "o d",
      "0 42",
      "80 2",
      "6 25",
      "29 5",
      "5 65",
      "32 7",
      "v al",
      "ĠS at",
      "ie val",
      "ĠMed ieval",
      "8 38",
      "v en",
      "59 4",
      "ur n",
      "ĠSat urn",
      "7 73",
      "52 7",
      "in er",
      "90 9",
      "ĠC ity",
      "se l",
      "ĠD ie",
      "62 1",
      "ĠBl ue",
      "ĠDie sel",
      "56 1",
      "5 25",
      "a i",
      "op er",
      "ĠAir port",
      "76 9",
      "84 9",
      "mp ire",
      "72 6",
      "73 1",
      "ĠE mpire",
      "ĠBu sters",
      "0 44",
      "4 76",
      "c ue",
      "ĠN AS",
      "74 5",
      "ol lo",
      "ĠAp ollo",
      "ĠRes cue",
      "ĠNAS A",
      "9 38",
      "90 2",
      "48 2",
      "4 35",
      "7 79",
      "ĠL ib",
      "ĠR un",
      "ert y",
      "ĠLib erty",
      "4 75",
      "95 5",
      "59 3",
      "ĠRun ner",
      "90 1",
      "44 1",
      "ĠBu s",
      "struct ion",
      "ĠBlock ade",
      "5 78",
      "5 38",
      "06 1",
      "- R",
      "ĠTr ack",
      "58 1",
      "52 9",
      "86 1",
      "ic le",
      "-R o",
      "88 9",
      "0 16",
      "5 14",
      "9 16",
      "f or",
      "iz ed",
      "ĠPick up",
      "0 27",
      "ĠF r",
      "06 3",
      "0 11",
      "4 66",
      "82 1",
      "50 6",
      "ĠL ine",
      "ĠH au",
      "ĠHau ler",
      "5 79",
      "8 71",
      "- B",
      "8 96",
      "50 8",
      "ĠR ail",
      "54 9",
      "rol iner",
      "ĠMet roliner",
      "6 26",
      "0 14",
      "8 68",
      "65 2",
      "5 32",
      "6 22",
      "m an",
      "ĠL ond",
      "08 4",
      "95 9",
      "ĠLond on",
      "80 5",
      "55 5",
      "ĠH or",
      "5 39",
      "66 5",
      "88 7",
      "9 17",
      "ĠL i",
      "as t",
      "- D",
      "z er",
      "os t",
      "ĠSe a",
      "ĠT ur",
      "94 5",
      "ĠRo bo",
      "5 71",
      "8 62",
      "ĠRo ver",
      "0 55",
      "5 34",
      "e h",
      "o zer",
      "u b",
      "60 3",
      "ĠA tt",
      "ĠV eh",
      "ĠAtt ack",
      "ĠVeh icle",
      "5 13",
      "0 77",
      "at ed",
      "71 4",
      "ĠH ut",
      "68 6",
      "ul ated",
      "ĠAr tic",
      "ĠArtic ulated",
      "8 93",
      "80 7",
      "93 1",
      "ĠT h",
      "ĠR ig",
      "ĠR ed",
      "ĠE n",
      "id er",
      "80 3",
      "96 2",
      "ers k",
      "ĠMa ersk",
      "ĠBe ach",
      "84 1",
      "- e",
      "4 97",
      "5 72",
      "-e lectric",
      "72 3",
      "0 32",
      "0 53",
      "me n",
      "un ch",
      "ĠAl l",
      "5 96",
      "8 98",
      "ri v",
      "ĠHouse s",
      "8 54",
      "79 5",
      "it ion",
      "- E",
      "i ke",
      "p h",
      "r a",
      "68 7",
      "8 92",
      "d ition",
      "ĠE dition",
      "av y",
      "ĠMar k",
      "ĠHe avy",
      "72 7",
      "0 68",
      "6 91",
      "4 13",
      "78 6",
      "ĠB ase",
      "90 7",
      "35 1",
      "ar s",
      "ĠG ear",
      "53 7",
      "ac tic",
      "ĠO ce",
      "ind ers",
      "ĠGr inders",
      "ĠOce an",
      "5 66",
      "7 65",
      "i x",
      "tr al",
      "ce p",
      "ĠInter cep",
      "90 8",
      "h am",
      "ĠM art",
      "ĠF ive",
      "78 3",
      "ĠC ater",
      "ĠSe ven",
      "ĠGal actic",
      "ĠCater ham",
      "8 74",
      "9 43",
      "u s",
      "ĠTr i",
      "ĠHot el",
      "5 24",
      "0 48",
      "ĠSt or",
      "as h",
      "i mo",
      "ĠN e",
      "en z",
      "ĠMo tor",
      "ĠUn imo",
      "-B enz",
      "ĠTri ple",
      "ĠUnimo g",
      "9 12",
      "54 1",
      "b re",
      "d ul",
      "i p",
      "er bre",
      "ĠG ing",
      "ĠMo dul",
      "ĠCommand er",
      "ĠMark et",
      "erbre ad",
      "ĠGing erbread",
      "ĠModul ars",
      "6 79",
      "y e",
      "65 1",
      "58 3",
      "46 3",
      "ĠGre at",
      "4 71",
      "78 9",
      "71 7",
      "ĠA me",
      "ĠAme ric",
      "E K",
      "c er",
      "f en",
      "59 1",
      "ĠBu l",
      "ĠDe fen",
      "men t",
      "ĠDefen der",
      "56 9",
      "7 75",
      "8 22",
      "k s",
      "t s",
      "w ag",
      "ĠC roc",
      "et le",
      "ĠVol ks",
      "ĠBe etle",
      "od ile",
      "wag en",
      "ĠCroc odile",
      "ĠVolks wagen",
      "55 7",
      "5 95",
      "06 9",
      "ĠSp eed",
      "iz on",
      "ĠSk y",
      "ĠHor izon",
      "- A",
      "8 53",
      "71 1",
      "ar g",
      "ĠCa b",
      "ĠCre w",
      "0 29",
      "ĠA st",
      "96 3",
      "5 75",
      "8 55",
      "c re",
      "ame s",
      "ĠT arg",
      "ĠB ond",
      "ĠD B",
      "ĠJ ames",
      "ĠMart in",
      "ĠAst in",
      "ĠTarg a",
      "8 51",
      "ĠH ol",
      "id ay",
      "ĠRS R",
      "ĠHol iday",
      "0 58",
      "Ġ Z",
      "72 2",
      "ĠT ank",
      "ĠCen t",
      "0 37",
      "8 24",
      "0 98",
      "6 73",
      "8 43",
      "M w",
      "p l",
      "in a",
      "ĠW h",
      "ĠIn struction",
      "ĠCen tral",
      "0 96",
      "ĠM ix",
      "ĠV ader",
      "ĠMix er",
      "W D",
      "c y",
      "c ra",
      "at e",
      "ĠF re",
      "ĠT w",
      "ĠR ider",
      "ĠG as",
      "ĠLa unch",
      "-A T",
      "cra ft",
      "5 53",
      "0 95",
      "E G",
      "g y",
      "r ag",
      "ĠL EG",
      "ar e",
      "ĠD rag",
      "ĠCh al",
      "ĠLi ft",
      "ĠLEG O",
      "0 74",
      "a as",
      "90 3",
      "er ion",
      "ĠU l",
      "ĠV C",
      "83 7",
      "ĠX erion",
      "ĠCl aas",
      "0 62",
      "z a",
      "5 35",
      "7 48",
      "l us",
      "r s",
      "ĠF ort",
      "ĠExc lus",
      "ĠTur bo",
      "ĠCab in",
      "ĠTw in",
      "ĠExclus ive",
      "90 5",
      "79 4",
      "e ing",
      "e am",
      "ĠB ell",
      "re y",
      "ĠO sp",
      "ĠBo eing",
      "ĠOsp rey",
      "e v",
      "ĠS ol",
      "75 3",
      "ĠCo oper",
      "ld ozer",
      "ĠBul ldozer",
      "0 65",
      "7 71",
      "0 51",
      "ĠP at",
      "ĠRoad ster",
      "ĠFre ight",
      "0 23",
      "X f",
      "h Xf",
      "l s",
      "n ge",
      "72 1",
      "ĠC ro",
      "88 1",
      "le nge",
      "ĠCo tt",
      "ĠW ag",
      "-S T",
      "ĠChal lenge",
      "ĠUl t",
      "hXf Mw",
      "ĠCott age",
      "6 97",
      "8 73",
      "a b",
      "a x",
      "ĠG o",
      "un t",
      "ĠSk ul",
      "74 1",
      "74 7",
      "for cer",
      "ĠEn forcer",
      "75 7",
      "8 97",
      "g gy",
      "ĠBu ggy",
      "f al",
      "g ar",
      "ĠTra fal",
      "ĠSqu are",
      "ĠNe w",
      "ĠTrafal gar",
      "0 49",
      "f ro",
      "t ro",
      "Ġ fro",
      "64 9",
      "ĠP o",
      "et t",
      "ĠRo d",
      "ĠRo ck",
      "ĠRobo t",
      "Ġfro m",
      "8 17",
      "71 3",
      "- U",
      "C ity",
      "b a",
      "g ing",
      "70 3",
      "ĠHo ver",
      "83 1",
      "ĠLog ging",
      "-U p",
      "ĠHover craft",
      "0 76",
      "5 33",
      "93 7",
      "or k",
      "le y",
      "tr ol",
      "8 42",
      "v ester",
      "ĠBo ba",
      "ĠHar vester",
      "0 22",
      "er v",
      "ĠS en",
      "it e",
      "ĠMet ro",
      "c ar",
      "ĠF at",
      "ĠF ett",
      "ĠL eg",
      "ĠB ike",
      "al e",
      "as ons",
      "ĠCh ang",
      "ĠSe asons",
      "ĠChang ing",
      "7 39",
      "b er",
      "c le",
      "ĠF X",
      "er man",
      "ĠT o",
      "ee p",
      "6 31",
      "9 18",
      "8 35",
      "h ost",
      "Ġ th",
      "ame l",
      "ĠC amel",
      "ĠS op",
      "ĠG erman",
      "ĠG host",
      "Ġth e",
      "ĠSop with",
      "79 1",
      "74 9",
      "s on",
      "ĠSh ell",
      "ĠCh as",
      "ĠSnow pl",
      "ĠMotor ized",
      "ĠPat rol",
      "ĠSnowpl ow",
      "R x",
      "b x",
      "o t",
      "u ard",
      "ĠC ust",
      "ĠW r",
      "ĠComb ine",
      "ĠTank er",
      "ĠWag on",
      "Rx bx",
      "ĠCust om",
      "0 97",
      "ĠC he",
      "ĠS y",
      "an ce",
      "ĠU p",
      "ĠSh ip",
      "ur s",
      "av id",
      "ĠFl y",
      "ĠAut o",
      "ĠProp el",
      "ĠCre at",
      "ĠCustom ized",
      "0 46",
      "70 1",
      "y z",
      "84 5",
      "ĠSt unt",
      "ĠW ash",
      "ĠCl ock",
      "ĠFr on",
      "ĠBeach side",
      "a ke",
      "w ater",
      "ĠF all",
      "ĠD es",
      "ing water",
      "ĠFall ingwater",
      "a f",
      "ĠHo me",
      "ac ation",
      "ĠHou rs",
      "ĠV acation",
      "un der",
      "ĠBo y",
      "ĠHar ley",
      "-D avid",
      "ĠTh under",
      "-David son",
      "g k",
      "ĠS P",
      "ĠS c",
      "et a",
      "ĠRail way",
      "EK P",
      "gk EKP",
      "0 92",
      "86 3",
      "b ai",
      "ĠE W",
      "ĠBo at",
      "ĠDu bai",
      "ĠIntercep tor",
      "0 64",
      "6 71",
      "ĠCon trol",
      "m ul",
      "v et",
      "v rol",
      "ĠB on",
      "ĠCor vet",
      "ĠFor k",
      "ĠFor mul",
      "ĠGal ax",
      "ĠChe vrol",
      "ĠCorvet te",
      "ĠFormul a",
      "ĠGalax y",
      "ĠChevrol et",
      "0 33",
      "06 7",
      "m tro",
      "n ight",
      "o on",
      "t o",
      "ĠS ch",
      "ĠP urs",
      "ĠE ye",
      "ĠI s",
      "un g",
      "ch er",
      "ĠStor mtro",
      "ĠSkul ls",
      "oon er",
      "ĠSch ooner",
      "ĠPurs u",
      "ĠStormtro oper",
      "s ation",
      "Ġ Q",
      "ar ch",
      "ĠCon cre",
      "ĠMon arch",
      "ĠTrack ed",
      "-Ro ader",
      "ĠSen sation",
      "ĠConcre te",
      "ĠMonarch s",
      "m me",
      "p ot",
      "t own",
      "ĠC at",
      "ĠP riv",
      "ĠD own",
      "ĠD riv",
      "ĠE mme",
      "ĠO l",
      "ĠDe pot",
      "ĠCru sh",
      "ĠFron t",
      "ĠPriv et",
      "ĠDown town",
      "ĠDriv e",
      "0 93",
      "8 95",
      "a k",
      "i m",
      "ain for",
      "ĠT est",
      "ĠS erv",
      "ĠH ill",
      "ĠR ainfor",
      "al s",
      "ĠAn im",
      "ĠAr ch",
      "ĠFor est",
      "ĠPursu it",
      "ĠServ ice",
      "ĠHill side",
      "ĠRainfor est",
      "ĠAnim als",
      "i as",
      "s is",
      "u d",
      "ĠN a",
      "an za",
      "ĠW ill",
      "ut y",
      "co ver",
      "ĠFX X",
      "ĠBon anza",
      "Y M",
      "z e",
      "Ġ af",
      "ol ph",
      "ĠG te",
      "ĠD olph",
      "ĠE lectric",
      "ĠCor se",
      "ĠY ork",
      "ĠBrick to",
      "om on",
      "ĠSol omon",
      "ĠDolph in",
      "ĠBrickto ber",
      "8 34",
      "ĠD ro",
      "ri d",
      "ur y",
      "ĠY ear",
      "ĠSky way",
      "ĠCent ury",
      "ĠDes ert",
      "ĠDro id",
      "0 75",
      "8 33",
      "i se",
      "ĠW ind",
      "ast al",
      "ĠDrag ster",
      "7 35",
      "Ġ u",
      "o untain",
      "y al",
      "ĠF ountain",
      "ĠTr ev",
      "ing s",
      "ĠRo yal",
      "ĠK night",
      "ĠK ings",
      "ĠPo e",
      "ĠTrev i",
      "ĠKnight s",
      "A L",
      "e ch",
      "o y",
      "or ail",
      "ĠH y",
      "ĠSt ab",
      "ĠW AL",
      "ĠCon struct",
      "st em",
      "-M ech",
      "ĠSup port",
      "ĠSqu ad",
      "ĠMon orail",
      "ĠSy stem",
      "ĠQ u",
      "ĠEmme ts",
      "ĠStab le",
      "ĠWAL LE",
      "ĠConstruct o",
      "o mp",
      "o se",
      "u ri",
      "or ed",
      "ĠSt and",
      "ĠCr a",
      "ĠFl yer",
      "ĠWh omp",
      "ĠLeg ored",
      "ĠFly ers",
      "ĠWill ow",
      "ĠWhomp ing",
      "ĠLegored o",
      "- treme",
      "- City",
      "ĠS on",
      "ĠS and",
      "ĠB ay",
      "ĠG eta",
      "ct ic",
      "ĠAr ctic",
      "-S p",
      "ĠMar ina",
      "ĠCro ss",
      "ĠChas sis",
      "ĠSand s",
      "ĠGeta way",
      "k in",
      "l ake",
      "o ut",
      "ĠC y",
      "ĠS av",
      "iv ias",
      "ĠCon struction",
      "art lake",
      "ĠHe artlake",
      "ĠStor age",
      "ĠOl ivias",
      "m s",
      "o ye",
      "s tor",
      "ĠM ind",
      "ĠT un",
      "ĠS w",
      "ĠE le",
      "ĠV ill",
      "ĠW all",
      "is s",
      "ĠSp ort",
      "ĠCh ina",
      "iz er",
      "-Ro tor",
      "ĠVehicle s",
      "ĠRock et",
      "ĠSav oye",
      "stor ms",
      "ĠMind storms",
      "ĠVill a",
      "I z",
      "J m",
      "Y g",
      "s age",
      "u v",
      "ĠM es",
      "ĠS ower",
      "ĠS ub",
      "ĠP ri",
      "ĠLo uv",
      "ĠBo om",
      "ĠIntercep t",
      "ĠSon ic",
      "-Sp eed",
      "ĠTun er",
      "Iz Yg",
      "ĠMes sage",
      "ĠLouv re",
      "c tr",
      "k er",
      "r on",
      "ĠM id",
      "ĠD o",
      "ĠUn der",
      "ag er",
      "cy cle",
      "ĠWr ight",
      "ĠStand ard",
      "ĠEle ctr",
      "ĠUnder cover",
      "c is",
      "p per",
      "Ġ n",
      "ĠN ight",
      "ĠT eam",
      "ĠS an",
      "an cis",
      "on der",
      "ĠHo pper",
      "en e",
      "en ced",
      "ĠCar s",
      "eri enced",
      "ĠExp erienced",
      "ang er",
      "bo ur",
      "ĠCl ub",
      "ĠHar bour",
      "ĠFr ancis",
      "ĠEn d",
      "ĠSc ene",
      "ĠFrancis co",
      "- T",
      "l and",
      "Ġ car",
      "at cher",
      "er kin",
      "ĠP erkin",
      "ĠE V",
      "ic ag",
      "ĠCh icag",
      "ĠTh atcher",
      "uard ian",
      "ĠIs land",
      "ĠPerkin s",
      "ĠChicag o",
      "c in",
      "h in",
      "Ġ tr",
      "ĠL as",
      "ĠH Q",
      "ĠR ise",
      "ĠP re",
      "ĠD ozer",
      "ĠV oy",
      "ĠRo ader",
      "ĠRac ing",
      "id a",
      "ĠSp hin",
      "ng ine",
      "ĠAl ph",
      "ĠRail road",
      "ĠNa ida",
      "cin ct",
      "ĠPre cinct",
      "ĠVoy ager",
      "ĠSphin x",
      "ĠAlph a",
      "c ons",
      "ĠM iss",
      "ĠF al",
      "me r",
      "ĠS ith",
      "ĠV eg",
      "and ler",
      "ĠLo ad",
      "ĠCh ase",
      "ĠAir te",
      "ĠCl aw",
      "ĠGr and",
      "per sp",
      "ĠFort ress",
      "ĠHy persp",
      "ĠCross ing",
      "ĠPri x",
      "ĠMiss ion",
      "ĠFal cons",
      "ĠVeg as",
      "ĠAirte ch",
      "D m",
      "S EK",
      "c on",
      "c Dm",
      "n ation",
      "n ie",
      "o SEK",
      "ĠR en",
      "ĠP ad",
      "ĠP iz",
      "ĠI ce",
      "ĠSp eeder",
      "co astal",
      "ĠLog o",
      "ĠInter nation",
      "ĠInter coastal",
      "ĠSea port",
      "oSEK cDm",
      "ĠInternation al",
      "E R",
      "a ir",
      "i ft",
      "l ift",
      "ĠM ag",
      "ĠM ach",
      "ĠC e",
      "ĠS ur",
      "ĠR a",
      "ĠSt ack",
      "ĠD eep",
      "ĠO r",
      "ĠCo mp",
      "ĠCar g",
      "bo at",
      "ure s",
      "ĠPatrol ler",
      "ĠCreat ures",
      "ĠMach ine",
      "n y",
      "s st",
      "mp er",
      "or y",
      "ĠF ast",
      "ĠB ang",
      "an gh",
      "ĠP ir",
      "ol d",
      "ĠSt eam",
      "ĠSh angh",
      "ĠThe ory",
      "ĠSp ike",
      "ĠCa mper",
      "ĠCro sst",
      "ĠPropel ler",
      "ĠCra ze",
      "ĠPir ate",
      "ĠShangh ai",
      "ĠCrosst own",
      "- G",
      "S W",
      "c ale",
      "e an",
      "i ator",
      "i SW",
      "u W",
      "u g",
      "z y",
      "Ġ rid",
      "ĠF is",
      "ĠL ean",
      "ĠR anger",
      "ĠP D",
      "ĠP an",
      "ĠP is",
      "ĠSh ock",
      "ĠJ eep",
      "-S cale",
      "ĠGr ader",
      "ĠRes p",
      "ĠMed iator",
      "ts uW",
      "ĠZ R",
      "ĠWh ite",
      "ĠMid i",
      "iSW tsuW",
      "Ġrid e",
      "ĠFis h",
      "ĠLean ing",
      "ĠPis a",
      "c uri",
      "k es",
      "t y",
      "ĠH an",
      "ĠG ard",
      "ĠSh ow",
      "iv er",
      "ĠSe curi",
      "-S t",
      "ĠCrush er",
      "ĠCe ment",
      "-G uardian",
      "ĠGard en",
      "ĠSecuri ty",
      "c c",
      "c l",
      "d y",
      "n et",
      "Ġ mo",
      "ĠM eg",
      "ĠA erial",
      "ĠF ar",
      "ar y",
      "ĠMo on",
      "ĠCor e",
      "ĠCh ild",
      "bo x",
      "eg ade",
      "ĠRen egade",
      "ĠPiz za",
      "ĠMag net",
      "Ġmo del",
      "ĠMeg a",
      "ĠFar m",
      "ĠMagnet izer",
      "b ine",
      "l f",
      "n a",
      "ĠM r",
      "ĠH ide",
      "ar an",
      "ĠP ost",
      "ĠE lf",
      "ĠCar ri",
      "am aran",
      "ĠHor se",
      "ĠTur bine",
      "ĠSol o",
      "ĠPropel lor",
      "ĠCat amaran",
      "a ul",
      "g en",
      "r ow",
      "ĠM ic",
      "er nie",
      "ĠH aul",
      "ol box",
      "ĠG ung",
      "et ary",
      "ĠE mer",
      "ĠV ernie",
      "ĠCa bo",
      "ĠLand ing",
      "ĠAr m",
      "ĠWheel s",
      "ĠFlat car",
      "ĠMon ster",
      "ĠHoliday s",
      "ĠTo olbox",
      "ĠCreat ive",
      "gen cy",
      "ĠMic ro",
      "ĠGung an",
      "ĠEmer gency",
      "ĠCabo ose",
      "E w",
      "M c",
      "b ul",
      "l y",
      "u Ew",
      "ĠF ir",
      "ĠE ngine",
      "ĠCr unch",
      "ĠRo tor",
      "ĠLo dge",
      "ĠBo x",
      "ĠSe cre",
      "ĠLa kes",
      "ĠSpeed boat",
      "ĠYear s",
      "uEw Mc",
      "ĠFir st",
      "ĠCrunch er",
      "ĠSecre t",
      "ĠLakes ide",
      "M W",
      "c at",
      "m ited",
      "y o",
      "in t",
      "ĠT ok",
      "ĠS ung",
      "ĠB ons",
      "ĠB MW",
      "le d",
      "ig ale",
      "ĠG S",
      "ĠI ron",
      "ĠO ut",
      "ĠRo om",
      "ĠLo ck",
      "ĠY ard",
      "ĠSnow mobile",
      "em un",
      "ĠDu cat",
      "ĠLi mited",
      "-D uty",
      "ĠStable s",
      "ĠCy cle",
      "ĠHypersp eed",
      "ĠCarg o",
      "ny emun",
      "ĠPan igale",
      "ĠTok yo",
      "ĠSung nyemun",
      "ĠBons ai",
      "ĠDucat i",
      "B L",
      "L is",
      "l in",
      "r y",
      "t op",
      "v ac",
      "Ġ at",
      "or ry",
      "ĠL un",
      "ĠL ev",
      "ĠL orry",
      "er lin",
      "ĠC ut",
      "ĠB erlin",
      "se y",
      "ig ate",
      "ĠE vac",
      "ĠCo zy",
      "ĠLo ok",
      "ĠMountain top",
      "ĠFr igate",
      "ĠNe bul",
      "Lis BL",
      "ĠLun ar",
      "ĠLev el",
      "ĠLook out",
      "ĠNebul on",
      "C b",
      "K D",
      "b ur",
      "p ost",
      "Ġ '",
      "ĠM in",
      "ĠG ate",
      "en bur",
      "ĠU r",
      "and enbur",
      "ĠW e",
      "id man",
      "ĠBl ast",
      "ĠRe con",
      "ĠIn ven",
      "ĠBr andenbur",
      "au ri",
      "ĠSqu idman",
      "ub le",
      "ĠCent auri",
      "ud KD",
      "ĠDo uble",
      "ĠOut post",
      "Cb udKD",
      "ĠInven tor",
      "ĠBrandenbur g",
      "b on",
      "e y",
      "e per",
      "u se",
      "ĠG uard",
      "ri ker",
      "and al",
      "ĠCar bon",
      "mb ler",
      "art ment",
      "ang ler",
      "ĠAp artment",
      "ĠWr angler",
      "ĠQu ick",
      "ĠRa mbler",
      "D F",
      "j DF",
      "y ce",
      "ĠH aw",
      "ĠR iver",
      "ĠP it",
      "ĠCar av",
      "ĠRe cycle",
      "ĠBat man",
      "ĠRol l",
      "ĠRol ls",
      "sh ip",
      "-Ro yce",
      "ĠLaunch ing",
      "ĠComp ac",
      "ĠResp onder",
      "ĠHaw k",
      "ĠPit s",
      "ĠCarav an",
      "q o",
      "Ġ mot",
      "ĠM rs",
      "en d",
      "en on",
      "ĠD un",
      "ĠJ ok",
      "ĠTran s",
      "ĠCl au",
      "ĠZ enon",
      "ĠSkul l",
      "ĠCrush ers",
      "ĠDun e",
      "ĠJok er",
      "ĠClau s",
      "i er",
      "v el",
      "Ġ lift",
      "ĠF le",
      "ĠP ier",
      "ĠV en",
      "tr ax",
      "ĠBat trax",
      "ĠTran sc",
      "Ġtr uck",
      "ĠFle et",
      "ĠTransc on",
      "g er",
      "l ane",
      "ĠB re",
      "ĠH andler",
      "ĠR id",
      "ĠP and",
      "ĠSt e",
      "ĠG old",
      "ĠStar ter",
      "um a",
      "ĠBu r",
      "ĠTra uma",
      "ĠIn tru",
      "ĠQu ad",
      "ĠRid ing",
      "ĠIntru der",
      "I C",
      "N IC",
      "P S",
      "P v",
      "Q PS",
      "V Pv",
      "a e",
      "b M",
      "b e",
      "e le",
      "e ill",
      "g E",
      "g ok",
      "h an",
      "i f",
      "j o",
      "m ill",
      "p ic",
      "s sey",
      "v eill",
      "or ian",
      "ĠM andal",
      "ĠA mb",
      "ĠT ae",
      "ĠTr e",
      "ĠP row",
      "ĠE pic",
      "ĠO dy",
      "op per",
      "ul ance",
      "ee per",
      "ĠSp in",
      "av e",
      "ĠRe p",
      "ĠCh opper",
      "ĠSm ash",
      "ĠFor ge",
      "ĠPlan etary",
      "od s",
      "ph an",
      "ĠGo ods",
      "ĠLeg o",
      "ĠTo gok",
      "ĠWind mill",
      "ĠSur veill",
      "ĠOr c",
      "-St riker",
      "ĠMin ing",
      "ĠCarbon ite",
      "ĠSte phan",
      "ĠMandal orian",
      "ĠAmb ulance",
      "ĠTae jo",
      "ĠProw ler",
      "ĠOdy ssey",
      "ĠTogok han",
      "ĠSurveill ance",
      "- Q",
      "A AS",
      "I ON",
      "L Z",
      "L AAS",
      "X V",
      "d i",
      "e f",
      "g u",
      "r ac",
      "w a",
      "Ġ qu",
      "at ment",
      "at tro",
      "ĠAu di",
      "ĠT ele",
      "ĠC LAAS",
      "ĠS co",
      "ĠHo ok",
      "ĠSt ud",
      "ĠG e",
      "el ler",
      "ĠE mm",
      "ĠO iler",
      "un ct",
      "ĠX ER",
      "ĠJ unct",
      "ĠY ach",
      "ĠSn ake",
      "ĠMotor cycle",
      "ĠRock ef",
      "ĠForest men",
      "ĠHide out",
      "qo LZ",
      "ĠTre atment",
      "Ġqu attro",
      "ĠStud i",
      "ĠEmm as",
      "ĠXER ION",
      "ĠJunct ion",
      "ĠYach t",
      "ĠRockef eller",
      "- h",
      "A e",
      "F ER",
      "G j",
      "K Ae",
      "U l",
      "U KAe",
      "b s",
      "d n",
      "e ze",
      "h andler",
      "i ff",
      "k ers",
      "l Gj",
      "u k",
      "at ers",
      "ĠM ine",
      "ĠS le",
      "ĠS ail",
      "ĠS au",
      "ĠH er",
      "ĠH ag",
      "ar k",
      "ĠR am",
      "ĠP ig",
      "ĠP od",
      "ol ation",
      "ter ing",
      "al ker",
      "ĠSt ri",
      "ĠE iff",
      "ĠV an",
      "ĠO per",
      "ĠO bs",
      "ĠW om",
      "ĠW onder",
      "ĠSh ark",
      "ĠRe mo",
      "ĠBat tering",
      "ĠIn n",
      "ator y",
      "ĠBuck be",
      "ĠSk aters",
      "ĠK art",
      "erv atory",
      "ĠChas ing",
      "ĠSy dn",
      "ĠFly ing",
      "ĠIs olation",
      "ĠCy ber",
      "Ġn ose",
      "Ġtr ain",
      "ĠCarri age",
      "ĠArm y",
      "ĠUr uk",
      "ĠGuard ed",
      "ĠVen ice",
      "ĠTele handler",
      "-h ai",
      "Ul lGj",
      "UKAe FER",
      "ĠSle eper",
      "ĠSau cer",
      "ĠHag rid",
      "ĠStri kers",
      "ĠEiff el",
      "ĠOper a",
      "ĠObs ervatory",
      "ĠWom an",
      "ĠBuckbe ak",
      "ĠSydn ey",
      "UllGj m",
      "C H",
      "E CH",
      "b us",
      "i al",
      "o b",
      "w ork",
      "in es",
      "or ter",
      "ĠT ECH",
      "ĠC ave",
      "ĠS ite",
      "on e",
      "re n",
      "el ob",
      "ro om",
      "ĠSh elob",
      "ĠTra m",
      "ĠSp a",
      "ĠRe cy",
      "ĠCh ine",
      "ĠTransp orter",
      "ĠRoad work",
      "ĠAir l",
      "ĠPar k",
      "ĠAttack s",
      "ĠDo c",
      "ĠSur f",
      "cl ing",
      "ĠPand as",
      "ĠTECH NIC",
      "ĠRecy cling",
      "ĠChine se",
      "N W",
      "e er",
      "h al",
      "t ance",
      "or th",
      "ĠM cl",
      "ĠA B",
      "ĠA ss",
      "ĠA NW",
      "ĠB B",
      "ĠB and",
      "ĠB eta",
      "ar en",
      "ĠV int",
      "he e",
      "um b",
      "ĠSh orth",
      "err y",
      "ire ment",
      "is tance",
      "ĠRe ind",
      "ĠRe qu",
      "ĠRoad side",
      "ĠRace way",
      "ĠMar vel",
      "ĠK hal",
      "ĠRobo ts",
      "ĠSen na",
      "ĠCat s",
      "ĠElf ie",
      "ĠBur j",
      "if a",
      "ĠStudi os",
      "ĠMcl aren",
      "ĠAss istance",
      "ĠANW B",
      "ĠBand it",
      "ĠVint age",
      "ĠShorth air",
      "ĠReind eer",
      "ĠRequ irement",
      "ĠKhal ifa",
      "- C",
      "G ug",
      "J C",
      "Q w",
      "U P",
      "b age",
      "h AS",
      "i C",
      "l ider",
      "l gE",
      "p ter",
      "r hAS",
      "u al",
      "x iC",
      "x lgE",
      "z rhAS",
      "z xiC",
      "on trol",
      "ĠSt op",
      "ĠSt ron",
      "ĠG ro",
      "ĠG lider",
      "et ab",
      "ĠCo pter",
      "un ter",
      "ut o",
      "ĠTrain s",
      "ĠPl uto",
      "ĠCh erry",
      "ĠIn v",
      "gh old",
      "bo o",
      "ĠMan ual",
      "ĠFl ower",
      "ĠMa x",
      "of y",
      "ĠGar bage",
      "ĠCent uri",
      "ĠWag o",
      "ĠGo ofy",
      "ĠFork lift",
      "ĠNa boo",
      "-T errain",
      "ĠPost al",
      "ĠWe etab",
      "ĠBre eze",
      "ĠRemo te",
      "-C ontrol",
      "Gug zxiC",
      "Qw xlgE",
      "ĠStron ghold",
      "ĠCenturi on",
      "ĠWeetab ix",
      "ĠBreeze way",
      "-Control led",
      "QwxlgE A",
      "C opter",
      "F T",
      "F ly",
      "b ra",
      "c ol",
      "c tral",
      "c Fly",
      "e ctral",
      "i X",
      "p tain",
      "t on",
      "u qu",
      "u ke",
      "w en",
      "w alker",
      "in col",
      "or ial",
      "ĠM em",
      "ĠM cFly",
      "ĠL uke",
      "ĠL incol",
      "ĠC ur",
      "ĠS ing",
      "ĠS hee",
      "ĠR C",
      "ĠR et",
      "ĠP ug",
      "se d",
      "re at",
      "ĠSt ell",
      "ĠD uty",
      "ri er",
      "ĠCr ater",
      "ĠO wen",
      "ĠCo astal",
      "ĠCo bra",
      "ĠStar ship",
      "ĠStar gu",
      "it cher",
      "ĠMo use",
      "ĠRac ers",
      "ĠThe ater",
      "ĠSp ectral",
      "ĠBo uqu",
      "ĠX T",
      "-w heel",
      "ĠY od",
      "ĠCa ptain",
      "ĠAir craft",
      "ĠBr own",
      "ĠPick er",
      "ĠHar rier",
      "ĠDump er",
      "ĠAT X",
      "ĠMart y",
      "ĠSky walker",
      "ĠRock y",
      "ĠSw itcher",
      "ĠCarri er",
      "ĠCut e",
      "ĠCut ter",
      "ĠCompac t",
      "XV FT",
      "ĠMem orial",
      "ĠLincol n",
      "ĠCur sed",
      "ĠSing le",
      "ĠShee p",
      "ĠRet reat",
      "ĠStell ar",
      "ĠStargu ider",
      "ĠBouqu et",
      "-wheel er",
      "ĠYod a",
      "XVFT g",
      "- O",
      "P bM",
      "W PbM",
      "a uty",
      "b or",
      "d m",
      "e yz",
      "f ly",
      "g ler",
      "h K",
      "h ol",
      "i es",
      "o ter",
      "p y",
      "t ter",
      "u ation",
      "y n",
      "Ġ (",
      "ĠL ad",
      "ĠS ally",
      "ar hol",
      "on izer",
      "ĠP art",
      "ĠP up",
      "le te",
      "ing ton",
      "ro e",
      "ĠI onizer",
      "ĠO ct",
      "il yn",
      "ĠBu tter",
      "ĠW arhol",
      "ĠJ ack",
      "ĠAn dy",
      "ĠAn gler",
      "ĠFl ame",
      "ĠBe auty",
      "ĠSk ell",
      "ĠHar bor",
      "ĠGr ab",
      "ĠMar ilyn",
      "ĠMon roe",
      "ĠBoat side",
      "ĠComp lete",
      "ĠChild ren",
      "ĠEvac uation",
      "ĠStephan ies",
      "ĠSco oter",
      "-O ut",
      "WPbM dm",
      "ĠLad der",
      "ĠPart icle",
      "ĠPup py",
      "ĠOct an",
      "ĠButter fly",
      "ĠWarhol s",
      "ĠSkell ington",
      "ĠChildren s",
      "WPbMdm z",
      "- I",
      "B o",
      "F s",
      "h room",
      "u sc",
      "Ġ con",
      "or e",
      "ĠM usc",
      "ĠA m",
      "ĠF ri",
      "ame le",
      "ĠC al",
      "ĠR on",
      "ol side",
      "al ent",
      "ĠD ri",
      "ĠD ir",
      "ĠD umb",
      "ad ise",
      "ĠV alent",
      "as ley",
      "ĠW id",
      "ĠSh unt",
      "ĠCol or",
      "ul k",
      "ie f",
      "ĠPl ace",
      "ĠRe cover",
      "ĠBat hroom",
      "ĠCh amele",
      "ĠPar adise",
      "ĠAl bus",
      "ĠPo int",
      "ĠPo olside",
      "led ore",
      "ĠWe asley",
      "end s",
      "end ar",
      "Bo x",
      "Ġcon tainer",
      "ĠMusc le",
      "ĠFri ends",
      "ĠCal endar",
      "ĠDir t",
      "ĠDumb ledore",
      "ĠWid ow",
      "ĠShunt i",
      "ĠRecover y",
      "ĠChamele on",
      "B Box",
      "C ar",
      "P W",
      "U V",
      "a os",
      "c row",
      "e PW",
      "g iv",
      "h o",
      "j l",
      "p e",
      "s giv",
      "ĠB ack",
      "an etary",
      "on se",
      "ĠG un",
      "ĠD air",
      "ri o",
      "ri on",
      "ri ft",
      "ri ot",
      "ĠO rion",
      "ĠSh eri",
      "ĠSh unter",
      "ĠSp y",
      "ĠCh ief",
      "ĠCh aos",
      "ĠDe m",
      "ĠAd rift",
      "ĠAn na",
      "ĠCen tre",
      "ank sgiv",
      "ĠInter pl",
      "ĠTh anksgiv",
      "-E ngine",
      "ra k",
      "ĠSpeed Car",
      "ĠCab rio",
      "ĠZ X",
      "pl ane",
      "are crow",
      "ĠPat riot",
      "ĠSc arecrow",
      "ĠOl af",
      "ak er",
      "ĠHy d",
      "ĠSw eeper",
      "-T rak",
      "ĠLoad ing",
      "ĠHypersp ace",
      "ĠStack er",
      "ĠResp onse",
      "ĠCompac tor",
      "ĠRep air",
      "rac er",
      "ĠHer o",
      "ĠPod racer",
      "ho e",
      "ĠBack hoe",
      "ĠGun ship",
      "ĠDair y",
      "ĠSheri ff",
      "ĠInterpl anetary",
      "ĠThanksgiv ing",
      "- K",
      "G P",
      "J K",
      "K Mw",
      "N ak",
      "V v",
      "e ace",
      "g GP",
      "l ic",
      "p Nak",
      "u el",
      "x on",
      "x KMw",
      "ĠA qu",
      "ĠF uel",
      "ĠL uck",
      "ĠB i",
      "ĠR V",
      "ĠP eace",
      "ĠD el",
      "ĠEx xon",
      "it ch",
      "-W heel",
      "ĠJet port",
      "sh al",
      "am an",
      "ĠMar shal",
      "ĠSuper man",
      "ĠK eeper",
      "-Ro ad",
      "ub lic",
      "ĠSpeed way",
      "ĠWh ale",
      "gy ro",
      "ĠAuto gyro",
      "ĠFron e",
      "iver y",
      "-St ar",
      "ĠTrans it",
      "ĠRep ublic",
      "ĠAirl iner",
      "ĠInv ader",
      "ĠDri ver",
      "-K art",
      "gGP l",
      "pNak p",
      "xKMw T",
      "ĠAqu aman",
      "ĠLuck y",
      "ĠDel ivery",
      "C Y",
      "F CY",
      "G v",
      "G w",
      "a z",
      "a mp",
      "b an",
      "d ible",
      "f ric",
      "i ed",
      "i um",
      "m i",
      "m ar",
      "o g",
      "o u",
      "o mer",
      "z one",
      "Ġ st",
      "Ġ lo",
      "ĠM ias",
      "ĠA ven",
      "ĠA fric",
      "ĠF ro",
      "ĠN it",
      "ĠS ou",
      "ĠB ed",
      "ĠB ip",
      "ĠH ulk",
      "ĠSt ad",
      "le t",
      "ĠE ng",
      "ĠCr ash",
      "it al",
      "ĠW itch",
      "ĠTra x",
      "ĠIn cre",
      "ĠCa se",
      "ĠSe mi",
      "ĠExc urs",
      "ĠAn ak",
      "ĠFl ag",
      "ĠFl ash",
      "ĠMa il",
      "ĠStre ak",
      "ĠLa b",
      "om aster",
      "ĠAll ied",
      "ĠAmeric a",
      "ĠBul let",
      "ĠDrag on",
      "ĠQ B",
      "ĠCra ft",
      "ĠSw amp",
      "ĠSub mar",
      "ĠMid night",
      "-T rac",
      "ĠRa mp",
      "ĠCarg omaster",
      "ĠArm or",
      "ĠUr ban",
      "ĠGro omer",
      "ĠValent ines",
      "ĠDem on",
      "FCY Gv",
      "Gw u",
      "Ġst eam",
      "Ġlo comotive",
      "ĠAven ger",
      "ĠAfric an",
      "ĠFro zone",
      "ĠNit ro",
      "ĠSou th",
      "ĠBip lane",
      "ĠStad ium",
      "ĠEng ines",
      "ĠIncre dible",
      "ĠExcurs ion",
      "ĠAnak in",
      "ĠSubmar ine",
      "-Trac tor",
      "K h",
      "U JC",
      "V s",
      "W UV",
      "X v",
      "Y bM",
      "b ac",
      "c a",
      "f Xv",
      "l on",
      "m ion",
      "n ny",
      "o iX",
      "p oiX",
      "u J",
      "u y",
      "u sh",
      "w it",
      "w bac",
      "y Vs",
      "z ard",
      "Ġ wit",
      "or a",
      "or ld",
      "ĠM ick",
      "ĠC ri",
      "ĠB el",
      "ĠB ir",
      "an os",
      "ĠTr ike",
      "ĠP ud",
      "ĠP ush",
      "ĠSt ev",
      "ig ator",
      "ig ger",
      "ed i",
      "ĠG am",
      "ĠG uardian",
      "ĠG uy",
      "ĠD ance",
      "ĠD igger",
      "ĠE aster",
      "ĠCo m",
      "ĠBu nny",
      "ĠW orld",
      "un d",
      "ĠBl iz",
      "eri a",
      "ĠJ edi",
      "ĠMa p",
      "ĠBe ar",
      "-M an",
      "-S at",
      "ĠGr anger",
      "ke y",
      "ĠPlan et",
      "ĠCre eper",
      "ĠLi me",
      "ĠTur key",
      "ĠTh anos",
      "ĠAll igator",
      "ĠBul l",
      "-A lon",
      "ĠNew s",
      "ĠChe wbac",
      "ĠEmme t",
      "-T E",
      "use ment",
      "ĠStephan ie",
      "ĠHer mion",
      "ĠAirl ine",
      "ĠAm usement",
      "UJC yVs",
      "poiX JC",
      "ĠMick ey",
      "ĠCri sis",
      "ĠBel le",
      "ĠBir d",
      "ĠPud sey",
      "ĠStev e",
      "ĠGam ora",
      "ĠBliz zard",
      "-Alon g",
      "ĠChewbac ca",
      "ĠHermion e",
      "UJCyVs i",
      "- P",
      "A C",
      "H AC",
      "I N",
      "Q N",
      "a pe",
      "b ag",
      "c ord",
      "d re",
      "e et",
      "g n",
      "h n",
      "h as",
      "i en",
      "i ers",
      "m a",
      "o vel",
      "o hn",
      "r in",
      "y bag",
      "ĠM il",
      "ĠM ay",
      "ĠA er",
      "th er",
      "ĠT ig",
      "ĠT ine",
      "ĠT ug",
      "an ge",
      "ĠP has",
      "re ck",
      "ĠD in",
      "ĠE B",
      "ĠV i",
      "he m",
      "ĠO f",
      "ĠCo ach",
      "ĠW HAC",
      "ĠSh ovel",
      "ĠUn it",
      "ĠPl iers",
      "ĠJ ohn",
      "ĠRe y",
      "ĠRe cord",
      "ĠY ell",
      "sc ape",
      "ĠSe ars",
      "ĠAn dre",
      "co ck",
      "ĠBe ast",
      "rop lane",
      "ĠAl ien",
      "ĠDetect or",
      "ĠTrack ing",
      "ĠSea plane",
      "ĠChal et",
      "ĠWill is",
      "ĠSw iss",
      "ĠSw eet",
      "ĠOr ange",
      "ĠPan ther",
      "ĠHan cock",
      "ĠMin nie",
      "ĠBre aker",
      "ĠSco ut",
      "ĠGro und",
      "ĠHyd roplane",
      "IN gn",
      "rin ter",
      "ĠMil k",
      "ĠMay hem",
      "ĠTig er",
      "ĠPhas ma",
      "ĠWHAC K",
      "ĠYell ow",
      "ĠAlien ator",
      "INgn iX",
      "A f",
      "A g",
      "B E",
      "F Af",
      "G p",
      "I r",
      "M T",
      "N og",
      "N MT",
      "P V",
      "P Z",
      "P b",
      "R W",
      "T T",
      "X X",
      "Z BE",
      "a ff",
      "b in",
      "b ital",
      "c ro",
      "g ir",
      "h O",
      "j Ag",
      "k jAg",
      "l ick",
      "p t",
      "p ion",
      "r at",
      "u FAf",
      "u Nog",
      "v z",
      "x gu",
      "y lo",
      "y na",
      "z eria",
      "or pion",
      "ĠM PV",
      "ĠM TT",
      "ĠA TR",
      "ĠF ed",
      "ĠL XX",
      "er ation",
      "ĠC pt",
      "ĠS mo",
      "ĠS lick",
      "ĠB ee",
      "ĠTr ade",
      "ĠSt age",
      "ĠSt riker",
      "ĠSt rat",
      "ĠG andal",
      "ĠD yna",
      "ĠE ag",
      "as ure",
      "ĠCo ast",
      "ĠRo bin",
      "ĠW ork",
      "ĠW reck",
      "ĠMo to",
      "ĠBl ing",
      "ĠBat gir",
      "ue ZBE",
      "ĠII I",
      "ĠAr riv",
      "ĠWheel ie",
      "ent ion",
      "ĠFerr y",
      "ĠK ylo",
      "ett a",
      "son er",
      "ĠSc orpion",
      "ĠPri soner",
      "ĠPiz zeria",
      "ĠOr der",
      "ĠOr bital",
      "ĠBerlin etta",
      "ĠBur ger",
      "gE hO",
      "ĠInv ention",
      "ĠBed room",
      "ĠHulk bus",
      "-P lane",
      "QN NMT",
      "ĠAer o",
      "ĠAndre as",
      "PZ uFAf",
      "Pb J",
      "RW uNog",
      "cro ss",
      "xgu M",
      "ĠFed eration",
      "ĠLXX XV",
      "ĠSmo kin",
      "ĠSlick ster",
      "ĠGandal f",
      "ĠDyna mo",
      "ĠEag le",
      "ĠWork shop",
      "ĠWreck er",
      "ĠMoto cross",
      "ĠBatgir l",
      "ĠArriv es",
      "QNNMT vz",
      "PZuFAf i",
      "A T",
      "C r",
      "C qo",
      "E f",
      "F H",
      "H K",
      "H O",
      "P ol",
      "Q M",
      "R if",
      "U Ef",
      "V K",
      "X T",
      "X Z",
      "Y D",
      "Y e",
      "Y pe",
      "c p",
      "f il",
      "i sp",
      "k ing",
      "k Rif",
      "l ay",
      "m n",
      "o use",
      "q M",
      "r UEf",
      "t en",
      "y FH",
      "y mn",
      "or ren",
      "ĠM K",
      "ĠM aster",
      "ĠA AT",
      "ĠF ix",
      "ĠL igh",
      "th ol",
      "th ouse",
      "ĠN XT",
      "ĠMain ten",
      "ĠT ail",
      "ĠT umb",
      "ĠT orren",
      "ĠS al",
      "ĠB ar",
      "ĠB aker",
      "ĠH unter",
      "ĠP le",
      "ĠP ro",
      "ol and",
      "ĠG ymn",
      "ĠD isp",
      "ĠE scape",
      "ĠV ect",
      "ĠO ver",
      "and o",
      "tr ator",
      "os aur",
      "ĠW u",
      "ĠW alker",
      "ĠTra il",
      "ĠSp ider",
      "ĠTrain er",
      "ĠBo unt",
      "ĠStarf ight",
      "ĠIn fil",
      "ĠAir boat",
      "ĠAir plane",
      "ĠCl own",
      "ĠCl one",
      "mot ion",
      "ĠLi fe",
      "tral ight",
      "ĠUl tralight",
      "ĠPat cher",
      "ĠPo thol",
      "ĠLeg oland",
      "ĠChas er",
      "ĠDes ig",
      "ĠBon e",
      "ĠCra zy",
      "ĠTuner X",
      "ĠEnd or",
      "-St ation",
      "ĠArm ando",
      "ĠVen om",
      "ĠPand a",
      "-I t",
      "ĠAm az",
      "ĠChief s",
      "ĠHyd ro",
      "ĠBi kes",
      "az ar",
      "ĠDin o",
      "ĠVi king",
      "Cr ater",
      "Cqo YD",
      "Pol ybag",
      "XZ CqoYD",
      "Ye VK",
      "Ype YeVK",
      "yFH rUEf",
      "ĠLigh thouse",
      "ĠMainten ance",
      "ĠTumb ler",
      "ĠTorren t",
      "ĠSal azar",
      "ĠBar on",
      "ĠBaker y",
      "ĠPle asure",
      "ĠGymn ast",
      "ĠDisp lay",
      "ĠVect or",
      "ĠOver h",
      "ĠBount y",
      "ĠInfil trator",
      "ĠPothol e",
      "ĠAmaz on",
      "cp z",
      "C N",
      "E F",
      "M I",
      "P R",
      "R C",
      "R MI",
      "Y CN",
      "a zer",
      "h elicopter",
      "i a",
      "m ol",
      "n zy",
      "o al",
      "r ader",
      "t al",
      "Ġ helicopter",
      "in n",
      "ĠA RC",
      "ĠF ash",
      "ĠF inn",
      "ĠT ip",
      "ĠS ide",
      "ĠS UV",
      "an one",
      "ĠR X",
      "ĠR ay",
      "ol a",
      "ĠHo sp",
      "le st",
      "ĠG ir",
      "ĠG ond",
      "ĠD avid",
      "ĠD anone",
      "ĠE Z",
      "es mo",
      "ĠU NIC",
      "ĠV ulk",
      "ĠV PR",
      "ĠI tal",
      "ĠW ild",
      "ĠW ave",
      "ĠCar t",
      "ĠBl azer",
      "is mol",
      "ĠSp rinter",
      "ĠRe ven",
      "ĠBat tle",
      "ĠCh om",
      "ĠSe ismol",
      "ĠWheel in",
      "ĠFor ager",
      "ĠSi esmo",
      "eg ic",
      "ĠGT O",
      "ĠK oal",
      "ĠK rader",
      "ub a",
      "ĠFre eze",
      "ĠFre nzy",
      "ĠTw o",
      "ĠSc uba",
      "ĠPursu er",
      "ĠQu est",
      "ĠSon ar",
      "-Sp rinter",
      "ĠCe lest",
      "ĠRa id",
      "ĠStudi o",
      "ĠSail boat",
      "ĠRemo ver",
      "ĠValent ine",
      "-Road ster",
      "og ic",
      "aff e",
      "ĠStrat egic",
      "ĠDesig n",
      "YCN RMI",
      "ĠFash ion",
      "ĠTip per",
      "ĠHosp ital",
      "ĠGir affe",
      "ĠGond ola",
      "ĠUNIC EF",
      "ĠItal ia",
      "ĠReven ge",
      "ĠChom ly",
      "ĠSeismol ogic",
      "ĠKoal a",
      "ĠCelest ial",
      "b c",
      "A b",
      "L i",
      "Q u",
      "S s",
      "X k",
      "X Ss",
      "d o",
      "d ian",
      "e or",
      "e al",
      "e vo",
      "g uard",
      "h A",
      "i ary",
      "l ler",
      "o v",
      "o ugh",
      "p ro",
      "s ar",
      "t ide",
      "u ff",
      "w al",
      "x il",
      "y P",
      "y ra",
      "Ġ cer",
      "Ġ pro",
      "at osaur",
      "ĠM iner",
      "ĠF et",
      "ĠN ov",
      "ĠAu xil",
      "er al",
      "ĠT actic",
      "ĠT yra",
      "ĠR ad",
      "ĠR ight",
      "ĠR ip",
      "ĠP ul",
      "ĠP elic",
      "ol ition",
      "ĠSt ock",
      "ĠSt aff",
      "ĠG en",
      "ĠG ri",
      "ac on",
      "ĠCo ver",
      "ĠCo up",
      "it or",
      "ĠSh uff",
      "ur ers",
      "ul Qu",
      "ĠPl ough",
      "ĠCh arg",
      "ĠIn dian",
      "ĠSe bul",
      "ĠTrac er",
      "-W hee",
      "ĠAp atosaur",
      "ĠLand scape",
      "ĠBe acon",
      "ĠAdvent urers",
      "ĠSup pl",
      "ĠMet eor",
      "ĠAT V",
      "ell ite",
      "ĠAl t",
      "ĠPol ybag",
      "ĠMon itor",
      "ĠSat ellite",
      "ph ant",
      "ĠStor e",
      "ĠLaunch er",
      "ĠSc ud",
      "ĠEle phant",
      "ĠOut do",
      "ĠGold en",
      "ĠSurf ace",
      "ĠDri ller",
      "ĠDem olition",
      "ĠMail box",
      "ĠGuardian s",
      "ĠDin osaur",
      "ĠVi per",
      "ĠStrat a",
      "ĠPro be",
      "ĠPro motion",
      "ĠLife guard",
      "ĠSide wal",
      "Ab XSs",
      "Li fe",
      "evo us",
      "Ġcer eal",
      "Ġpro motion",
      "ĠMiner al",
      "ĠNov a",
      "ĠAuxil iary",
      "ĠTactic al",
      "ĠTyra x",
      "ĠRad ar",
      "ĠRip tide",
      "ĠPul sar",
      "ĠPelic an",
      "ĠGen eral",
      "ĠGri evous",
      "ĠCover ed",
      "ĠCoup e",
      "ĠCharg er",
      "ĠSebul ba",
      "-Whee led",
      "ĠApatosaur us",
      "ĠSuppl y",
      "ĠScud eria",
      "ĠOutdo or",
      "ĠPromotion al",
      "ĠSidewal k",
      "a p",
      "Q X",
      "T F",
      "Y H",
      "a bo",
      "b d",
      "b ike",
      "d e",
      "g un",
      "h k",
      "k i",
      "n el",
      "o th",
      "r int",
      "t ure",
      "w o",
      "w reck",
      "z ari",
      "Ġ on",
      "Ġ ch",
      "at tle",
      "ĠM erry",
      "ĠA zari",
      "ĠL ight",
      "ĠN eed",
      "er tru",
      "ĠC ow",
      "ĠS un",
      "ĠP ack",
      "ĠP ort",
      "ĠG ertru",
      "ĠD ash",
      "ac ell",
      "ri ed",
      "ĠV ul",
      "ĠCr ab",
      "il ot",
      "op lane",
      "tr a",
      "ĠBu ried",
      "ĠW ater",
      "ay ak",
      "ur acell",
      "tor y",
      "ĠSp rint",
      "ĠBo oth",
      "ĠSe attle",
      "bo ard",
      "ĠWheel gun",
      "ĠSk i",
      "ĠSk id",
      "ĠSk ate",
      "ĠSk ele",
      "-S ki",
      "ĠCre am",
      "ĠK itch",
      "ĠK ayak",
      "ĠRun abo",
      "-Ro und",
      "ĠTur tle",
      "ph one",
      "ĠMotor bike",
      "ĠAst ro",
      "ĠUl tra",
      "ĠGo at",
      "ĠShip wreck",
      "ĠDes k",
      "ĠBon nie",
      "ĠSav er",
      "ĠTun nel",
      "ĠLas er",
      "ĠMag ic",
      "-G o",
      "ĠFish erman",
      "ĠSte er",
      "ĠTre asure",
      "ĠTele phone",
      "ief s",
      "Box ed",
      "-P ilot",
      "QN TF",
      "ĠAer oplane",
      "ĠAndre a",
      "ĠDesig ner",
      "ĠSide car",
      "ap of",
      "QX n",
      "hk QNTF",
      "Ġch iefs",
      "ĠNeed le",
      "ĠSun tory",
      "ĠPack age",
      "ĠGertru de",
      "ĠDash er",
      "ĠVul ture",
      "board er",
      "ĠSkate boarder",
      "ĠSkele ton",
      "ĠKitch en"
    ]
  }
}