{
  "version": "1.0",
  "truncation": null,
  "padding": null,
  "added_tokens": [
    {
      "id": 0,
      "content": "[UNK]",
      "single_word": false,
      "lstrip": false,
      "rstrip": false,
      "normalized": false,
      "special": true
    },
    {
      "id": 1,
      "content": "[CLS]",
      "single_word": false,
      "lstrip": false,
      "rstrip": false,
      "normalized": false,
      "special": true
    },
    {
      "id": 2,
      "content": "[SEP]",
      "single_word": false,
      "lstrip": false,
      "rstrip": false,
      "normalized": false,
      "special": true
    },
    {
      "id": 3,
      "content": "[PAD]",
      "single_word": false,
      "lstrip": false,
      "rstrip": false,
      "normalized": false,
      "special": true
    },
    {
      "id": 4,
      "content": "[MASK]",
      "single_word": false,
      "lstrip": false,
      "rstrip": false,
      "normalized": false,
      "special": true
    }
  ],
  "normalizer": null,
  "pre_tokenizer": {
    "type": "Split",
    "pattern": {
      "String": "'(?i:[sdmt]|ll|ve|re)|[^\\r\\n\\p{L}\\p{N}]?+\\p{L}+|\\p{N}{1,3}| ?[^\\s\\p{L}\\p{N}]++[\\r\\n]*|\\s*[\\r\\n]|\\s+(?!\\S)|\\s+"
    },
    "behavior": "Isolated",
    "invert": false
  },
  "post_processor": null,
  "decoder": null,
  "model": {
    "type": "BPE",
    "dropout": null,
    "unk_token": "[UNK]",
    "continuing_subword_prefix": null,
    "end_of_word_suffix": null,
    "fuse_unk": false,
    "byte_fallback": false,
    "ignore_merges": false,
    "vocab": {
      "[UNK]": 0,
      "[CLS]": 1,
      "[SEP]": 2,
      "[PAD]": 3,
      "[MASK]": 4,
      "\n": 5,
      "\r": 6,
      " ": 7,
      "!": 8,
      "(": 9,
      ")": 10,
      ",": 11,
      "-": 12,
      ".": 13,
      "0": 14,
      "1": 15,
      "2": 16,
      "3": 17,
      "4": 18,
      "5": 19,
      "6": 20,
      "7": 21,
      "8": 22,
      "9": 23,
      ";": 24,
      "A": 25,
      "B": 26,
      "C": 27,
      "D": 28,
      "E": 29,
      "G": 30,
      "H": 31,
      "I": 32,
      "L": 33,
      "M": 34,
      "N": 35,
      "O": 36,
      "P": 37,
      "R": 38,
      "S": 39,
      "T": 40,
      "U": 41,
      "a": 42,
      "b": 43,
      "c": 44,
      "d": 45,
      "e": 46,
      "f": 47,
      "g": 48,
      "h": 49,
      "i": 50,
      "k": 51,
      "l": 52,
      "m": 53,
      "n": 54,
      "o": 55,
      "p": 56,
      "r": 57,
      "s": 58,
      "t": 59,
      "u": 60,
      "v": 61,
      "w": 62,
      "y": 63,
      "0 ": 64,
      "1 ": 65,
      "0 0 ": 66,
      "0 1 ": 67,
      "0 -": 68,
      "\r\n": 69,
      "0 1 0 0 ": 70,
      ".D": 71,
      "AT": 72,
      ".DAT": 73,
      ".DAT\r\n": 74,
      "30": 75,
      "0 -1 ": 76,
      "4 ": 77,
      " -": 78,
      "1 1 ": 79,
      "0 1 0 0 0 1 ": 80,
      "0 1 0 0 0 1 0 0 0 1 ": 81,
      "0 -1 0 0 ": 82,
      "0 -1": 83,
      "0 1 0 0 0 1 0 0 0 1 30": 84,
      "66": 85,
      "33": 86,
      "0 1 0 -1 0 0 ": 87,
      "80 -": 88,
      "1 1": 89,
      "8 ": 90,
      "2 ": 91,
      "0 1 0 1 0 0 ": 92,
      "0 1 0 -1 0 0 30": 93,
      "A.DAT\r\n": 94,
      "1 4 ": 95,
      "0 0 0 -1 ": 96,
      "24 ": 97,
      "0 0 0 -1 0 1 0 1 0 0 ": 98,
      "6 -": 99,
      "1 15": 100,
      "5.DAT\r\n": 101,
      "0 0 1 ": 102,
      "0 0 0 1 ": 103,
      "4.DAT\r\n": 104,
      "69": 105,
      "1 0 -": 106,
      "1 15 -": 107,
      "05.DAT\r\n": 108,
      "36": 109,
      "10 -": 110,
      "3.DAT\r\n": 111,
      "0.DAT\r\n": 112,
      "6.": 113,
      " 0 0 1 ": 114,
      ".33": 115,
      "666 -": 116,
      "6.666 -": 117,
      ".333": 118,
      "1 1 5": 119,
      "69A.DAT\r\n": 120,
      "0 0 0 -1 0 1 0 1 0 0 30": 121,
      " 0 0 1 0 1 0 -1 0 0 30": 122,
      "12 ": 123,
      ".333 0 0 1 0 1 0 -1 0 0 30": 124,
      "-1 ": 125,
      "64 ": 126,
      "0 1 0 0 0 -1 ": 127,
      "0 -112 ": 128,
      "2.DAT\r\n": 129,
      "48 ": 130,
      "0 0 -1 ": 131,
      "0 0 0 1 0 1 0 -1 0 0 30": 132,
      "08": 133,
      "280 -": 134,
      "30 1 0 0 0 1 0 0 0 1 30": 135,
      "6 ": 136,
      "3.333 0 0 1 0 1 0 -1 0 0 30": 137,
      "50 -": 138,
      "LE": 139,
      "62": 140,
      "1 0 0 ": 141,
      "!LE": 142,
      "68": 143,
      "AD": 144,
      "CAD": 145,
      "OCAD": 146,
      "0 !LE": 147,
      "1 0 -80 -": 148,
      "OCAD ": 149,
      "0 !LEOCAD ": 150,
      "16": 151,
      "1 1 4": 152,
      "0 1 0 0 0 -1 30": 153,
      "7 -": 154,
      "80 ": 155,
      "0 1 0 ": 156,
      "38": 157,
      "88 ": 158,
      "0 0 0 -1 0 1 0 1 0 0 300": 159,
      "0.": 160,
      "1.DAT\r\n": 161,
      "10.DAT\r\n": 162,
      "408": 163,
      "70 -": 164,
      "1 14 ": 165,
      "361": 166,
      "11": 167,
      "22.DAT\r\n": 168,
      "80": 169,
      "1 7 -": 170,
      "12": 171,
      "40 -": 172,
      "79": 173,
      "GR": 174,
      "OU": 175,
      "P ": 176,
      "0 0 -1 0 1 0 ": 177,
      "3.333 0 0 1 0 1 0 -1 0 0 3005.DAT\r\n": 178,
      "0 !LEOCAD GR": 179,
      "OUP ": 180,
      "0 !LEOCAD GROUP ": 181,
      "110 -": 182,
      "39": 183,
      "32 ": 184,
      " -1 0 0 ": 185,
      "56 ": 186,
      "60": 187,
      "7 ": 188,
      "68A.DAT\r\n": 189,
      "1 1 280 -": 190,
      "0 0 0 1 0 1 0 -1 0 0 ": 191,
      "40 -1": 192,
      "74": 193,
      "76.666 -": 194,
      "B.DAT\r\n": 195,
      "0 -16": 196,
      "0 1 0 0 0 1 0 0 0 1 3005.DAT\r\n": 197,
      "0 1 0 0 0 1 0 0 0 1 3068A.DAT\r\n": 198,
      "1 4 -": 199,
      "30 1 0 0 0 1 0 0 0 1 3005.DAT\r\n": 200,
      "70": 201,
      "9.DAT\r\n": 202,
      "DE": 203,
      "N ": 204,
      "0 -1 0 0 0 1 0 0 0 -1 30": 205,
      "1 4 280 -": 206,
      "1 15 ": 207,
      "36 ": 208,
      " -1 0 0 0 1 0 0 0 -1 30": 209,
      "10 1 0 0 0 1 0 0 0 1 ": 210,
      "20": 211,
      "23.DAT\r\n": 212,
      "462": 213,
      "EN": 214,
      "0 1 0 0 0 0 -1 0 1 0 ": 215,
      "0 0 0 -1 0 1 0 1 0 0 79": 216,
      "0 0 0 1 0 1 0 -1 0 0 3069A.DAT\r\n": 217,
      "08.DAT\r\n": 218,
      "30 1 0 0 0 1 0 0 0 1 3069A.DAT\r\n": 219,
      "50 -24 ": 220,
      "4084.DAT\r\n": 221,
      "0 -160 ": 222,
      "4624.DAT\r\n": 223,
      "19": 224,
      "24.DAT\r\n": 225,
      "45": 226,
      "52 ": 227,
      "7.DAT\r\n": 228,
      "1 0 -1": 229,
      "1 15 -8": 230,
      "10 -24 ": 231,
      "1 1 51": 232,
      "0 0 0 -1 0 1 0 1 0 0 3003.DAT\r\n": 233,
      "01.DAT\r\n": 234,
      "20 -": 235,
      "20.DAT\r\n": 236,
      "89": 237,
      "96 ": 238,
      "BE": 239,
      "D\r\n": 240,
      "GI": 241,
      "L ": 242,
      "MO": 243,
      "3062": 244,
      "1 1 69": 245,
      "1 1 80": 246,
      "1 1 60": 247,
      "0 1 0 0 0 1 0 0 0 1 4": 248,
      "0 -12": 249,
      "0 -136 ": 250,
      "1 15 -5": 251,
      "1 15 -11": 252,
      "1 1 576.666 -": 253,
      "0 0 0 1 0 1 0 -1 0 0 3008.DAT\r\n": 254,
      "0 !LEOCAD MO": 255,
      "0 0 0 -1 0 1 0 1 0 0 3009.DAT\r\n": 256,
      "3614.DAT\r\n": 257,
      "3613.DAT\r\n": 258,
      "0 !LEOCAD GROUP EN": 259,
      "0 !LEOCAD GROUP BE": 260,
      "399": 261,
      "DEL ": 262,
      "GIN ": 263,
      "3062B.DAT\r\n": 264,
      "1 1 806.666 -": 265,
      "0 !LEOCAD MODEL ": 266,
      "0 !LEOCAD GROUP END\r\n": 267,
      "0 !LEOCAD GROUP BEGIN ": 268,
      "04 ": 269,
      "22": 270,
      "24": 271,
      "26": 272,
      "56": 273,
      "64": 274,
      "72 ": 275,
      "8 -": 276,
      "1 4": 277,
      "0 -1 0 0 0 1 0 0 0 -1 ": 278,
      "0 1 0 0 0 1 0 0 0 1 3010.DAT\r\n": 279,
      "6.666 -64 ": 280,
      "0 0 0 -1 0 1 0 1 0 0 303": 281,
      "1 7 -80 -": 282,
      "459": 283,
      "0 -120 ": 284,
      "15": 285,
      "1\r\n": 286,
      "1A.DAT\r\n": 287,
      "17 ": 288,
      "30 ": 289,
      "30 -": 290,
      "44 ": 291,
      "52": 292,
      "533": 293,
      "65": 294,
      "67": 295,
      "68 ": 296,
      "90 -": 297,
      "0 -1 0 ": 298,
      "1 1 -": 299,
      "1 1 74": 300,
      "0 1 0 0 0 1 0 0 0 1 300": 301,
      "1 4 40 -": 302,
      "0 0 0 -1 0 1 0 1 0 0 36": 303,
      "1 15 -80 -": 304,
      "0 -112 7": 305,
      "0 0 -1 0 1 0 1 0 0 ": 306,
      "50 -88 ": 307,
      "1 0 0 0 0 -1 0 1 0 ": 308,
      "1 0 -80 -4": 309,
      "0.7 ": 310,
      "0.17 ": 311,
      "4081A.DAT\r\n": 312,
      "795.DAT\r\n": 313,
      "110 -88 ": 314,
      "1 4 -80 -": 315,
      "1 4 280 -80 ": 316,
      " -1 0 0 0 1 0 0 0 -1 3022.DAT\r\n": 317,
      "0 0 0 -1 0 1 0 1 0 0 3034.DAT\r\n": 318,
      "533.333 0 0 1 0 1 0 -1 0 0 30": 319,
      "673.333 0 0 1 0 1 0 -1 0 0 30": 320,
      "0 0 0 -1 0 1 0 1 0 0 3622.DAT\r\n": 321,
      " 0 0 -1 0 1 0 1 0 0 ": 322,
      "21.DAT\r\n": 323,
      "366": 324,
      "31.DAT\r\n": 325,
      "49": 326,
      "50": 327,
      "51": 328,
      "53": 329,
      "54": 330,
      "630 -": 331,
      "77": 332,
      "P01.DAT\r\n": 333,
      "an": 334,
      "le": 335,
      "ro": 336,
      "1 1 630 -": 337,
      "0 1 0 0 0 1 0 0 0 1 38": 338,
      "0 -152 ": 339,
      "0 -144 ": 340,
      "0 0 1 0 1 0 ": 341,
      "1 0 -50 -24 ": 342,
      "10 -48 ": 343,
      "1 1 54": 344,
      "1 1 570 -": 345,
      "64 8": 346,
      "1 0 -80 -48 ": 347,
      "1 1 470 -": 348,
      "1 7 -110 -": 349,
      "1 7 -50 -24 ": 350,
      "32 16": 351,
      "600.DAT\r\n": 352,
      "1 0 -110 -24 ": 353,
      "1 1 690 -": 354,
      "1 0 -80 -40 ": 355,
      "3660.DAT\r\n": 356,
      "1 7 -110 -24 ": 357,
      "07": 358,
      "28": 359,
      "38 ": 360,
      "36 -": 361,
      "3.333": 362,
      "44": 363,
      "40 1 0 0 0 0 -1 0 1 0 ": 364,
      "5P01.DAT\r\n": 365,
      "50 1 0 0 0 1 0 0 0 1 38": 366,
      "630 1 0 0 0 1 0 0 0 1 3005.DAT\r\n": 367,
      "630 1 0 0 0 1 0 0 0 1 3069A.DAT\r\n": 368,
      "70 ": 369,
      "776.666 -": 370,
      "730 1 0 0 0 1 0 0 0 1 3005.DAT\r\n": 371,
      "830 1 0 0 0 1 0 0 0 1 3005.DAT\r\n": 372,
      "ale": 373,
      "in": 374,
      "male": 375,
      "0 795.DAT\r\n": 376,
      "1 0 ": 377,
      "1 0 0 0 1 ": 378,
      "1 36 -": 379,
      "0 -72 ": 380,
      "0 1 0 0 0 0 -1 ": 381,
      "4 -": 382,
      " - ": 383,
      "1 1 20 -": 384,
      "0 1 0 0 0 1 0 0 0 1 68": 385,
      "0 1 0 0 0 1 0 0 0 1 3613.DAT\r\n": 386,
      "0 1 0 0 0 1 0 0 0 1 3069A.DAT\r\n": 387,
      "0 1 0 0 0 1 0 0 0 1 3022.DAT\r\n": 388,
      "660 1 0 0 0 1 0 0 0 1 3068A.DAT\r\n": 389,
      "1 4 30": 390,
      "6 -68 ": 391,
      "0 0 1 0 -1 0 ": 392,
      "0 0 1 0 1 0 0 0 0 -1 ": 393,
      "1 0 -50 -": 394,
      "1 0 -70 -": 395,
      "1 0 -90 -": 396,
      "1 15 -50 -88 ": 397,
      "1 15 -110 -88 ": 398,
      " 0 0 1 0 1 0 -1 0 0 ": 399,
      "6.666 -24 ": 400,
      "6.666 -48 ": 401,
      "0 -112 70": 402,
      "0 -112 630 1 0 0 0 1 0 0 0 1 3069A.DAT\r\n": 403,
      "0 -112 660 1 0 0 0 1 0 0 0 1 3068A.DAT\r\n": 404,
      "280 -24 ": 405,
      "3.333 0 0 1 0 1 0 -1 0 0 3069A.DAT\r\n": 406,
      "1 0 -80 -32 ": 407,
      "380 0 0 1 0 1 0 -1 0 0 3008.DAT\r\n": 408,
      "1 14 280 -24 ": 409,
      "800 1 0 0 0 1 0 0 0 1 3005.DAT\r\n": 410,
      "1 1 280 -24 ": 411,
      "40 -152 ": 412,
      "740 1 0 0 0 1 0 0 0 1 3005.DAT\r\n": 413,
      "703.333 0 0 1 0 1 0 -1 0 0 3005.DAT\r\n": 414,
      "0 -1 0 0 0 1 0 0 0 -1 3024.DAT\r\n": 415,
      " -1 0 0 0 1 0 0 0 -1 3069A.DAT\r\n": 416,
      "10 1 0 0 0 1 0 0 0 1 36": 417,
      "0 1 0 0 0 0 -1 0 1 0 3613.DAT\r\n": 418,
      "0 0 0 -1 0 1 0 1 0 0 793.DAT\r\n": 419,
      "0 0 0 -1 0 1 0 1 0 0 792.DAT\r\n": 420,
      "190 -1 0 0 0 1 0 0 0 -1 30": 421,
      "1 0 -110 -": 422,
      "890 1 0 0 0 1 0 0 0 1 3005.DAT\r\n": 423,
      "1 1 600 -": 424,
      "240 0 0 -1 0 1 0 1 0 0 3009.DAT\r\n": 425,
      "563.333 0 0 1 0 1 0 -1 0 0 3005.DAT\r\n": 426,
      "643.333 0 0 1 0 1 0 -1 0 0 3005.DAT\r\n": 427,
      "1 46 -": 428,
      "0 1 0 0 0 1 0 0 0 1 3003.DAT\r\n": 429,
      "0 -112 730 1 0 0 0 1 0 0 0 1 3069A.DAT\r\n": 430,
      "1 0 0 0 0 -1 0 1 0 3062B.DAT\r\n": 431,
      "490 0 0 -1 0 1 0 1 0 0 3622.DAT\r\n": 432,
      "503.333 0 0 1 0 1 0 -1 0 0 3005.DAT\r\n": 433,
      "0 0 1 0 1 0 3614.DAT\r\n": 434,
      "3.333 -1 0 0 0 1 0 0 0 -1 3069A.DAT\r\n": 435,
      "0 1 0 0 0 1 0 0 0 1 685P01.DAT\r\n": 436,
      "0 0 1 0 1 0 0 0 0 -1 3614.DAT\r\n": 437,
      "0 -112 700 1 0 0 0 1 0 0 0 1 3068A.DAT\r\n": 438,
      " f": 439,
      "18": 440,
      "31": 441,
      "35": 442,
      "37": 443,
      "30 1 0 0 0 1 0 0 0 1 4": 444,
      "56 -": 445,
      "96 -": 446,
      ";\r\n": 447,
      "AU": 448,
      "CR": 449,
      "HO": 450,
      "IO": 451,
      "IP": 452,
      "R ": 453,
      "SCR": 454,
      "THO": 455,
      "TIO": 456,
      "ea": 457,
      "ed": 458,
      "it": 459,
      "s ": 460,
      "st": 461,
      "ur": 462,
      "1 1 62": 463,
      "1 1 776.666 -": 464,
      "0 -104 ": 465,
      "0 1 0 0 0 1 0 0 0 1 3023.DAT\r\n": 466,
      "1 4 54": 467,
      "0 0 0 -1 0 1 0 1 0 0 4084.DAT\r\n": 468,
      "0 0 0 -1 0 1 0 1 0 0 4624.DAT\r\n": 469,
      "0 0 0 -1 0 1 0 1 0 0 4081A.DAT\r\n": 470,
      "69B.DAT\r\n": 471,
      "0 0 0 -1 0 1 0 1 0 0 3020.DAT\r\n": 472,
      "0 0 0 -1 0 1 0 1 0 0 3021.DAT\r\n": 473,
      "64 77": 474,
      "0 0 0 1 0 1 0 -1 0 0 3020.DAT\r\n": 475,
      "30 1 0 0 0 1 0 0 0 1 3023.DAT\r\n": 476,
      "1 0 -80 -24 ": 477,
      "1 0 -80 -56 ": 478,
      "160 1 0 0 0 1 0 0 0 1 3003.DAT\r\n": 479,
      "1 1 440 -1": 480,
      "800 1 0 0 0 1 0 0 0 1 3010.DAT\r\n": 481,
      "1 1 280 -80 ": 482,
      "0 0 0 1 0 1 0 -1 0 0 4084.DAT\r\n": 483,
      "0 0 0 1 0 1 0 -1 0 0 4624.DAT\r\n": 484,
      "0 0 0 1 0 1 0 -1 0 0 4081A.DAT\r\n": 485,
      "DESCR": 486,
      "1 4 280 -24 ": 487,
      "1 15 40 -": 488,
      "890 1 0 0 0 1 0 0 0 1 3010.DAT\r\n": 489,
      "0 1 0 0 0 1 0 0 0 1 4600.DAT\r\n": 490,
      "1 15 -50 -112 ": 491,
      "1 15 -50 -160 ": 492,
      "1 15 -110 -112 ": 493,
      "1 15 -110 -160 ": 494,
      "399 -1 0 0 0 1 0 0 0 -1 3022.DAT\r\n": 495,
      "0 !LEOCAD MODEL AU": 496,
      "0 !LEOCAD MODEL DESCR": 497,
      "0 -1 0 0 0 1 0 0 0 -1 3660.DAT\r\n": 498,
      "1 4 280 -80 12": 499,
      "1 4 280 -80 20": 500,
      "533.333 0 0 1 0 1 0 -1 0 0 3010.DAT\r\n": 501,
      "673.333 0 0 1 0 1 0 -1 0 0 3010.DAT\r\n": 502,
      "64 86": 503,
      "38 3": 504,
      " - 19": 505,
      "1 0 -50 -30 ": 506,
      "40 -152 16": 507,
      "1 0 -110 -30 ": 508,
      "IPTIO": 509,
      "THOR ": 510,
      "0 !LEOCAD MODEL AUTHOR ": 511,
      "0 !LEOCAD MODEL DESCRIPTIO": 512,
      "0 !LEOCAD MODEL DESCRIPTION ": 513,
      " (": 514,
      " .": 515,
      " N": 516,
      " n": 517,
      " st": 518,
      ");": 519,
      "-1": 520,
      ".5": 521,
      ".65": 522,
      "04.DAT\r\n": 523,
      "02.DAT\r\n": 524,
      "13": 525,
      "17": 526,
      "136 ": 527,
      "17.DAT\r\n": 528,
      "104 ": 529,
      "21": 530,
      "20 1 ": 531,
      "2\r\n": 532,
      "28 ": 533,
      "250 -": 534,
      "29.DAT\r\n": 535,
      "20 0 0 1 0 1 0 -1 0 0 3069A.DAT\r\n": 536,
      "28 -": 537,
      "210 1 0 0 0 1 0 0 0 1 36": 538,
      "330": 539,
      "3 -": 540,
      "310 -": 541,
      "3.65": 542,
      "46": 543,
      "46.": 544,
      "40 0 0 1 0 1 0 -1 0 0 30": 545,
      "46 ": 546,
      "40 0 0 -1 0 1 0 1 0 0 3034.DAT\r\n": 547,
      "4600.DAT\r\n": 548,
      "407": 549,
      "58": 550,
      "50 1 0 0 0 1 0 0 0 1 30": 551,
      "5A.DAT\r\n": 552,
      "57.DAT\r\n": 553,
      "54 -": 554,
      "60 -": 555,
      "60 0 0 -1 0 1 0 1 0 0 3034.DAT\r\n": 556,
      "73": 557,
      "76 ": 558,
      "70 -120 ": 559,
      "80 -1": 560,
      "8 -1 0 0 ": 561,
      "80 0 1 0 1 0 0 0 0 -1 3614.DAT\r\n": 562,
      "CO": 563,
      "C01.DAT\r\n": 564,
      "GO": 565,
      "MM": 566,
      "ac": 567,
      "af": 568,
      "ck": 569,
      "dr": 570,
      "er": 571,
      "emale": 572,
      "eed": 573,
      "fur": 574,
      "f (": 575,
      "female": 576,
      "g ": 577,
      "ig": 578,
      "is": 579,
      "kn": 580,
      "ldr": 581,
      "m N": 582,
      "n);": 583,
      "nkn": 584,
      "ow": 585,
      "o;\r\n": 586,
      "ru": 587,
      "unkn": 588,
      "0 0.7 ": 589,
      "0 1 0 0 0 0 1 0 -1 0 ": 590,
      "3024.DAT\r\n": 591,
      " -64 ": 592,
      "1 1 66": 593,
      "0 1 0 0 0 1 0 0 0 1 39": 594,
      "0 -132 16": 595,
      "0 1 0 0 0 1 0 0 0 1 3062": 596,
      "0 1 0 0 0 1 0 0 0 1 3070": 597,
      "0 1 0 0 0 1 0 0 0 1 3031.DAT\r\n": 598,
      "334 -": 599,
      "80 -88 ": 600,
      "1 4 4": 601,
      "1 4 66": 602,
      "1 4 62": 603,
      "1 4 70 -": 604,
      "1 4 40 -1": 605,
      "1 4 24": 606,
      "1 4 26": 607,
      "1 4 250 -": 608,
      "1 4 310 -": 609,
      "1 4 58": 610,
      "0 0 0 -1 -1 ": 611,
      "24 830 1 0 0 0 1 0 0 0 1 3005.DAT\r\n": 612,
      "24 890 1 0 0 0 1 0 0 0 1 3005.DAT\r\n": 613,
      "24 1 0 0 0 0 -1 0 1 0 3062B.DAT\r\n": 614,
      "6 -1 0 0 ": 615,
      "0 0 0 1 0 795.DAT\r\n": 616,
      "0 0 0 1 1 0 0 0 1 ": 617,
      "1 1 58": 618,
      "1 1 510 -24 ": 619,
      "1 1 510 -48 ": 620,
      "64 74": 621,
      "64 1 0 0 0 0 -1 0 1 0 3062B.DAT\r\n": 622,
      "64 13": 623,
      "0 1 0 0 0 -1 4600.DAT\r\n": 624,
      "0 -112 68": 625,
      "0 -112 64": 626,
      "48 51": 627,
      "48 830 1 0 0 0 1 0 0 0 1 3005.DAT\r\n": 628,
      "48 890 1 0 0 0 1 0 0 0 1 3005.DAT\r\n": 629,
      "0 0 -1 0 -1 0 ": 630,
      "0 0 0 1 0 1 0 -1 0 0 3069B.DAT\r\n": 631,
      "0 0 0 1 0 1 0 -1 0 0 3002.DAT\r\n": 632,
      "30 1 0 0 0 1 0 0 0 1 3008.DAT\r\n": 633,
      "6 1 0 0 ": 634,
      "LEGO": 635,
      "680 0 0 1 0 1 0 -1 0 0 ": 636,
      "160 1 0 0 0 0 -1 0 1 0 3613.DAT\r\n": 637,
      "160 0 1 0 1 0 0 0 0 -1 3614.DAT\r\n": 638,
      "1 1 440 -": 639,
      "1 1 410 -24 ": 640,
      "1 1 410 -48 ": 641,
      "7 -0.7 ": 642,
      "80 15": 643,
      "80 50 1 0 0 0 1 0 0 0 1 38": 644,
      "3820.DAT\r\n": 645,
      "3856": 646,
      "88 0 1 0 0 0 0 -1 0 1 0 3613.DAT\r\n": 647,
      "0 0 0 -1 0 1 0 1 0 0 3002.DAT\r\n": 648,
      "0.12 ": 649,
      "0.12": 650,
      "0.7 -0.7 ": 651,
      "4085A.DAT\r\n": 652,
      "1 14 1": 653,
      "1 14 40 -": 654,
      "1 14 40 -152 16": 655,
      "3612.DAT\r\n": 656,
      "110 -1 0 0 0 1 0 0 0 -1 ": 657,
      "116 1 0 0 ": 658,
      "128 ": 659,
      "120 0 0 -1 0 1 0 1 0 0 3003.DAT\r\n": 660,
      "120 1 0 0 0 1 0 0 0 1 3613.DAT\r\n": 661,
      "123 -": 662,
      "40 -30 1 0 0 0 1 0 0 0 1 4": 663,
      "39.DAT\r\n": 664,
      "32 9": 665,
      " -1 0 0 0 1 0 0 0 -1 4600.DAT\r\n": 666,
      "56 8": 667,
      "1 1 280 -32 ": 668,
      "0 0 0 1 0 1 0 -1 0 0 795.DAT\r\n": 669,
      "0 -168 ": 670,
      "1 4 -50 -": 671,
      "1 4 -110 -": 672,
      "1 4 280 -56 ": 673,
      "1 15 5": 674,
      "10 1 0 0 0 1 0 0 0 1 38": 675,
      "10 1 0 0 0 1 0 0 0 1 3660.DAT\r\n": 676,
      "200 0 0 -1 0 1 0 1 0 0 3003.DAT\r\n": 677,
      "200 1 0 0 0 1 0 0 0 1 3613.DAT\r\n": 678,
      "ENT": 679,
      "0 1 0 0 0 0 -1 0 1 0 3612.DAT\r\n": 680,
      "0 0 0 -1 0 1 0 1 0 0 795.DAT\r\n": 681,
      "0 -160 53": 682,
      "457.DAT\r\n": 683,
      "1 15 -80 -160 ": 684,
      "1 15 -80 -136 ": 685,
      "1 15 -80 -168 ": 686,
      "1 1 516.666 -64 ": 687,
      "1 1 516.666 -24 ": 688,
      "1 1 516.666 -48 ": 689,
      "20 -96 -": 690,
      "96 680 0 0 1 0 1 0 -1 0 0 ": 691,
      "1 1 600 -104 ": 692,
      "0 1 0 0 0 1 0 0 0 1 421": 693,
      "0 -136 28": 694,
      "0 -136 44": 695,
      "1 1 576.666 -24 ": 696,
      "1 1 576.666 -48 ": 697,
      "399 0 0 -1 0 1 0 1 0 0 ": 698,
      "399 0 0 1 0 1 0 -1 0 0 ": 699,
      "1 1 806.666 -24 ": 700,
      "1 1 806.666 -48 ": 701,
      "0 !LEOCAD MODEL CO": 702,
      "0 !LEOCAD GROUP BEGIN t": 703,
      "0 !LEOCAD GROUP BEGIN male": 704,
      "0 !LEOCAD GROUP BEGIN female": 705,
      "260 0 0 -1 0 1 0 1 0 0 3009.DAT\r\n": 706,
      "72 0 0 0 1 0 1 0 -1 0 0 3069B.DAT\r\n": 707,
      "8 -46.": 708,
      "1 47 ": 709,
      "1 7 -80 -24 ": 710,
      "1 7 -80 -32 ": 711,
      "459 -1 0 0 0 1 0 0 0 -1 3022.DAT\r\n": 712,
      "459 0 0 -1 0 1 0 1 0 0 ": 713,
      "459 0 0 1 0 1 0 -1 0 0 ": 714,
      "0 -120 65": 715,
      "520 1 0 0 0 0 1 0 -1 0 ": 716,
      "1 1 -50 -88 ": 717,
      "1 1 -110 -88 ": 718,
      "1 1 -80 -88 ": 719,
      "1 1 746.666 -64 ": 720,
      "1 1 746.666 -24 ": 721,
      "1 1 746.666 -48 ": 722,
      "0 1 0 0 0 1 0 0 0 1 3004.DAT\r\n": 723,
      "1 15 -80 -64 ": 724,
      "0 -112 720 0 0 1 0 1 0 -1 0 0 3069A.DAT\r\n": 725,
      "1 0 0 0 0 -1 0 1 0 37": 726,
      "0.7 3820.DAT\r\n": 727,
      "0.17 1 0 0 0 1 ": 728,
      "0.17 0.7 -0.7 ": 729,
      "1 4 -80 -64 ": 730,
      "1 4 -80 -80 ": 731,
      "510 -1 0 0 0 1 0 0 0 -1 3024.DAT\r\n": 732,
      "542 ": 733,
      "ano;\r\n": 734,
      "rofur": 735,
      "rom N": 736,
      "0 -152 50 1 0 0 0 1 0 0 0 1 30": 737,
      "0 -144 16": 738,
      "1 1 546.666 -64 ": 739,
      "64 830 1 0 0 0 1 0 0 0 1 3069A.DAT\r\n": 740,
      "1 1 470 -24 ": 741,
      "1 1 470 -48 ": 742,
      "1 1 690 -24 ": 743,
      "1 1 690 -48 ": 744,
      "070.DAT\r\n": 745,
      "440 0 0 -1 0 1 0 1 0 0 3009.DAT\r\n": 746,
      "40 1 0 0 0 0 -1 0 1 0 3062B.DAT\r\n": 747,
      "40 1 0 0 0 0 -1 0 1 0 407": 748,
      "70 120 1 0 0 0 1 0 0 0 1 3613.DAT\r\n": 749,
      "70 200 1 0 0 0 1 0 0 0 1 3613.DAT\r\n": 750,
      "ing ": 751,
      "1 0 334 -": 752,
      "0 -72 12": 753,
      "0 -72 20": 754,
      "1 1 20 -28 -": 755,
      "1 4 306 -68 ": 756,
      "0 0 1 0 -1 0 3062B.DAT\r\n": 757,
      "190 -1 0 0 0 1 0 0 0 -1 3010.DAT\r\n": 758,
      "190 -1 0 0 0 1 0 0 0 -1 3004.DAT\r\n": 759,
      "1 1 600 -96 ": 760,
      " from N": 761,
      "180 0 0 1 0 1 0 -1 0 0 3020.DAT\r\n": 762,
      "350 0 0 -1 0 1 0 1 0 0 3622.DAT\r\n": 763,
      "56 -3": 764,
      "itrofur": 765,
      "1 1 776.666 -64 ": 766,
      "64 770 0 0 1 0 1 0 -1 0 0 3069A.DAT\r\n": 767,
      "1 0 -80 -24 2": 768,
      "1 15 40 -96 ": 769,
      "64 860 0 0 1 0 1 0 -1 0 0 3069A.DAT\r\n": 770,
      "38 324 1 0 0 0 0 -1 0 1 0 3062B.DAT\r\n": 771,
      "0 !LEOCAD MODEL AUTHOR LEGO": 772,
      "0 !LEOCAD MODEL DESCRIPTION 2": 773,
      " .ldr": 774,
      " need": 775,
      " staf": 776,
      "-10 1 ": 777,
      ".5 -64 ": 778,
      "3307.DAT\r\n": 779,
      "3.658 -46.": 780,
      "40 0 0 1 0 1 0 -1 0 0 3023.DAT\r\n": 781,
      "46 520 1 0 0 0 0 1 0 -1 0 ": 782,
      "54 -40 1 0 0 0 0 -1 0 1 0 407": 783,
      "76 210 1 0 0 0 1 0 0 0 1 36": 784,
      "8 -1 0 0 0 0 -1 0 -1 0 ": 785,
      "MMENT": 786,
      "f (unkn": 787,
      "n); .ldr": 788,
      "own); .ldr": 789,
      "ruck": 790,
      "0 0.7 0.7 3820.DAT\r\n": 791,
      "0 1 0 0 0 1 0 0 0 1 3957.DAT\r\n": 792,
      "0 -132 160 1 0 0 0 0 -1 0 1 0 3612.DAT\r\n": 793,
      "0 1 0 0 0 1 0 0 0 1 3062A.DAT\r\n": 794,
      "0 1 0 0 0 1 0 0 0 1 3070A.DAT\r\n": 795,
      "1 4 246 -68 ": 796,
      "0 0 0 -1 -1 0 0 0 1 0 795.DAT\r\n": 797,
      "6 -1 0 0 0 0 1 0 1 0 3614.DAT\r\n": 798,
      "0 0 0 1 1 0 0 0 1 0 795.DAT\r\n": 799,
      "64 740 1 0 0 0 1 0 0 0 1 3069A.DAT\r\n": 800,
      "64 130 1 0 0 0 1 0 0 0 1 3957.DAT\r\n": 801,
      "0 -112 680 0 0 1 0 1 0 -1 0 0 3069A.DAT\r\n": 802,
      "0 -112 640 0 0 1 0 1 0 -1 0 0 3069A.DAT\r\n": 803,
      "80 156 -1 0 0 0 0 1 0 1 0 3614.DAT\r\n": 804,
      "3856.DAT\r\n": 805,
      "0.12 -": 806,
      "110 -1 0 0 0 1 0 0 0 -1 4085A.DAT\r\n": 807,
      "116 1 0 0 0 0 1 0 -1 0 3062B.DAT\r\n": 808,
      "123 -20 1 ": 809,
      "40 -30 1 0 0 0 1 0 0 0 1 4070.DAT\r\n": 810,
      "0 -160 530 -1 0 0 0 1 0 0 0 -1 3024.DAT\r\n": 811,
      "20 -96 -10 1 0 0 0 1 0 0 0 1 36": 812,
      "96 680 0 0 1 0 1 0 -1 0 0 3307.DAT\r\n": 813,
      "0 -136 280 0 0 1 0 1 0 -1 0 0 3008.DAT\r\n": 814,
      "0 -136 440 0 0 1 0 1 0 -1 0 0 3008.DAT\r\n": 815,
      "0 !LEOCAD MODEL COMMENT": 816,
      "1 0 0 0 0 -1 0 1 0 3710.DAT\r\n": 817,
      "0.17 1 0 0 0 1 38": 818,
      "0.17 0.7 -0.7 0 0.7 0.7 3820.DAT\r\n": 819,
      "0 -152 50 1 0 0 0 1 0 0 0 1 3024.DAT\r\n": 820,
      "1 0 334 -68 ": 821,
      "1 1 20 -28 -10 1 0 0 0 1 0 0 0 1 38": 822,
      " from Nitrofur": 823,
      "0 !LEOCAD MODEL AUTHOR LEGO staf": 824,
      " needs ": 825,
      ".5 -64 -10 1 ": 826,
      "3.658 -46.123 -20 1 ": 827,
      "46 520 1 0 0 0 0 1 0 -1 0 3024.DAT\r\n": 828,
      "54 -40 1 0 0 0 0 -1 0 1 0 4073.DAT\r\n": 829,
      "8 -1 0 0 0 0 -1 0 -1 0 457.DAT\r\n": 830,
      "f (unknown); .ldr": 831,
      " from Nitrofurano;\r\n": 832,
      "0 !LEOCAD MODEL AUTHOR LEGO staff (unknown); .ldr": 833,
      "0 !LEOCAD MODEL AUTHOR LEGO staff (unknown); .ldr from Nitrofurano;\r\n": 834,
      " C": 835,
      " D": 836,
      " I": 837,
      " P": 838,
      " T": 839,
      " m": 840,
      " ac": 841,
      ", needs ": 842,
      "-h": 843,
      "-0.17 ": 844,
      "-0.12 ": 845,
      "-10 1 0 0 0 1 0 0 0 1 3660.DAT\r\n": 846,
      "-3.658 -46.123 -20 1 ": 847,
      "01": 848,
      "0D": 849,
      "07 -": 850,
      "00 0 0 -1 0 1 0 1 0 0 3034.DAT\r\n": 851,
      "10 1 0 0 0 1 0 0 0 1 30": 852,
      "15.DAT\r\n": 853,
      "10 1 0 0 0 1 0 0 0 1 3068A.DAT\r\n": 854,
      "19.DAT\r\n": 855,
      "10 0 0 -1 0 1 0 1 0 0 3021.DAT\r\n": 856,
      "130 1 0 0 0 1 0 0 0 1 3023.DAT\r\n": 857,
      "10 -1 0 0 0 1 0 0 0 -1 3660.DAT\r\n": 858,
      "140 0 0 -1 0 1 0 1 0 0 3034.DAT\r\n": 859,
      "10 0 0 1 0 1 0 -1 0 0 3002.DAT\r\n": 860,
      "10 0 0 -1 0 1 0 1 0 0 3002.DAT\r\n": 861,
      "10 1 0 0 0 1 0 0 0 1 3004.DAT\r\n": 862,
      "107 -": 863,
      "29": 864,
      "2 -": 865,
      "20 1 0 0 0 1 0 0 0 1 30": 866,
      "25.DAT\r\n": 867,
      "239": 868,
      "210 1 0 0 0 1 0 0 0 1 ": 869,
      "20 -144 16": 870,
      "32.DAT\r\n": 871,
      "37.DAT\r\n": 872,
      "310 1 0 0 0 1 0 0 0 1 3660.DAT\r\n": 873,
      "419": 874,
      "40 0 0 -1 0 1 0 1 0 0 3003.DAT\r\n": 875,
      "48 -": 876,
      "43.658 -46.123 -20 1 ": 877,
      "400 0 0 -1 0 1 0 1 0 0 3034.DAT\r\n": 878,
      "55": 879,
      "5\r\n": 880,
      "53.DAT\r\n": 881,
      "50 0 -1 ": 882,
      "50 0 0 -1 0 1 0 1 0 0 3021.DAT\r\n": 883,
      "50 -160 530 -1 0 0 0 1 0 0 0 -1 3024.DAT\r\n": 884,
      "50 -152 50 1 0 0 0 1 0 0 0 1 3024.DAT\r\n": 885,
      "60 1 0 0 0 1 0 0 0 1 3031.DAT\r\n": 886,
      "630 1 0 0 0 1 0 0 0 1 3008.DAT\r\n": 887,
      "60 -144 16": 888,
      "730 1 0 0 0 1 0 0 0 1 3008.DAT\r\n": 889,
      "70 -132 160 1 0 0 0 0 -1 0 1 0 3612.DAT\r\n": 890,
      "78 -1 0 0 0 0 -1 0 -1 0 457.DAT\r\n": 891,
      "710 1 0 0 0 1 0 0 0 1 3068A.DAT\r\n": 892,
      "72 -": 893,
      "88": 894,
      "80 0 0 -1 0 1 0 1 0 0 3003.DAT\r\n": 895,
      "80 -136 ": 896,
      "88 -": 897,
      "80 1 0 0 0 1 0 0 0 1 421": 898,
      "85\r\n": 899,
      "9 -1 0 0 0 1 0 0 0 -1 30": 900,
      "9 -1 0 0 0 1 0 0 0 -1 3022.DAT\r\n": 901,
      "973": 902,
      "90 -120 65": 903,
      "BP01.DAT\r\n": 904,
      "P26": 905,
      "P0D": 906,
      "Red": 907,
      "Su": 908,
      "ad": 909,
      "ai": 910,
      "a P": 911,
      "be": 912,
      "cur": 913,
      "dg": 914,
      "di": 915,
      "d f": 916,
      "ev": 917,
      "e1\r\n": 918,
      "e - 19": 919,
      "fig": 920,
      "gu": 921,
      "her": 922,
      "io": 923,
      "iro": 924,
      "ifig": 925,
      "min": 926,
      "n, needs ": 927,
      "ndi": 928,
      "ost": 929,
      "piro": 930,
      "rs": 931,
      "r1\r\n": 932,
      "rai": 933,
      "rev": 934,
      "s - 19": 935,
      "sing ": 936,
      "tt": 937,
      "ther": 938,
      "wig": 939,
      "y\r\n": 940,
      "0 0.17 1 0 0 0 1 38": 941,
      "0 0 0 0 1 0 1 0 3614.DAT\r\n": 942,
      "0 -64 ": 943,
      "0 -64 86": 944,
      "0 -64 830 1 0 0 0 1 0 0 0 1 3069A.DAT\r\n": 945,
      "0 -0.17 1 0 0 0 1 38": 946,
      "300 -1 0 0 ": 947,
      "300 0 0 -1 0 1 0 1 0 0 30": 948,
      "3029.DAT\r\n": 949,
      "1 1 35": 950,
      "0 1 0 0 0 1 0 0 0 1 36": 951,
      "0 1 0 0 0 1 0 0 0 1 37": 952,
      "0 -1 0 0 0 0 1 0 1 0 3614.DAT\r\n": 953,
      "0 1 0 0 0 1 0 0 0 1 3033": 954,
      "0 1 0 0 0 1 0 0 0 1 3039.DAT\r\n": 955,
      "330 -1 0 0 0 1 0 0 0 -1 30": 956,
      "330 -1 0 0 0 1 0 0 0 -1 3660.DAT\r\n": 957,
      "330 0 0 -1 0 1 0 1 0 0 3002.DAT\r\n": 958,
      "0 1 0 -1 0 0 3856.DAT\r\n": 959,
      "80 -64 830 1 0 0 0 1 0 0 0 1 3069A.DAT\r\n": 960,
      "8 15": 961,
      "8 890 1 0 0 0 1 0 0 0 1 3010.DAT\r\n": 962,
      "1 4 10 -": 963,
      "1 4 60": 964,
      "1 4 10 -48 ": 965,
      "1 4 776.666 -": 966,
      "1 4 40 -152 16": 967,
      "24 0 0 0 1 0 1 0 -1 0 0 30": 968,
      "0 0 1 0 1 0 -1 0 0 3856.DAT\r\n": 969,
      "693.333 0 0 1 0 1 0 -1 0 0 3069A.DAT\r\n": 970,
      "690 1 0 0 0 1 0 0 0 1 3062A.DAT\r\n": 971,
      "690 1 0 0 0 1 0 0 0 1 3070A.DAT\r\n": 972,
      "1 15 -12": 973,
      "1 15 -40 -152 ": 974,
      "10 -88 0 1 0 0 0 0 -1 0 1 0 3613.DAT\r\n": 975,
      "10 -64 770 0 0 1 0 1 0 -1 0 0 3069A.DAT\r\n": 976,
      "10 -96 680 0 0 1 0 1 0 -1 0 0 3307.DAT\r\n": 977,
      "6.666 -56 ": 978,
      "1 1 580 -64 830 1 0 0 0 1 0 0 0 1 3069A.DAT\r\n": 979,
      "1 1 510 -96 680 0 0 1 0 1 0 -1 0 0 3307.DAT\r\n": 980,
      " 0 0 1 0 1 0 -1 0 0 3032.DAT\r\n": 981,
      "64 673.333 0 0 1 0 1 0 -1 0 0 30": 982,
      "0 -112 190 -1 0 0 0 1 0 0 0 -1 3004.DAT\r\n": 983,
      "0 -112 180 0 0 1 0 1 0 -1 0 0 3020.DAT\r\n": 984,
      "48 1 0 0 0 0 -1 0 1 0 3710.DAT\r\n": 985,
      "0 0 0 1 0 1 0 -1 0 0 3021.DAT\r\n": 986,
      "30 1 0 0 0 1 0 0 0 1 3010.DAT\r\n": 987,
      "50 -46 520 1 0 0 0 0 1 0 -1 0 3024.DAT\r\n": 988,
      "50 -54 -40 1 0 0 0 0 -1 0 1 0 4073.DAT\r\n": 989,
      "68B.DAT\r\n": 990,
      "680 1 0 0 0 1 0 0 0 1 3033": 991,
      "1 0 -80 -30 -": 992,
      "1 0 -80 -38 ": 993,
      "1 0 -80 -38 3": 994,
      "16.DAT\r\n": 995,
      "160 0 0 -1 0 1 0 1 0 0 3003.DAT\r\n": 996,
      "160 0 0 -1 0 1 0 1 0 0 4084.DAT\r\n": 997,
      "160 0 0 -1 0 1 0 1 0 0 4624.DAT\r\n": 998,
      "160 0 0 1 0 1 0 -1 0 0 4084.DAT\r\n": 999,
      "160 0 0 1 0 1 0 -1 0 0 4624.DAT\r\n": 1000,
      "1 1 420 -": 1001,
      "1 1 40 -120 ": 1002,
      "1 1 40 -152 ": 1003,
      "1 1 40 -104 ": 1004,
      "1 1 460 -": 1005,
      "1 1 4.5 -64 -10 1 ": 1006,
      "1 1 40 -64 ": 1007,
      "1 1 410 -64 770 0 0 1 0 1 0 -1 0 0 3069A.DAT\r\n": 1008,
      "7 -80 -136 ": 1009,
      "80 52": 1010,
      "80 160 1 0 0 0 1 0 0 0 1 3003.DAT\r\n": 1011,
      "80 800 1 0 0 0 1 0 0 0 1 3010.DAT\r\n": 1012,
      "80 890 1 0 0 0 1 0 0 0 1 3010.DAT\r\n": 1013,
      "80 533.333 0 0 1 0 1 0 -1 0 0 3010.DAT\r\n": 1014,
      "80 673.333 0 0 1 0 1 0 -1 0 0 3010.DAT\r\n": 1015,
      "38.DAT\r\n": 1016,
      "3853.DAT\r\n": 1017,
      "88 190 -1 0 0 0 1 0 0 0 -1 3010.DAT\r\n": 1018,
      "88 0 0 0 -1 -1 0 0 0 1 0 795.DAT\r\n": 1019,
      "88 0 0 0 1 1 0 0 0 1 0 795.DAT\r\n": 1020,
      "70 -88 0 1 0 0 0 0 -1 0 1 0 3613.DAT\r\n": 1021,
      "70 -56 -3": 1022,
      "1 14 40 -1": 1023,
      "1 14 70 -120 ": 1024,
      "1 14 20 -96 -10 1 0 0 0 1 0 0 0 1 36": 1025,
      "1 14 -3.658 -46.123 -20 1 ": 1026,
      "1 14 20 -144 16": 1027,
      "1 14 43.658 -46.123 -20 1 ": 1028,
      "1 14 60 -144 16": 1029,
      "1 14 70 -132 160 1 0 0 0 0 -1 0 1 0 3612.DAT\r\n": 1030,
      "110 1 0 0 0 1 0 0 0 1 3010.DAT\r\n": 1031,
      "110 1 0 0 0 1 0 0 0 1 3023.DAT\r\n": 1032,
      "110 1 0 0 0 1 0 0 0 1 421": 1033,
      "110 -160 530 -1 0 0 0 1 0 0 0 -1 3024.DAT\r\n": 1034,
      "110 -152 50 1 0 0 0 1 0 0 0 1 3024.DAT\r\n": 1035,
      "800 1 0 0 0 1 0 0 0 1 3069A.DAT\r\n": 1036,
      "80C01.DAT\r\n": 1037,
      "40 -64 77": 1038,
      "110 -46 520 1 0 0 0 0 1 0 -1 0 3024.DAT\r\n": 1039,
      "110 -54 -40 1 0 0 0 0 -1 0 1 0 4073.DAT\r\n": 1040,
      "3937.DAT\r\n": 1041,
      "3938.DAT\r\n": 1042,
      "56 22": 1043,
      "56 673.333 0 0 1 0 1 0 -1 0 0 30": 1044,
      "56 77": 1045,
      "56 0 1 0 0 0 1 0 0 0 1 3022.DAT\r\n": 1046,
      "56 160 1 0 0 0 1 0 0 0 1 3003.DAT\r\n": 1047,
      "56 330 0 0 -1 0 1 0 1 0 0 3002.DAT\r\n": 1048,
      "1 1 280 -32 16": 1049,
      "1 1 280 -56 -": 1050,
      "1 1 280 -80 -1": 1051,
      "1 1 280 -56 330 0 0 -1 0 1 0 1 0 0 3002.DAT\r\n": 1052,
      "40 -10 1 0 0 0 1 0 0 0 1 38": 1053,
      "40 -176 210 1 0 0 0 1 0 0 0 1 36": 1054,
      "1 4 -90 -": 1055,
      "1 4 -70 -56 -3": 1056,
      "703.333 -1 0 0 0 1 0 0 0 -1 3069A.DAT\r\n": 1057,
      "0 -1 0 0 0 1 0 0 0 -1 3031.DAT\r\n": 1058,
      "0 -1 0 0 0 1 0 0 0 -1 3001": 1059,
      "1 15 20 -": 1060,
      "1 15 52": 1061,
      "1 15 53": 1062,
      "1 15 60 -": 1063,
      "1 15 10 -88 0 1 0 0 0 0 -1 0 1 0 3613.DAT\r\n": 1064,
      "1 15 70 -88 0 1 0 0 0 0 -1 0 1 0 3613.DAT\r\n": 1065,
      "36 800 1 0 0 0 1 0 0 0 1 3069A.DAT\r\n": 1066,
      "10 1 0 0 0 1 0 0 0 1 973": 1067,
      "200 0 0 -1 0 1 0 1 0 0 3020.DAT\r\n": 1068,
      "190 -1 0 0 0 1 0 0 0 -1 3660.DAT\r\n": 1069,
      "1 15 -80 -152 ": 1070,
      "1 15 -80 -144 ": 1071,
      "1 15 -80 -112 190 -1 0 0 0 1 0 0 0 -1 3004.DAT\r\n": 1072,
      "1 1 510 -112 720 0 0 1 0 1 0 -1 0 0 3069A.DAT\r\n": 1073,
      "1 1 510 -112 680 0 0 1 0 1 0 -1 0 0 3069A.DAT\r\n": 1074,
      "1 1 510 -112 640 0 0 1 0 1 0 -1 0 0 3069A.DAT\r\n": 1075,
      "890 1 0 0 0 1 0 0 0 1 3069A.DAT\r\n": 1076,
      "96 0 1 0 0 0 1 0 0 0 1 685P01.DAT\r\n": 1077,
      "96 10 1 0 0 0 1 0 0 0 1 30": 1078,
      "1 1 690 -112 720 0 0 1 0 1 0 -1 0 0 3069A.DAT\r\n": 1079,
      "1 1 690 -112 680 0 0 1 0 1 0 -1 0 0 3069A.DAT\r\n": 1080,
      "1 1 690 -112 640 0 0 1 0 1 0 -1 0 0 3069A.DAT\r\n": 1081,
      "1 1 600 -12": 1082,
      "1 1 600 -136 ": 1083,
      "1 15 -50 -136 280 0 0 1 0 1 0 -1 0 0 3008.DAT\r\n": 1084,
      "1 15 -50 -136 440 0 0 1 0 1 0 -1 0 0 3008.DAT\r\n": 1085,
      "1 15 -110 -136 280 0 0 1 0 1 0 -1 0 0 3008.DAT\r\n": 1086,
      "1 15 -110 -136 440 0 0 1 0 1 0 -1 0 0 3008.DAT\r\n": 1087,
      "1 1 576.666 -136 ": 1088,
      "1 1 576.666 -104 ": 1089,
      "1 1 576.666 -128 ": 1090,
      "1 1 576.666 -80 533.333 0 0 1 0 1 0 -1 0 0 3010.DAT\r\n": 1091,
      "399 -1 0 0 0 1 0 0 0 -1 4600.DAT\r\n": 1092,
      "1 1 806.666 -136 ": 1093,
      "1 1 806.666 -104 ": 1094,
      "1 1 806.666 -128 ": 1095,
      "1 1 806.666 -80 673.333 0 0 1 0 1 0 -1 0 0 3010.DAT\r\n": 1096,
      "0 !LEOCAD GROUP BEGIN min": 1097,
      "0 !LEOCAD GROUP BEGIN piro": 1098,
      "04 160 1 0 0 0 1 0 0 0 1 3003.DAT\r\n": 1099,
      "04 800 1 0 0 0 1 0 0 0 1 3010.DAT\r\n": 1100,
      "220 1 0 0 0 1 0 0 0 1 3022.DAT\r\n": 1101,
      "220 0 0 -1 0 1 0 1 0 0 4084.DAT\r\n": 1102,
      "220 0 0 -1 0 1 0 1 0 0 4624.DAT\r\n": 1103,
      "220 0 0 1 0 1 0 -1 0 0 4084.DAT\r\n": 1104,
      "220 0 0 1 0 1 0 -1 0 0 4624.DAT\r\n": 1105,
      "220 1 0 0 0 1 0 0 0 1 4600.DAT\r\n": 1106,
      "240 0 0 -1 0 1 0 1 0 0 3003.DAT\r\n": 1107,
      "26A.DAT\r\n": 1108,
      "26BP01.DAT\r\n": 1109,
      "563.333 -1 0 0 0 1 0 0 0 -1 3069A.DAT\r\n": 1110,
      "643.333 -1 0 0 0 1 0 0 0 -1 3069A.DAT\r\n": 1111,
      "72 0 1 0 0 0 1 0 0 0 1 3022.DAT\r\n": 1112,
      "8 -30 1 0 0 0 1 0 0 0 1 3023.DAT\r\n": 1113,
      "1 47 -80 -136 ": 1114,
      "0 -1 0 0 0 1 0 0 0 -1 3853.DAT\r\n": 1115,
      "0 -1 0 0 0 1 0 0 0 -1 3938.DAT\r\n": 1116,
      "6.666 -64 533.333 0 0 1 0 1 0 -1 0 0 30": 1117,
      "0 0 0 -1 0 1 0 1 0 0 3032.DAT\r\n": 1118,
      "1 7 -80 -32 16": 1119,
      "1 7 -80 -88 -": 1120,
      "1 7 -80 -56 22": 1121,
      "459 -1 0 0 0 1 0 0 0 -1 4600.DAT\r\n": 1122,
      "0 -120 160 1 0 0 0 0 -1 0 1 0 3613.DAT\r\n": 1123,
      "0 -120 690 1 0 0 0 1 0 0 0 1 3070A.DAT\r\n": 1124,
      "15 - ": 1125,
      "150 1 0 0 0 1 0 0 0 1 3023.DAT\r\n": 1126,
      "158 -1 0 0 0 0 -1 0 -1 0 457.DAT\r\n": 1127,
      "44 1 0 0 0 0 -1 0 1 0 3710.DAT\r\n": 1128,
      "520 -144 ": 1129,
      "529 -1 0 0 0 1 0 0 0 -1 30": 1130,
      "653.333 0 0 1 0 1 0 -1 0 0 3069A.DAT\r\n": 1131,
      "650 1 0 0 0 1 0 0 0 1 3062A.DAT\r\n": 1132,
      "90 - D": 1133,
      "1 4 40 -32 16": 1134,
      "1 4 40 -8 15": 1135,
      "1 4 40 -24 0 0 0 1 0 1 0 -1 0 0 30": 1136,
      "1 4 40 -56 0 1 0 0 0 1 0 0 0 1 3022.DAT\r\n": 1137,
      "1 4 40 -96 0 1 0 0 0 1 0 0 0 1 685P01.DAT\r\n": 1138,
      "1 4 40 -72 0 1 0 0 0 1 0 0 0 1 3022.DAT\r\n": 1139,
      "1 15 -80 -96 -": 1140,
      "1 15 -80 -80 52": 1141,
      "1 15 -80 -88 190 -1 0 0 0 1 0 0 0 -1 3010.DAT\r\n": 1142,
      "1 15 -80 -96 10 1 0 0 0 1 0 0 0 1 30": 1143,
      "0 0 -1 0 1 0 1 0 0 3856.DAT\r\n": 1144,
      "1 0 -80 -48 -30 1 0 0 0 1 0 0 0 1 3023.DAT\r\n": 1145,
      "0.17 0 -0.17 1 0 0 0 1 38": 1146,
      "1 4 -80 -80 -1": 1147,
      "1 4 -80 -56 8": 1148,
      "533.333 0 0 1 0 1 0 -1 0 0 3069A.DAT\r\n": 1149,
      "533.333 0 0 1 0 1 0 -1 0 0 3031.DAT\r\n": 1150,
      "673.333 0 0 1 0 1 0 -1 0 0 3069A.DAT\r\n": 1151,
      " 0 0 -1 0 1 0 1 0 0 3029.DAT\r\n": 1152,
      "499 -1 0 0 0 1 0 0 0 -1 3022.DAT\r\n": 1153,
      "503.333 -1 0 0 0 1 0 0 0 -1 3069A.DAT\r\n": 1154,
      "513.333 0 0 1 0 1 0 -1 0 0 3069A.DAT\r\n": 1155,
      "530 -144 ": 1156,
      "530 -1 0 0 0 1 0 0 0 -1 3853.DAT\r\n": 1157,
      "77\r\n": 1158,
      "anad": 1159,
      "and f": 1160,
      "ans - 19": 1161,
      "ler1\r\n": 1162,
      "1 1 630 -24 830 1 0 0 0 1 0 0 0 1 3005.DAT\r\n": 1163,
      "1 1 630 -24 890 1 0 0 0 1 0 0 0 1 3005.DAT\r\n": 1164,
      "1 1 630 -48 830 1 0 0 0 1 0 0 0 1 3005.DAT\r\n": 1165,
      "1 1 630 -48 890 1 0 0 0 1 0 0 0 1 3005.DAT\r\n": 1166,
      "1 1 630 -64 860 0 0 1 0 1 0 -1 0 0 3069A.DAT\r\n": 1167,
      "0 -152 542 ": 1168,
      "0 0 1 0 1 0 3937.DAT\r\n": 1169,
      "1 0 -50 -24 0 0 0 -1 0 1 0 1 0 0 4084.DAT\r\n": 1170,
      "1 0 -50 -24 399 0 0 -1 0 1 0 1 0 0 ": 1171,
      "1 0 -50 -24 459 0 0 -1 0 1 0 1 0 0 ": 1172,
      "1 0 -50 -24 160 0 0 -1 0 1 0 1 0 0 4084.DAT\r\n": 1173,
      "1 0 -50 -24 220 0 0 -1 0 1 0 1 0 0 4084.DAT\r\n": 1174,
      "1 1 540 -112 630 1 0 0 0 1 0 0 0 1 3069A.DAT\r\n": 1175,
      "1 1 540 -112 730 1 0 0 0 1 0 0 0 1 3069A.DAT\r\n": 1176,
      "1 1 546.666 -56 ": 1177,
      "1 1 570 -24 830 1 0 0 0 1 0 0 0 1 3005.DAT\r\n": 1178,
      "1 1 570 -24 890 1 0 0 0 1 0 0 0 1 3005.DAT\r\n": 1179,
      "1 1 570 -48 830 1 0 0 0 1 0 0 0 1 3005.DAT\r\n": 1180,
      "1 1 570 -48 890 1 0 0 0 1 0 0 0 1 3005.DAT\r\n": 1181,
      "1 1 570 -64 860 0 0 1 0 1 0 -1 0 0 3069A.DAT\r\n": 1182,
      "1 0 -80 -48 31": 1183,
      "1 0 -80 -48 399 -1 0 0 0 1 0 0 0 -1 3022.DAT\r\n": 1184,
      "1 0 -80 -48 46": 1185,
      "1 0 -80 -48 60 0 0 -1 0 1 0 1 0 0 3034.DAT\r\n": 1186,
      "1 0 -80 -48 220 1 0 0 0 1 0 0 0 1 3022.DAT\r\n": 1187,
      "1 1 470 -64 770 0 0 1 0 1 0 -1 0 0 3069A.DAT\r\n": 1188,
      "1 7 -50 -24 0 0 0 -1 0 1 0 1 0 0 4624.DAT\r\n": 1189,
      "1 7 -50 -24 399 0 0 -1 0 1 0 1 0 0 ": 1190,
      "1 7 -50 -24 459 0 0 -1 0 1 0 1 0 0 ": 1191,
      "1 7 -50 -24 160 0 0 -1 0 1 0 1 0 0 4624.DAT\r\n": 1192,
      "1 7 -50 -24 220 0 0 -1 0 1 0 1 0 0 4624.DAT\r\n": 1193,
      "1 0 -110 -24 0 0 0 1 0 1 0 -1 0 0 4084.DAT\r\n": 1194,
      "1 0 -110 -24 399 0 0 1 0 1 0 -1 0 0 ": 1195,
      "1 0 -110 -24 459 0 0 1 0 1 0 -1 0 0 ": 1196,
      "1 0 -110 -24 160 0 0 1 0 1 0 -1 0 0 4084.DAT\r\n": 1197,
      "1 0 -110 -24 220 0 0 1 0 1 0 -1 0 0 4084.DAT\r\n": 1198,
      "1 1 690 -96 680 0 0 1 0 1 0 -1 0 0 3307.DAT\r\n": 1199,
      "1 0 -80 -40 399 -1 0 0 0 1 0 0 0 -1 3022.DAT\r\n": 1200,
      "1 0 -80 -40 60 0 0 -1 0 1 0 1 0 0 3034.DAT\r\n": 1201,
      "1 0 -80 -40 459 -1 0 0 0 1 0 0 0 -1 3022.DAT\r\n": 1202,
      "1 0 -80 -40 200 0 0 -1 0 1 0 1 0 0 3020.DAT\r\n": 1203,
      "1 0 -80 -40 150 1 0 0 0 1 0 0 0 1 3023.DAT\r\n": 1204,
      "1 7 -110 -24 0 0 0 1 0 1 0 -1 0 0 4624.DAT\r\n": 1205,
      "1 7 -110 -24 399 0 0 1 0 1 0 -1 0 0 ": 1206,
      "1 7 -110 -24 459 0 0 1 0 1 0 -1 0 0 ": 1207,
      "1 7 -110 -24 160 0 0 1 0 1 0 -1 0 0 4624.DAT\r\n": 1208,
      "1 7 -110 -24 220 0 0 1 0 1 0 -1 0 0 4624.DAT\r\n": 1209,
      "280 0 0 -1 0 1 0 1 0 0 3003.DAT\r\n": 1210,
      "280 0 0 -1 0 1 0 1 0 0 3034.DAT\r\n": 1211,
      "50 1 0 0 0 1 0 0 0 1 3823.DAT\r\n": 1212,
      "50 1 0 0 0 1 0 0 0 1 3829": 1213,
      "ining ": 1214,
      "1 0 20 -96 -10 1 0 0 0 1 0 0 0 1 36": 1215,
      "1 0 40 -176 210 1 0 0 0 1 0 0 0 1 36": 1216,
      "1 36 -50 -160 530 -1 0 0 0 1 0 0 0 -1 3024.DAT\r\n": 1217,
      "1 36 -50 -46 520 1 0 0 0 0 1 0 -1 0 3024.DAT\r\n": 1218,
      "1 36 -110 -160 530 -1 0 0 0 1 0 0 0 -1 3024.DAT\r\n": 1219,
      "1 36 -110 -46 520 1 0 0 0 0 1 0 -1 0 3024.DAT\r\n": 1220,
      "1 1 20 -72 -": 1221,
      "1 1 20 -40 -10 1 0 0 0 1 0 0 0 1 38": 1222,
      "1 4 300 -72 12": 1223,
      "1 4 300 -72 20": 1224,
      "1 0 -50 -64 130 1 0 0 0 1 0 0 0 1 3957.DAT\r\n": 1225,
      "1 0 -70 -48 51": 1226,
      "1 0 -70 -32 9": 1227,
      "1 0 -70 -38 324 1 0 0 0 0 -1 0 1 0 3062B.DAT\r\n": 1228,
      "1 0 -70 -40 -30 1 0 0 0 1 0 0 0 1 4070.DAT\r\n": 1229,
      "1 0 -90 -48 51": 1230,
      "1 0 -90 -32 9": 1231,
      "1 0 -90 -38 324 1 0 0 0 0 -1 0 1 0 3062B.DAT\r\n": 1232,
      "1 0 -90 -40 -30 1 0 0 0 1 0 0 0 1 4070.DAT\r\n": 1233,
      "1 15 -50 -88 260 0 0 -1 0 1 0 1 0 0 3009.DAT\r\n": 1234,
      "1 15 -50 -88 510 -1 0 0 0 1 0 0 0 -1 3024.DAT\r\n": 1235,
      "1 15 -50 -88 440 0 0 -1 0 1 0 1 0 0 3009.DAT\r\n": 1236,
      "1 15 -50 -88 350 0 0 -1 0 1 0 1 0 0 3622.DAT\r\n": 1237,
      "1 15 -110 -88 260 0 0 -1 0 1 0 1 0 0 3009.DAT\r\n": 1238,
      "1 15 -110 -88 510 -1 0 0 0 1 0 0 0 -1 3024.DAT\r\n": 1239,
      "1 15 -110 -88 440 0 0 -1 0 1 0 1 0 0 3009.DAT\r\n": 1240,
      "1 15 -110 -88 350 0 0 -1 0 1 0 1 0 0 3622.DAT\r\n": 1241,
      "1 0 -80 -32 399 -1 0 0 0 1 0 0 0 -1 3022.DAT\r\n": 1242,
      "1 0 -80 -32 459 -1 0 0 0 1 0 0 0 -1 3022.DAT\r\n": 1243,
      "1 0 -80 -32 130 1 0 0 0 1 0 0 0 1 3023.DAT\r\n": 1244,
      "1 0 -80 -32 50 0 0 -1 0 1 0 1 0 0 3021.DAT\r\n": 1245,
      "1 14 280 -24 120 0 0 -1 0 1 0 1 0 0 3003.DAT\r\n": 1246,
      "1 14 280 -24 200 0 0 -1 0 1 0 1 0 0 3003.DAT\r\n": 1247,
      "1 14 280 -24 40 0 0 -1 0 1 0 1 0 0 3003.DAT\r\n": 1248,
      "1 14 280 -24 280 0 0 -1 0 1 0 1 0 0 3003.DAT\r\n": 1249,
      "1 1 280 -24 31": 1250,
      "1 1 280 -24 -10 1 0 0 0 1 0 0 0 1 3660.DAT\r\n": 1251,
      "1 1 280 -24 10 1 0 0 0 1 0 0 0 1 3004.DAT\r\n": 1252,
      "1 1 280 -24 330 -1 0 0 0 1 0 0 0 -1 3660.DAT\r\n": 1253,
      "1 0 -110 -64 130 1 0 0 0 1 0 0 0 1 3957.DAT\r\n": 1254,
      "1 1 600 -56 8": 1255,
      "1 1 600 -80 890 1 0 0 0 1 0 0 0 1 3010.DAT\r\n": 1256,
      "1 46 -50 -152 50 1 0 0 0 1 0 0 0 1 3024.DAT\r\n": 1257,
      "1 46 -50 -54 -40 1 0 0 0 0 -1 0 1 0 4073.DAT\r\n": 1258,
      "1 46 -110 -152 50 1 0 0 0 1 0 0 0 1 3024.DAT\r\n": 1259,
      "1 46 -110 -54 -40 1 0 0 0 0 -1 0 1 0 4073.DAT\r\n": 1260,
      "18.DAT\r\n": 1261,
      "310 1 0 0 0 1 0 0 0 1 3023.DAT\r\n": 1262,
      "30 1 0 0 0 1 0 0 0 1 417": 1263,
      "eadg": 1264,
      "ears": 1265,
      "eather": 1266,
      "ite - 19": 1267,
      "s and f": 1268,
      "1 1 620 -112 630 1 0 0 0 1 0 0 0 1 3069A.DAT\r\n": 1269,
      "1 1 620 -112 730 1 0 0 0 1 0 0 0 1 3069A.DAT\r\n": 1270,
      "1 1 620 -64 830 1 0 0 0 1 0 0 0 1 3069A.DAT\r\n": 1271,
      "1 1 776.666 -56 673.333 0 0 1 0 1 0 -1 0 0 30": 1272,
      "1 4 540 -112 660 1 0 0 0 1 0 0 0 1 3068A.DAT\r\n": 1273,
      "1 4 540 -112 700 1 0 0 0 1 0 0 0 1 3068A.DAT\r\n": 1274,
      "1 4 546.666 -64 533.333 0 0 1 0 1 0 -1 0 0 30": 1275,
      "1 0 -80 -24 140 0 0 -1 0 1 0 1 0 0 3034.DAT\r\n": 1276,
      "1 0 -80 -56 400 0 0 -1 0 1 0 1 0 0 3034.DAT\r\n": 1277,
      "1 0 -80 -56 499 -1 0 0 0 1 0 0 0 -1 3022.DAT\r\n": 1278,
      "1 0 -80 -56 310 1 0 0 0 1 0 0 0 1 3023.DAT\r\n": 1279,
      "1 1 440 -128 ": 1280,
      "1 1 440 -136 800 1 0 0 0 1 0 0 0 1 3069A.DAT\r\n": 1281,
      "1 1 440 -104 800 1 0 0 0 1 0 0 0 1 3010.DAT\r\n": 1282,
      "1 1 280 -80 10 -1 0 0 0 1 0 0 0 -1 3660.DAT\r\n": 1283,
      "1 1 280 -80 310 1 0 0 0 1 0 0 0 1 3660.DAT\r\n": 1284,
      "1 1 280 -80 330 -1 0 0 0 1 0 0 0 -1 30": 1285,
      "1 4 280 -24 80 0 0 -1 0 1 0 1 0 0 3003.DAT\r\n": 1286,
      "1 4 280 -24 160 0 0 -1 0 1 0 1 0 0 3003.DAT\r\n": 1287,
      "1 4 280 -24 240 0 0 -1 0 1 0 1 0 0 3003.DAT\r\n": 1288,
      "1 15 40 -48 -": 1289,
      "1 15 -50 -112 380 0 0 1 0 1 0 -1 0 0 3008.DAT\r\n": 1290,
      "1 15 -50 -112 240 0 0 -1 0 1 0 1 0 0 3009.DAT\r\n": 1291,
      "1 15 -50 -112 490 0 0 -1 0 1 0 1 0 0 3622.DAT\r\n": 1292,
      "1 15 -50 -160 380 0 0 1 0 1 0 -1 0 0 3008.DAT\r\n": 1293,
      "1 15 -50 -160 240 0 0 -1 0 1 0 1 0 0 3009.DAT\r\n": 1294,
      "1 15 -50 -160 490 0 0 -1 0 1 0 1 0 0 3622.DAT\r\n": 1295,
      "1 15 -110 -112 380 0 0 1 0 1 0 -1 0 0 3008.DAT\r\n": 1296,
      "1 15 -110 -112 240 0 0 -1 0 1 0 1 0 0 3009.DAT\r\n": 1297,
      "1 15 -110 -112 490 0 0 -1 0 1 0 1 0 0 3622.DAT\r\n": 1298,
      "1 15 -110 -160 380 0 0 1 0 1 0 -1 0 0 3008.DAT\r\n": 1299,
      "1 15 -110 -160 240 0 0 -1 0 1 0 1 0 0 3009.DAT\r\n": 1300,
      "1 15 -110 -160 490 0 0 -1 0 1 0 1 0 0 3622.DAT\r\n": 1301,
      "1 4 280 -80 120 0 0 -1 0 1 0 1 0 0 793.DAT\r\n": 1302,
      "1 4 280 -80 120 0 0 -1 0 1 0 1 0 0 792.DAT\r\n": 1303,
      "1 4 280 -80 120 1 0 0 0 1 0 0 0 1 685P01.DAT\r\n": 1304,
      "1 4 280 -80 200 0 0 -1 0 1 0 1 0 0 793.DAT\r\n": 1305,
      "1 4 280 -80 200 0 0 -1 0 1 0 1 0 0 792.DAT\r\n": 1306,
      "1 4 280 -80 200 1 0 0 0 1 0 0 0 1 685P01.DAT\r\n": 1307,
      " - 1985\r\n": 1308,
      "1 0 -50 -30 64 1 0 0 0 0 -1 0 1 0 3062B.DAT\r\n": 1309,
      "1 0 -50 -30 40 1 0 0 0 0 -1 0 1 0 3062B.DAT\r\n": 1310,
      "1 0 -50 -30 116 1 0 0 0 0 1 0 -1 0 3062B.DAT\r\n": 1311,
      "1 0 -110 -30 64 1 0 0 0 0 -1 0 1 0 3062B.DAT\r\n": 1312,
      "1 0 -110 -30 40 1 0 0 0 0 -1 0 1 0 3062B.DAT\r\n": 1313,
      "1 0 -110 -30 116 1 0 0 0 0 1 0 -1 0 3062B.DAT\r\n": 1314,
      "0 !LEOCAD MODEL AUTHOR \r\n": 1315,
      "0 !LEOCAD MODEL DESCRIPTION 107 -": 1316,
      "170 0 0 1 0 1 0 -1 0 0 3021.DAT\r\n": 1317,
      "28 170 0 0 1 0 1 0 -1 0 0 3021.DAT\r\n": 1318,
      "460 -1 0 0 0 1 0 0 0 -1 3031.DAT\r\n": 1319,
      "73\r\n": 1320,
      "70 -120 710 1 0 0 0 1 0 0 0 1 3068A.DAT\r\n": 1321,
      "acy\r\n": 1322,
      "er ac": 1323,
      "isio": 1324,
      "issing ": 1325,
      "1 1 660 -112 630 1 0 0 0 1 0 0 0 1 3069A.DAT\r\n": 1326,
      "1 1 660 -112 730 1 0 0 0 1 0 0 0 1 3069A.DAT\r\n": 1327,
      "1 4 40 -112 180 0 0 1 0 1 0 -1 0 0 3020.DAT\r\n": 1328,
      "1 4 440 -64 77": 1329,
      "1 4 660 -112 660 1 0 0 0 1 0 0 0 1 3068A.DAT\r\n": 1330,
      "1 4 660 -112 700 1 0 0 0 1 0 0 0 1 3068A.DAT\r\n": 1331,
      "1 4 620 -112 660 1 0 0 0 1 0 0 0 1 3068A.DAT\r\n": 1332,
      "1 4 620 -112 700 1 0 0 0 1 0 0 0 1 3068A.DAT\r\n": 1333,
      "1 4 70 -80 156 -1 0 0 0 0 1 0 1 0 3614.DAT\r\n": 1334,
      "1 4 70 -50 0 -1 ": 1335,
      "1 4 40 -176 210 1 0 0 0 1 0 0 0 1 36": 1336,
      "1 4 40 -128 170 0 0 1 0 1 0 -1 0 0 3021.DAT\r\n": 1337,
      "1 4 260 -72 12": 1338,
      "1 4 260 -72 20": 1339,
      "1 4 250 -70 120 1 0 0 0 1 0 0 0 1 3613.DAT\r\n": 1340,
      "1 4 250 -70 200 1 0 0 0 1 0 0 0 1 3613.DAT\r\n": 1341,
      "1 4 310 -70 120 1 0 0 0 1 0 0 0 1 3613.DAT\r\n": 1342,
      "1 4 310 -70 200 1 0 0 0 1 0 0 0 1 3613.DAT\r\n": 1343,
      "1 4 580 -112 660 1 0 0 0 1 0 0 0 1 3068A.DAT\r\n": 1344,
      "1 4 580 -112 700 1 0 0 0 1 0 0 0 1 3068A.DAT\r\n": 1345,
      "1 1 580 -112 630 1 0 0 0 1 0 0 0 1 3069A.DAT\r\n": 1346,
      "1 1 580 -112 730 1 0 0 0 1 0 0 0 1 3069A.DAT\r\n": 1347,
      "1 1 510 -24 630 1 0 0 0 1 0 0 0 1 3005.DAT\r\n": 1348,
      "1 1 510 -24 730 1 0 0 0 1 0 0 0 1 3005.DAT\r\n": 1349,
      "1 1 510 -48 630 1 0 0 0 1 0 0 0 1 3005.DAT\r\n": 1350,
      "1 1 510 -48 730 1 0 0 0 1 0 0 0 1 3005.DAT\r\n": 1351,
      "1 1 440 -80 800 1 0 0 0 1 0 0 0 1 3010.DAT\r\n": 1352,
      "1 1 440 -56 77": 1353,
      "1 1 410 -24 800 1 0 0 0 1 0 0 0 1 3005.DAT\r\n": 1354,
      "1 1 410 -24 740 1 0 0 0 1 0 0 0 1 3005.DAT\r\n": 1355,
      "1 1 410 -48 800 1 0 0 0 1 0 0 0 1 3005.DAT\r\n": 1356,
      "1 1 410 -48 740 1 0 0 0 1 0 0 0 1 3005.DAT\r\n": 1357,
      "80 50 1 0 0 0 1 0 0 0 1 3822.DAT\r\n": 1358,
      "80 50 1 0 0 0 1 0 0 0 1 3821.DAT\r\n": 1359,
      "0.12 0.17 0.7 -0.7 0 0.7 0.7 3820.DAT\r\n": 1360,
      "1 14 10 -132 160 1 0 0 0 0 -1 0 1 0 3612.DAT\r\n": 1361,
      "1 14 10 -120 160 1 0 0 0 0 -1 0 1 0 3613.DAT\r\n": 1362,
      "1 14 40 -80 160 1 0 0 0 1 0 0 0 1 3003.DAT\r\n": 1363,
      "1 14 40 -56 160 1 0 0 0 1 0 0 0 1 3003.DAT\r\n": 1364,
      "1 14 40 -152 160 0 0 -1 0 1 0 1 0 0 793.DAT\r\n": 1365,
      "1 14 40 -152 160 0 0 -1 0 1 0 1 0 0 792.DAT\r\n": 1366,
      "1 1 280 -32 40 0 0 -1 0 1 0 1 0 0 3034.DAT\r\n": 1367,
      "1 1 280 -32 280 0 0 -1 0 1 0 1 0 0 3034.DAT\r\n": 1368,
      "1 4 -50 -72 0 0 0 1 0 1 0 -1 0 0 3069B.DAT\r\n": 1369,
      "1 4 -50 -80 50 1 0 0 0 1 0 0 0 1 3822.DAT\r\n": 1370,
      "1 4 -110 -72 0 0 0 1 0 1 0 -1 0 0 3069B.DAT\r\n": 1371,
      "1 4 -110 -80 50 1 0 0 0 1 0 0 0 1 3821.DAT\r\n": 1372,
      "1 4 280 -56 120 0 0 -1 0 1 0 1 0 0 3003.DAT\r\n": 1373,
      "1 4 280 -56 200 0 0 -1 0 1 0 1 0 0 3003.DAT\r\n": 1374,
      "1 15 590 -120 65": 1375,
      "1 15 570 -120 710 1 0 0 0 1 0 0 0 1 3068A.DAT\r\n": 1376,
      "1 15 -80 -160 190 -1 0 0 0 1 0 0 0 -1 3004.DAT\r\n": 1377,
      "1 15 -80 -160 529 -1 0 0 0 1 0 0 0 -1 30": 1378,
      "1 15 -80 -136 190 -1 0 0 0 1 0 0 0 -1 3010.DAT\r\n": 1379,
      "1 15 -80 -136 110 1 0 0 0 1 0 0 0 1 421": 1380,
      "1 15 -80 -168 239": 1381,
      "1 15 -80 -168 419": 1382,
      "1 1 516.666 -64 55": 1383,
      "1 1 516.666 -64 513.333 0 0 1 0 1 0 -1 0 0 3069A.DAT\r\n": 1384,
      "1 1 516.666 -24 563.333 0 0 1 0 1 0 -1 0 0 3005.DAT\r\n": 1385,
      "1 1 516.666 -24 503.333 0 0 1 0 1 0 -1 0 0 3005.DAT\r\n": 1386,
      "1 1 516.666 -48 563.333 0 0 1 0 1 0 -1 0 0 3005.DAT\r\n": 1387,
      "1 1 516.666 -48 503.333 0 0 1 0 1 0 -1 0 0 3005.DAT\r\n": 1388,
      "1 1 600 -104 890 1 0 0 0 1 0 0 0 1 3010.DAT\r\n": 1389,
      "1 1 600 -104 680 1 0 0 0 1 0 0 0 1 3033": 1390,
      "1 1 576.666 -24 563.333 0 0 1 0 1 0 -1 0 0 3005.DAT\r\n": 1391,
      "1 1 576.666 -24 503.333 0 0 1 0 1 0 -1 0 0 3005.DAT\r\n": 1392,
      "1 1 576.666 -48 563.333 0 0 1 0 1 0 -1 0 0 3005.DAT\r\n": 1393,
      "1 1 576.666 -48 503.333 0 0 1 0 1 0 -1 0 0 3005.DAT\r\n": 1394,
      "1 1 806.666 -24 703.333 0 0 1 0 1 0 -1 0 0 3005.DAT\r\n": 1395,
      "1 1 806.666 -24 643.333 0 0 1 0 1 0 -1 0 0 3005.DAT\r\n": 1396,
      "1 1 806.666 -48 703.333 0 0 1 0 1 0 -1 0 0 3005.DAT\r\n": 1397,
      "1 1 806.666 -48 643.333 0 0 1 0 1 0 -1 0 0 3005.DAT\r\n": 1398,
      "0 !LEOCAD GROUP BEGIN truck": 1399,
      "0 !LEOCAD GROUP BEGIN trai": 1400,
      "0 !LEOCAD GROUP BEGIN male1\r\n": 1401,
      "0 !LEOCAD GROUP BEGIN male2\r\n": 1402,
      "0 !LEOCAD GROUP BEGIN female1\r\n": 1403,
      "0 !LEOCAD GROUP BEGIN female2\r\n": 1404,
      "1 47 520 -144 ": 1405,
      "1 47 530 -144 ": 1406,
      "1 7 -80 -24 399 -1 0 0 0 1 0 0 0 -1 4600.DAT\r\n": 1407,
      "1 7 -80 -24 459 -1 0 0 0 1 0 0 0 -1 4600.DAT\r\n": 1408,
      "1 7 -80 -32 0 1 0 0 0 1 0 0 0 1 4600.DAT\r\n": 1409,
      "1 7 -80 -32 220 1 0 0 0 1 0 0 0 1 4600.DAT\r\n": 1410,
      "0 -120 650 1 0 0 0 1 0 0 0 1 3070A.DAT\r\n": 1411,
      "1 1 -50 -88 40 0 0 1 0 1 0 -1 0 0 3023.DAT\r\n": 1412,
      "1 1 -50 -88 110 -1 0 0 0 1 0 0 0 -1 4085A.DAT\r\n": 1413,
      "1 1 -110 -88 40 0 0 1 0 1 0 -1 0 0 3023.DAT\r\n": 1414,
      "1 1 -110 -88 110 -1 0 0 0 1 0 0 0 -1 4085A.DAT\r\n": 1415,
      "1 1 -80 -88 10 0 0 -1 0 1 0 1 0 0 3021.DAT\r\n": 1416,
      "1 1 -80 -88 110 1 0 0 0 1 0 0 0 1 3023.DAT\r\n": 1417,
      "1 1 746.666 -64 693.333 0 0 1 0 1 0 -1 0 0 3069A.DAT\r\n": 1418,
      "1 1 746.666 -64 653.333 0 0 1 0 1 0 -1 0 0 3069A.DAT\r\n": 1419,
      "1 1 746.666 -24 703.333 0 0 1 0 1 0 -1 0 0 3005.DAT\r\n": 1420,
      "1 1 746.666 -24 643.333 0 0 1 0 1 0 -1 0 0 3005.DAT\r\n": 1421,
      "1 1 746.666 -48 703.333 0 0 1 0 1 0 -1 0 0 3005.DAT\r\n": 1422,
      "1 1 746.666 -48 643.333 0 0 1 0 1 0 -1 0 0 3005.DAT\r\n": 1423,
      "1 15 -80 -64 300 0 0 -1 0 1 0 1 0 0 30": 1424,
      "1 15 -80 -64 460 -1 0 0 0 1 0 0 0 -1 3031.DAT\r\n": 1425,
      "1 4 -80 -64 0 1 0 0 0 1 0 0 0 1 37": 1426,
      "1 4 -80 -64 50 1 0 0 0 1 0 0 0 1 3829": 1427,
      "1 4 -80 -80 30 1 0 0 0 1 0 0 0 1 3010.DAT\r\n": 1428,
      "1 4 -80 -80 110 1 0 0 0 1 0 0 0 1 3010.DAT\r\n": 1429,
      "542 0 0 1 0 1 0 -1 0 0 3856.DAT\r\n": 1430,
      "1 1 546.666 -64 563.333 -1 0 0 0 1 0 0 0 -1 3069A.DAT\r\n": 1431,
      "1 1 546.666 -64 503.333 -1 0 0 0 1 0 0 0 -1 3069A.DAT\r\n": 1432,
      "1 1 470 -24 800 1 0 0 0 1 0 0 0 1 3005.DAT\r\n": 1433,
      "1 1 470 -24 740 1 0 0 0 1 0 0 0 1 3005.DAT\r\n": 1434,
      "1 1 470 -48 800 1 0 0 0 1 0 0 0 1 3005.DAT\r\n": 1435,
      "1 1 470 -48 740 1 0 0 0 1 0 0 0 1 3005.DAT\r\n": 1436,
      "1 1 690 -24 630 1 0 0 0 1 0 0 0 1 3005.DAT\r\n": 1437,
      "1 1 690 -24 730 1 0 0 0 1 0 0 0 1 3005.DAT\r\n": 1438,
      "1 1 690 -48 630 1 0 0 0 1 0 0 0 1 3005.DAT\r\n": 1439,
      "1 1 690 -48 730 1 0 0 0 1 0 0 0 1 3005.DAT\r\n": 1440,
      "1 4 306 -68 80 0 1 0 1 0 0 0 0 -1 3614.DAT\r\n": 1441,
      "1 4 306 -68 160 0 1 0 1 0 0 0 0 -1 3614.DAT\r\n": 1442,
      "1 1 600 -96 630 1 0 0 0 1 0 0 0 1 3008.DAT\r\n": 1443,
      "1 1 600 -96 730 1 0 0 0 1 0 0 0 1 3008.DAT\r\n": 1444,
      "56 -30 0 0 1 0 1 0 -1 0 0 4081A.DAT\r\n": 1445,
      "1 1 776.666 -64 703.333 -1 0 0 0 1 0 0 0 -1 3069A.DAT\r\n": 1446,
      "1 1 776.666 -64 643.333 -1 0 0 0 1 0 0 0 -1 3069A.DAT\r\n": 1447,
      "1 0 -80 -24 20 0 0 -1 0 1 0 1 0 0 3020.DAT\r\n": 1448,
      "1 0 -80 -24 230 1 0 0 0 1 0 0 0 1 3023.DAT\r\n": 1449,
      "1 15 40 -96 0 0 0 -1 0 1 0 1 0 0 793.DAT\r\n": 1450,
      "1 15 40 -96 0 0 0 -1 0 1 0 1 0 0 792.DAT\r\n": 1451,
      "0 !LEOCAD MODEL DESCRIPTION 215 - ": 1452,
      "0 !LEOCAD MODEL DESCRIPTION 290 - D": 1453,
      "ruck - 1985\r\n": 1454,
      "1 4 246 -68 80 0 1 0 1 0 0 0 0 -1 3614.DAT\r\n": 1455,
      "1 4 246 -68 160 0 1 0 1 0 0 0 0 -1 3614.DAT\r\n": 1456,
      "0.12 -0.12 -": 1457,
      "0 !LEOCAD MODEL COMMENT needs ": 1458,
      "0 !LEOCAD MODEL COMMENT m": 1459,
      "1 0 334 -68 78 -1 0 0 0 0 -1 0 -1 0 457.DAT\r\n": 1460,
      "1 0 334 -68 158 -1 0 0 0 0 -1 0 -1 0 457.DAT\r\n": 1461,
      "1 1 20 -28 -10 1 0 0 0 1 0 0 0 1 3817.DAT\r\n": 1462,
      "1 1 20 -28 -10 1 0 0 0 1 0 0 0 1 3816.DAT\r\n": 1463,
      ".5 -64 -10 1 0.17 0 -0.17 1 0 0 0 1 38": 1464,
      " Canad": 1465,
      " Indi": 1466,
      " Truck - 1985\r\n": 1467,
      "-headg": 1468,
      "-0.17 0 0.17 1 0 0 0 1 38": 1469,
      "-0.12 0.12 0.17 0.7 -0.7 0 0.7 0.7 3820.DAT\r\n": 1470,
      "20 1 0 0 0 1 0 0 0 1 3068B.DAT\r\n": 1471,
      "210 1 0 0 0 1 0 0 0 1 17.DAT\r\n": 1472,
      "88.DAT\r\n": 1473,
      "80 1 0 0 0 1 0 0 0 1 4213.DAT\r\n": 1474,
      "P26.DAT\r\n": 1475,
      "P0D.DAT\r\n": 1476,
      "Red Indi": 1477,
      "Suite - 19": 1478,
      "a Post": 1479,
      "bett": 1480,
      "curacy\r\n": 1481,
      "gue1\r\n": 1482,
      "ifig1\r\n": 1483,
      "n, needs bett": 1484,
      "revisio": 1485,
      "wigs and f": 1486,
      "0 -64 860 1 0 0 0 1 0 0 0 1 3068A.DAT\r\n": 1487,
      "300 -1 0 0 0 0 1 0 1 0 3937.DAT\r\n": 1488,
      "1 1 35.5 -64 -10 1 0.17 0 -0.17 1 0 0 0 1 38": 1489,
      "0 1 0 0 0 1 0 0 0 1 3680C01.DAT\r\n": 1490,
      "1 4 10 -80 156 -1 0 0 0 0 1 0 1 0 3614.DAT\r\n": 1491,
      "1 4 600 -64 860 1 0 0 0 1 0 0 0 1 3068A.DAT\r\n": 1492,
      "1 4 10 -48 0 -1 0 0 0 0 1 0 1 0 3614.DAT\r\n": 1493,
      "1 4 776.666 -64 673.333 0 0 1 0 1 0 -1 0 0 30": 1494,
      "1 4 40 -152 160 1 0 0 0 1 0 0 0 1 685P01.DAT\r\n": 1495,
      "1 15 -120 -152 542 ": 1496,
      "1 15 -40 -152 542 0 0 1 0 1 0 -1 0 0 3856.DAT\r\n": 1497,
      "1 0 -80 -30 -44 1 0 0 0 0 -1 0 1 0 3710.DAT\r\n": 1498,
      "1 0 -80 -38 300 -1 0 0 0 0 1 0 1 0 3937.DAT\r\n": 1499,
      "1 0 -80 -38 348 1 0 0 0 0 -1 0 1 0 3710.DAT\r\n": 1500,
      "1 1 420 -64 740 1 0 0 0 1 0 0 0 1 3069A.DAT\r\n": 1501,
      "1 1 40 -120 180 0 0 1 0 1 0 -1 0 0 3020.DAT\r\n": 1502,
      "1 1 40 -152 210 1 0 0 0 1 0 0 0 1 17.DAT\r\n": 1503,
      "1 1 40 -104 190 -1 0 0 0 1 0 0 0 -1 3660.DAT\r\n": 1504,
      "1 1 460 -64 740 1 0 0 0 1 0 0 0 1 3069A.DAT\r\n": 1505,
      "1 1 4.5 -64 -10 1 -0.17 0 0.17 1 0 0 0 1 38": 1506,
      "1 1 40 -64 0 1 0 0 0 1 0 0 0 1 3022.DAT\r\n": 1507,
      "1 14 40 -104 160 1 0 0 0 1 0 0 0 1 3003.DAT\r\n": 1508,
      "1 14 70 -120 160 1 0 0 0 0 -1 0 1 0 3613.DAT\r\n": 1509,
      "1 14 20 -96 -10 1 0 0 0 1 0 0 0 1 3626BP01.DAT\r\n": 1510,
      "1 14 -3.658 -46.123 -20 1 -0.12 0.12 0.17 0.7 -0.7 0 0.7 0.7 3820.DAT\r\n": 1511,
      "1 14 20 -144 160 0 0 -1 -1 0 0 0 1 0 795.DAT\r\n": 1512,
      "1 14 43.658 -46.123 -20 1 0.12 -0.12 -": 1513,
      "1 14 60 -144 160 0 0 1 1 0 0 0 1 0 795.DAT\r\n": 1514,
      "1 1 280 -32 160 0 0 -1 0 1 0 1 0 0 3020.DAT\r\n": 1515,
      "1 1 280 -56 -10 0 0 -1 0 1 0 1 0 0 3002.DAT\r\n": 1516,
      "1 1 280 -80 -10 1 0 0 0 1 0 0 0 1 3039.DAT\r\n": 1517,
      "1 4 -90 -56 -30 0 0 1 0 1 0 -1 0 0 4081A.DAT\r\n": 1518,
      "1 4 -70 -56 -30 0 0 -1 0 1 0 1 0 0 4081A.DAT\r\n": 1519,
      "0 -1 0 0 0 1 0 0 0 -1 3001P0D.DAT\r\n": 1520,
      "1 15 20 -88 0 0 0 -1 -1 0 0 0 1 0 795.DAT\r\n": 1521,
      "1 15 520 -120 650 1 0 0 0 1 0 0 0 1 3070A.DAT\r\n": 1522,
      "1 15 530 -120 690 1 0 0 0 1 0 0 0 1 3070A.DAT\r\n": 1523,
      "1 15 60 -88 0 0 0 1 1 0 0 0 1 0 795.DAT\r\n": 1524,
      "10 1 0 0 0 1 0 0 0 1 973P26.DAT\r\n": 1525,
      "1 15 -80 -152 530 -1 0 0 0 1 0 0 0 -1 3853.DAT\r\n": 1526,
      "1 15 -80 -144 80 1 0 0 0 1 0 0 0 1 4213.DAT\r\n": 1527,
      "1 1 600 -128 890 1 0 0 0 1 0 0 0 1 3010.DAT\r\n": 1528,
      "1 1 600 -136 890 1 0 0 0 1 0 0 0 1 3069A.DAT\r\n": 1529,
      "1 1 576.666 -136 533.333 0 0 1 0 1 0 -1 0 0 3069A.DAT\r\n": 1530,
      "1 1 576.666 -104 533.333 0 0 1 0 1 0 -1 0 0 3010.DAT\r\n": 1531,
      "1 1 576.666 -128 533.333 0 0 1 0 1 0 -1 0 0 3010.DAT\r\n": 1532,
      "1 1 806.666 -136 673.333 0 0 1 0 1 0 -1 0 0 3069A.DAT\r\n": 1533,
      "1 1 806.666 -104 673.333 0 0 1 0 1 0 -1 0 0 3010.DAT\r\n": 1534,
      "1 1 806.666 -128 673.333 0 0 1 0 1 0 -1 0 0 3010.DAT\r\n": 1535,
      "0 !LEOCAD GROUP BEGIN minifig1\r\n": 1536,
      "0 !LEOCAD GROUP BEGIN pirogue1\r\n": 1537,
      "1 47 -80 -136 50 1 0 0 0 1 0 0 0 1 3823.DAT\r\n": 1538,
      "1 7 -80 -32 160 1 0 0 0 1 0 0 0 1 4600.DAT\r\n": 1539,
      "1 7 -80 -88 -30 1 0 0 0 1 0 0 0 1 417": 1540,
      "1 7 -80 -56 220 1 0 0 0 1 0 0 0 1 3680C01.DAT\r\n": 1541,
      "1 4 40 -32 160 1 0 0 0 1 0 0 0 1 3003.DAT\r\n": 1542,
      "1 4 40 -8 150 0 0 -1 0 1 0 1 0 0 3021.DAT\r\n": 1543,
      "1 4 40 -24 0 0 0 1 0 1 0 -1 0 0 3001.DAT\r\n": 1544,
      "1 15 -80 -96 -20 1 0 0 0 1 0 0 0 1 3068B.DAT\r\n": 1545,
      "1 15 -80 -80 520 -1 0 0 0 1 0 0 0 -1 3001P0D.DAT\r\n": 1546,
      "1 15 -80 -96 10 1 0 0 0 1 0 0 0 1 3069B.DAT\r\n": 1547,
      "1 4 -80 -80 -10 0 0 1 0 1 0 -1 0 0 3002.DAT\r\n": 1548,
      "1 4 -80 -56 80 0 0 -1 0 1 0 1 0 0 3032.DAT\r\n": 1549,
      "ans - 1977\r\n": 1550,
      "1 0 -50 -24 399 0 0 -1 0 1 0 1 0 0 4084.DAT\r\n": 1551,
      "1 0 -50 -24 459 0 0 -1 0 1 0 1 0 0 4084.DAT\r\n": 1552,
      "1 1 546.666 -56 533.333 0 0 1 0 1 0 -1 0 0 3031.DAT\r\n": 1553,
      "1 0 -80 -48 310 -1 0 0 0 1 0 0 0 -1 3938.DAT\r\n": 1554,
      "1 0 -80 -48 460 0 0 1 0 1 0 -1 0 0 3020.DAT\r\n": 1555,
      "1 7 -50 -24 399 0 0 -1 0 1 0 1 0 0 4624.DAT\r\n": 1556,
      "1 7 -50 -24 459 0 0 -1 0 1 0 1 0 0 4624.DAT\r\n": 1557,
      "1 0 -110 -24 399 0 0 1 0 1 0 -1 0 0 4084.DAT\r\n": 1558,
      "1 0 -110 -24 459 0 0 1 0 1 0 -1 0 0 4084.DAT\r\n": 1559,
      "1 7 -110 -24 399 0 0 1 0 1 0 -1 0 0 4624.DAT\r\n": 1560,
      "1 7 -110 -24 459 0 0 1 0 1 0 -1 0 0 4624.DAT\r\n": 1561,
      "ining Suite - 19": 1562,
      "1 0 20 -96 -10 1 0 0 0 1 0 0 0 1 3624.DAT\r\n": 1563,
      "1 0 40 -176 210 1 0 0 0 1 0 0 0 1 3625.DAT\r\n": 1564,
      "1 1 20 -72 -10 1 0 0 0 1 0 0 0 1 973P26.DAT\r\n": 1565,
      "1 1 20 -40 -10 1 0 0 0 1 0 0 0 1 3815.DAT\r\n": 1566,
      "1 4 300 -72 120 0 0 1 0 1 0 -1 0 0 795.DAT\r\n": 1567,
      "1 4 300 -72 200 0 0 1 0 1 0 -1 0 0 795.DAT\r\n": 1568,
      "1 0 -70 -48 510 0 0 -1 0 1 0 1 0 0 4081A.DAT\r\n": 1569,
      "1 0 -70 -32 90 0 0 -1 0 1 0 1 0 0 4081A.DAT\r\n": 1570,
      "1 0 -90 -48 510 0 0 1 0 1 0 -1 0 0 4081A.DAT\r\n": 1571,
      "1 0 -90 -32 90 0 0 1 0 1 0 -1 0 0 4081A.DAT\r\n": 1572,
      "1 1 280 -24 310 1 0 0 0 1 0 0 0 1 3004.DAT\r\n": 1573,
      "1 1 600 -56 860 1 0 0 0 1 0 0 0 1 3031.DAT\r\n": 1574,
      "ears;\r\n": 1575,
      "eather-headg": 1576,
      "1 1 776.666 -56 673.333 0 0 1 0 1 0 -1 0 0 3031.DAT\r\n": 1577,
      "1 4 546.666 -64 533.333 0 0 1 0 1 0 -1 0 0 3068A.DAT\r\n": 1578,
      "1 1 440 -128 800 1 0 0 0 1 0 0 0 1 3010.DAT\r\n": 1579,
      "1 1 280 -80 330 -1 0 0 0 1 0 0 0 -1 3039.DAT\r\n": 1580,
      "1 15 40 -48 -10 0 0 1 0 1 0 -1 0 0 3002.DAT\r\n": 1581,
      "0 !LEOCAD MODEL DESCRIPTION 107 - Canad": 1582,
      "er accuracy\r\n": 1583,
      "issing wigs and f": 1584,
      "1 4 440 -64 770 1 0 0 0 1 0 0 0 1 3068A.DAT\r\n": 1585,
      "1 4 70 -50 0 -1 0 0 0 0 1 0 1 0 3614.DAT\r\n": 1586,
      "1 4 40 -176 210 1 0 0 0 1 0 0 0 1 3626A.DAT\r\n": 1587,
      "1 4 260 -72 120 0 0 -1 0 1 0 1 0 0 795.DAT\r\n": 1588,
      "1 4 260 -72 200 0 0 -1 0 1 0 1 0 0 795.DAT\r\n": 1589,
      "1 1 440 -56 770 1 0 0 0 1 0 0 0 1 3031.DAT\r\n": 1590,
      "1 15 590 -120 650 1 0 0 0 1 0 0 0 1 3068A.DAT\r\n": 1591,
      "1 15 -80 -160 529 -1 0 0 0 1 0 0 0 -1 3023.DAT\r\n": 1592,
      "1 15 -80 -136 110 1 0 0 0 1 0 0 0 1 4214.DAT\r\n": 1593,
      "1 15 -80 -168 239 0 0 1 0 1 0 -1 0 0 3032.DAT\r\n": 1594,
      "1 15 -80 -168 419 0 0 -1 0 1 0 1 0 0 3029.DAT\r\n": 1595,
      "1 1 516.666 -64 553.333 0 0 1 0 1 0 -1 0 0 3069A.DAT\r\n": 1596,
      "1 1 600 -104 680 1 0 0 0 1 0 0 0 1 3033.DAT\r\n": 1597,
      "0 !LEOCAD GROUP BEGIN truck1\r\n": 1598,
      "0 !LEOCAD GROUP BEGIN trailer1\r\n": 1599,
      "1 47 520 -144 650 1 0 0 0 1 0 0 0 1 3062A.DAT\r\n": 1600,
      "1 47 530 -144 690 1 0 0 0 1 0 0 0 1 3062A.DAT\r\n": 1601,
      "1 15 -80 -64 300 0 0 -1 0 1 0 1 0 0 3029.DAT\r\n": 1602,
      "1 4 -80 -64 0 1 0 0 0 1 0 0 0 1 3788.DAT\r\n": 1603,
      "1 4 -80 -64 50 1 0 0 0 1 0 0 0 1 3829C01.DAT\r\n": 1604,
      "0 !LEOCAD MODEL DESCRIPTION 215 - Red Indi": 1605,
      "0 !LEOCAD MODEL DESCRIPTION 290 - Dining Suite - 19": 1606,
      "0 !LEOCAD MODEL COMMENT needs revisio": 1607,
      "0 !LEOCAD MODEL COMMENT missing wigs and f": 1608,
      "a Post Truck - 1985\r\n": 1609,
      "n, needs better accuracy\r\n": 1610,
      "1 1 35.5 -64 -10 1 0.17 0 -0.17 1 0 0 0 1 3819.DAT\r\n": 1611,
      "1 4 776.666 -64 673.333 0 0 1 0 1 0 -1 0 0 3068A.DAT\r\n": 1612,
      "1 15 -120 -152 542 0 0 -1 0 1 0 1 0 0 3856.DAT\r\n": 1613,
      "1 1 4.5 -64 -10 1 -0.17 0 0.17 1 0 0 0 1 3818.DAT\r\n": 1614,
      "1 14 43.658 -46.123 -20 1 0.12 -0.12 -0.17 0.7 -0.7 0 0.7 0.7 3820.DAT\r\n": 1615,
      "1 7 -80 -88 -30 1 0 0 0 1 0 0 0 1 4175.DAT\r\n": 1616,
      "eather-headgears;\r\n": 1617,
      "0 !LEOCAD MODEL DESCRIPTION 107 - Canada Post Truck - 1985\r\n": 1618,
      "0 !LEOCAD MODEL DESCRIPTION 215 - Red Indians - 1977\r\n": 1619,
      "0 !LEOCAD MODEL DESCRIPTION 290 - Dining Suite - 1973\r\n": 1620,
      "0 !LEOCAD MODEL COMMENT needs revision, needs better accuracy\r\n": 1621,
      "0 !LEOCAD MODEL COMMENT missing wigs and feather-headgears;\r\n": 1622
    },
    "merges": [
      "0  ",
      "1  ",
      "0  0 ",
      "0  1 ",
      "0  -",
      "\r \n",
      "0 1  0 0 ",
      ". D",
      "A T",
      ".D AT",
      ".DAT \r\n",
      "3 0",
      "0 - 1 ",
      "4  ",
      "  -",
      "1  1 ",
      "0 1 0 0  0 1 ",
      "0 1 0 0  0 1 0 0 0 1 ",
      "0 -1  0 0 ",
      "0 - 1",
      "0 1 0 0 0 1 0 0 0 1  30",
      "6 6",
      "3 3",
      "0 1  0 -1 0 0 ",
      "8 0 -",
      "1  1",
      "8  ",
      "2  ",
      "0 1  0 1 0 0 ",
      "0 1 0 -1 0 0  30",
      "A .DAT\r\n",
      "1  4 ",
      "0 0  0 -1 ",
      "2 4 ",
      "0 0 0 -1  0 1 0 1 0 0 ",
      "6  -",
      "1 1 5",
      "5 .DAT\r\n",
      "0 0  1 ",
      "0 0  0 1 ",
      "4 .DAT\r\n",
      "6 9",
      "1  0 -",
      "1 15  -",
      "0 5.DAT\r\n",
      "3 6",
      "1 0 -",
      "3 .DAT\r\n",
      "0 .DAT\r\n",
      "6 .",
      "  0 0 1 ",
      ". 33",
      "66 6 -",
      "6. 666 -",
      ".33 3",
      "1 1  5",
      "69 A.DAT\r\n",
      "0 0 0 -1 0 1 0 1 0 0  30",
      " 0 0 1  0 1 0 -1 0 0 30",
      "1 2 ",
      ".333  0 0 1 0 1 0 -1 0 0 30",
      "- 1 ",
      "6 4 ",
      "0 1 0 0  0 -1 ",
      "0 -1 12 ",
      "2 .DAT\r\n",
      "4 8 ",
      "0 0  -1 ",
      "0 0 0 1  0 1 0 -1 0 0 30",
      "0 8",
      "2 80 -",
      "3 0 1 0 0 0 1 0 0 0 1 30",
      "6  ",
      "3 .333 0 0 1 0 1 0 -1 0 0 30",
      "5 0 -",
      "L E",
      "6 2",
      "1  0 0 ",
      "! LE",
      "6 8",
      "A D",
      "C AD",
      "O CAD",
      "0  !LE",
      "1 0 - 80 -",
      "OCAD  ",
      "0 !LE OCAD ",
      "1 6",
      "1 1  4",
      "0 1 0 0 0 -1  30",
      "7  -",
      "8 0 ",
      "0 1  0 ",
      "3 8",
      "8 8 ",
      "0 0 0 -1 0 1 0 1 0 0 30 0",
      "0 .",
      "1 .DAT\r\n",
      "1 0.DAT\r\n",
      "4 08",
      "7 0 -",
      "1 1 4 ",
      "36 1",
      "1 1",
      "2 2.DAT\r\n",
      "8 0",
      "1  7 -",
      "1 2",
      "4 0 -",
      "7 9",
      "G R",
      "O U",
      "P  ",
      "0 0 -1  0 1 0 ",
      "3.333 0 0 1 0 1 0 -1 0 0 30 05.DAT\r\n",
      "0 !LEOCAD  GR",
      "OU P ",
      "0 !LEOCAD GR OUP ",
      "1 10 -",
      "3 9",
      "3 2 ",
      " - 1 0 0 ",
      "5 6 ",
      "6 0",
      "7  ",
      "68 A.DAT\r\n",
      "1 1  280 -",
      "0 0 0 1  0 1 0 -1 0 0 ",
      "4 0 -1",
      "7 4",
      "7 6.666 -",
      "B .DAT\r\n",
      "0 -1 6",
      "0 1 0 0 0 1 0 0 0 1 30 05.DAT\r\n",
      "0 1 0 0 0 1 0 0 0 1 30 68A.DAT\r\n",
      "1 4  -",
      "30 1 0 0 0 1 0 0 0 1 30 05.DAT\r\n",
      "7 0",
      "9 .DAT\r\n",
      "D E",
      "N  ",
      "0 -1 0 0  0 1 0 0 0 -1 30",
      "1 4  280 -",
      "1 15  ",
      "36  ",
      " -1 0 0  0 1 0 0 0 -1 30",
      "1 0 1 0 0 0 1 0 0 0 1 ",
      "2 0",
      "2 3.DAT\r\n",
      "4 62",
      "E N",
      "0 1 0 0  0 0 -1 0 1 0 ",
      "0 0 0 -1 0 1 0 1 0 0  79",
      "0 0 0 1 0 1 0 -1 0 0 30 69A.DAT\r\n",
      "08 .DAT\r\n",
      "30 1 0 0 0 1 0 0 0 1 30 69A.DAT\r\n",
      "50 - 24 ",
      "408 4.DAT\r\n",
      "0 -16 0 ",
      "462 4.DAT\r\n",
      "1 9",
      "2 4.DAT\r\n",
      "4 5",
      "5 2 ",
      "7 .DAT\r\n",
      "1  0 -1",
      "1 15 - 8",
      "10 - 24 ",
      "1 1 5 1",
      "0 0 0 -1 0 1 0 1 0 0 300 3.DAT\r\n",
      "0 1.DAT\r\n",
      "2 0 -",
      "2 0.DAT\r\n",
      "8 9",
      "9 6 ",
      "B E",
      "D \r\n",
      "G I",
      "L  ",
      "M O",
      "30 62",
      "1 1  69",
      "1 1  80",
      "1 1  60",
      "0 1 0 0 0 1 0 0 0 1  4",
      "0 -1 2",
      "0 -1 36 ",
      "1 15 - 5",
      "1 15 - 11",
      "1 1 5 76.666 -",
      "0 0 0 1 0 1 0 -1 0 0 30 08.DAT\r\n",
      "0 !LEOCAD  MO",
      "0 0 0 -1 0 1 0 1 0 0 300 9.DAT\r\n",
      "361 4.DAT\r\n",
      "361 3.DAT\r\n",
      "0 !LEOCAD GROUP  EN",
      "0 !LEOCAD GROUP  BE",
      "39 9",
      "DE L ",
      "GI N ",
      "3062 B.DAT\r\n",
      "1 1 80 6.666 -",
      "0 !LEOCAD MO DEL ",
      "0 !LEOCAD GROUP EN D\r\n",
      "0 !LEOCAD GROUP BE GIN ",
      "0 4 ",
      "2 2",
      "2 4",
      "2 6",
      "5 6",
      "6 4",
      "7 2 ",
      "8  -",
      "1  4",
      "0 -1 0 0  0 1 0 0 0 -1 ",
      "0 1 0 0 0 1 0 0 0 1 30 10.DAT\r\n",
      "6.666 - 64 ",
      "0 0 0 -1 0 1 0 1 0 0 30 3",
      "1 7 - 80 -",
      "45 9",
      "0 -12 0 ",
      "1 5",
      "1 \r\n",
      "1 A.DAT\r\n",
      "1 7 ",
      "3 0 ",
      "3 0 -",
      "4 4 ",
      "5 2",
      "5 33",
      "6 5",
      "6 7",
      "6 8 ",
      "9 0 -",
      "0 -1  0 ",
      "1 1  -",
      "1 1  74",
      "0 1 0 0 0 1 0 0 0 1 30 0",
      "1 4  40 -",
      "0 0 0 -1 0 1 0 1 0 0  36",
      "1 15 - 80 -",
      "0 -112  7",
      "0 0 -1  0 1 0 1 0 0 ",
      "50 - 88 ",
      "1 0 0  0 0 -1 0 1 0 ",
      "1 0 -80 - 4",
      "0. 7 ",
      "0. 17 ",
      "408 1A.DAT\r\n",
      "79 5.DAT\r\n",
      "110 - 88 ",
      "1 4 - 80 -",
      "1 4 280 - 80 ",
      " -1 0 0 0 1 0 0 0 -1 30 22.DAT\r\n",
      "0 0 0 -1 0 1 0 1 0 0 303 4.DAT\r\n",
      "533 .333 0 0 1 0 1 0 -1 0 0 30",
      "67 3.333 0 0 1 0 1 0 -1 0 0 30",
      "0 0 0 -1 0 1 0 1 0 0 36 22.DAT\r\n",
      "  0 0 -1 0 1 0 1 0 0 ",
      "2 1.DAT\r\n",
      "3 66",
      "3 1.DAT\r\n",
      "4 9",
      "5 0",
      "5 1",
      "5 3",
      "5 4",
      "6 30 -",
      "7 7",
      "P 01.DAT\r\n",
      "a n",
      "l e",
      "r o",
      "1 1  630 -",
      "0 1 0 0 0 1 0 0 0 1  38",
      "0 -1 52 ",
      "0 -1 44 ",
      "0 0 1  0 1 0 ",
      "1 0 - 50 -24 ",
      "10 - 48 ",
      "1 1 5 4",
      "1 1 5 70 -",
      "64  8",
      "1 0 -80 - 48 ",
      "1 1 4 70 -",
      "1 7 - 110 -",
      "1 7 - 50 -24 ",
      "32  16",
      "60 0.DAT\r\n",
      "1 0 -1 10 -24 ",
      "1 1 69 0 -",
      "1 0 -80 -4 0 ",
      "366 0.DAT\r\n",
      "1 7 -110 - 24 ",
      "0 7",
      "2 8",
      "3 8 ",
      "3 6 -",
      "3 .333",
      "4 4",
      "4 0 1 0 0 0 0 -1 0 1 0 ",
      "5 P01.DAT\r\n",
      "5 0 1 0 0 0 1 0 0 0 1 38",
      "6 30 1 0 0 0 1 0 0 0 1 3005.DAT\r\n",
      "6 30 1 0 0 0 1 0 0 0 1 3069A.DAT\r\n",
      "7 0 ",
      "7 76.666 -",
      "7 30 1 0 0 0 1 0 0 0 1 3005.DAT\r\n",
      "8 30 1 0 0 0 1 0 0 0 1 3005.DAT\r\n",
      "a le",
      "i n",
      "m ale",
      "0  795.DAT\r\n",
      "1  0 ",
      "1  0 0 0 1 ",
      "1  36 -",
      "0 - 72 ",
      "0 1 0 0  0 0 -1 ",
      "4  -",
      " -  ",
      "1 1  20 -",
      "0 1 0 0 0 1 0 0 0 1  68",
      "0 1 0 0 0 1 0 0 0 1  3613.DAT\r\n",
      "0 1 0 0 0 1 0 0 0 1 30 69A.DAT\r\n",
      "0 1 0 0 0 1 0 0 0 1 30 22.DAT\r\n",
      "66 0 1 0 0 0 1 0 0 0 1 3068A.DAT\r\n",
      "1 4  30",
      "6 - 68 ",
      "0 0 1  0 -1 0 ",
      "0 0 1  0 1 0 0 0 0 -1 ",
      "1 0 - 50 -",
      "1 0 - 70 -",
      "1 0 - 90 -",
      "1 15 - 50 -88 ",
      "1 15 - 110 -88 ",
      " 0 0 1  0 1 0 -1 0 0 ",
      "6.666 - 24 ",
      "6.666 - 48 ",
      "0 -112  70",
      "0 -112  630 1 0 0 0 1 0 0 0 1 3069A.DAT\r\n",
      "0 -112  660 1 0 0 0 1 0 0 0 1 3068A.DAT\r\n",
      "280 - 24 ",
      "3.333 0 0 1 0 1 0 -1 0 0 30 69A.DAT\r\n",
      "1 0 -80 - 32 ",
      "38 0 0 0 1 0 1 0 -1 0 0 3008.DAT\r\n",
      "1 14  280 -24 ",
      "80 0 1 0 0 0 1 0 0 0 1 3005.DAT\r\n",
      "1 1 280 - 24 ",
      "40 -1 52 ",
      "74 0 1 0 0 0 1 0 0 0 1 3005.DAT\r\n",
      "70 3.333 0 0 1 0 1 0 -1 0 0 3005.DAT\r\n",
      "0 -1 0 0 0 1 0 0 0 -1 30 24.DAT\r\n",
      " -1 0 0 0 1 0 0 0 -1 30 69A.DAT\r\n",
      "10 1 0 0 0 1 0 0 0 1  36",
      "0 1 0 0 0 0 -1 0 1 0  3613.DAT\r\n",
      "0 0 0 -1 0 1 0 1 0 0 79 3.DAT\r\n",
      "0 0 0 -1 0 1 0 1 0 0 79 2.DAT\r\n",
      "19 0 -1 0 0 0 1 0 0 0 -1 30",
      "1 0 -1 10 -",
      "89 0 1 0 0 0 1 0 0 0 1 3005.DAT\r\n",
      "1 1 60 0 -",
      "24 0 0 0 -1 0 1 0 1 0 0 3009.DAT\r\n",
      "56 3.333 0 0 1 0 1 0 -1 0 0 3005.DAT\r\n",
      "64 3.333 0 0 1 0 1 0 -1 0 0 3005.DAT\r\n",
      "1 4 6 -",
      "0 1 0 0 0 1 0 0 0 1 300 3.DAT\r\n",
      "0 -112 7 30 1 0 0 0 1 0 0 0 1 3069A.DAT\r\n",
      "1 0 0 0 0 -1 0 1 0  3062B.DAT\r\n",
      "49 0 0 0 -1 0 1 0 1 0 0 3622.DAT\r\n",
      "50 3.333 0 0 1 0 1 0 -1 0 0 3005.DAT\r\n",
      "0 0 1 0 1 0  3614.DAT\r\n",
      "3.333  -1 0 0 0 1 0 0 0 -1 3069A.DAT\r\n",
      "0 1 0 0 0 1 0 0 0 1 68 5P01.DAT\r\n",
      "0 0 1 0 1 0 0 0 0 -1  3614.DAT\r\n",
      "0 -112 70 0 1 0 0 0 1 0 0 0 1 3068A.DAT\r\n",
      "  f",
      "1 8",
      "3 1",
      "3 5",
      "3 7",
      "3 0 1 0 0 0 1 0 0 0 1 4",
      "5 6 -",
      "9 6 -",
      "; \r\n",
      "A U",
      "C R",
      "H O",
      "I O",
      "I P",
      "R  ",
      "S CR",
      "T HO",
      "T IO",
      "e a",
      "e d",
      "i t",
      "s  ",
      "s t",
      "u r",
      "1 1  62",
      "1 1  776.666 -",
      "0 -1 04 ",
      "0 1 0 0 0 1 0 0 0 1 30 23.DAT\r\n",
      "1 4  54",
      "0 0 0 -1 0 1 0 1 0 0  4084.DAT\r\n",
      "0 0 0 -1 0 1 0 1 0 0  4624.DAT\r\n",
      "0 0 0 -1 0 1 0 1 0 0  4081A.DAT\r\n",
      "69 B.DAT\r\n",
      "0 0 0 -1 0 1 0 1 0 0 30 20.DAT\r\n",
      "0 0 0 -1 0 1 0 1 0 0 30 21.DAT\r\n",
      "64  77",
      "0 0 0 1 0 1 0 -1 0 0 30 20.DAT\r\n",
      "30 1 0 0 0 1 0 0 0 1 30 23.DAT\r\n",
      "1 0 -80 - 24 ",
      "1 0 -80 - 56 ",
      "16 0 1 0 0 0 1 0 0 0 1 3003.DAT\r\n",
      "1 1 4 40 -1",
      "80 0 1 0 0 0 1 0 0 0 1 3010.DAT\r\n",
      "1 1 280 - 80 ",
      "0 0 0 1 0 1 0 -1 0 0  4084.DAT\r\n",
      "0 0 0 1 0 1 0 -1 0 0  4624.DAT\r\n",
      "0 0 0 1 0 1 0 -1 0 0  4081A.DAT\r\n",
      "DE SCR",
      "1 4 280 - 24 ",
      "1 15  40 -",
      "89 0 1 0 0 0 1 0 0 0 1 3010.DAT\r\n",
      "0 1 0 0 0 1 0 0 0 1 4 600.DAT\r\n",
      "1 15 -5 0 -112 ",
      "1 15 -5 0 -160 ",
      "1 15 -11 0 -112 ",
      "1 15 -11 0 -160 ",
      "399  -1 0 0 0 1 0 0 0 -1 3022.DAT\r\n",
      "0 !LEOCAD MODEL  AU",
      "0 !LEOCAD MODEL  DESCR",
      "0 -1 0 0 0 1 0 0 0 -1  3660.DAT\r\n",
      "1 4 280 -80  12",
      "1 4 280 -80  20",
      "533.333 0 0 1 0 1 0 -1 0 0 30 10.DAT\r\n",
      "673.333 0 0 1 0 1 0 -1 0 0 30 10.DAT\r\n",
      "64 8 6",
      "38  3",
      " -  19",
      "1 0 -50 - 30 ",
      "40 -152  16",
      "1 0 -110 - 30 ",
      "IP TIO",
      "THO R ",
      "0 !LEOCAD MODEL AU THOR ",
      "0 !LEOCAD MODEL DESCR IPTIO",
      "0 !LEOCAD MODEL DESCRIPTIO N ",
      "  (",
      "  .",
      "  N",
      "  n",
      "  st",
      ") ;",
      "- 1",
      ". 5",
      ". 65",
      "0 4.DAT\r\n",
      "0 2.DAT\r\n",
      "1 3",
      "1 7",
      "1 36 ",
      "1 7.DAT\r\n",
      "1 04 ",
      "2 1",
      "2 0 1 ",
      "2 \r\n",
      "2 8 ",
      "2 50 -",
      "2 9.DAT\r\n",
      "2 0 0 0 1 0 1 0 -1 0 0 3069A.DAT\r\n",
      "2 8 -",
      "2 10 1 0 0 0 1 0 0 0 1 36",
      "3 30",
      "3  -",
      "3 10 -",
      "3 .65",
      "4 6",
      "4 6.",
      "4 0 0 0 1 0 1 0 -1 0 0 30",
      "4 6 ",
      "4 0 0 0 -1 0 1 0 1 0 0 3034.DAT\r\n",
      "4 600.DAT\r\n",
      "4 07",
      "5 8",
      "5 0 1 0 0 0 1 0 0 0 1 30",
      "5 A.DAT\r\n",
      "5 7.DAT\r\n",
      "5 4 -",
      "6 0 -",
      "6 0 0 0 -1 0 1 0 1 0 0 3034.DAT\r\n",
      "7 3",
      "7 6 ",
      "7 0 -120 ",
      "8 0 -1",
      "8  -1 0 0 ",
      "8 0 0 1 0 1 0 0 0 0 -1 3614.DAT\r\n",
      "C O",
      "C 01.DAT\r\n",
      "G O",
      "M M",
      "a c",
      "a f",
      "c k",
      "d r",
      "e r",
      "e male",
      "e ed",
      "f ur",
      "f  (",
      "f emale",
      "g  ",
      "i g",
      "i s",
      "k n",
      "l dr",
      "m  N",
      "n );",
      "n kn",
      "o w",
      "o ;\r\n",
      "r u",
      "u nkn",
      "0  0.7 ",
      "0 1 0 0  0 0 1 0 -1 0 ",
      "30 24.DAT\r\n",
      " - 64 ",
      "1 1  66",
      "0 1 0 0 0 1 0 0 0 1  39",
      "0 -1 32 16",
      "0 1 0 0 0 1 0 0 0 1 30 62",
      "0 1 0 0 0 1 0 0 0 1 30 70",
      "0 1 0 0 0 1 0 0 0 1 30 31.DAT\r\n",
      "33 4 -",
      "80 - 88 ",
      "1 4  4",
      "1 4  66",
      "1 4  62",
      "1 4  70 -",
      "1 4  40 -1",
      "1 4  24",
      "1 4  26",
      "1 4  250 -",
      "1 4  310 -",
      "1 4  58",
      "0 0 0 -1  -1 ",
      "24  830 1 0 0 0 1 0 0 0 1 3005.DAT\r\n",
      "24  890 1 0 0 0 1 0 0 0 1 3005.DAT\r\n",
      "24  1 0 0 0 0 -1 0 1 0 3062B.DAT\r\n",
      "6 - 1 0 0 ",
      "0 0 0 1  0 795.DAT\r\n",
      "0 0 0 1  1 0 0 0 1 ",
      "1 1 5 8",
      "1 1 5 10 -24 ",
      "1 1 5 10 -48 ",
      "64  74",
      "64  1 0 0 0 0 -1 0 1 0 3062B.DAT\r\n",
      "64  13",
      "0 1 0 0 0 -1  4600.DAT\r\n",
      "0 -112  68",
      "0 -112  64",
      "48  51",
      "48  830 1 0 0 0 1 0 0 0 1 3005.DAT\r\n",
      "48  890 1 0 0 0 1 0 0 0 1 3005.DAT\r\n",
      "0 0 -1  0 -1 0 ",
      "0 0 0 1 0 1 0 -1 0 0 30 69B.DAT\r\n",
      "0 0 0 1 0 1 0 -1 0 0 30 02.DAT\r\n",
      "30 1 0 0 0 1 0 0 0 1 30 08.DAT\r\n",
      "6  1 0 0 ",
      "LE GO",
      "68 0 0 0 1 0 1 0 -1 0 0 ",
      "16 0 1 0 0 0 0 -1 0 1 0 3613.DAT\r\n",
      "16 0 0 1 0 1 0 0 0 0 -1 3614.DAT\r\n",
      "1 1 4 40 -",
      "1 1 4 10 -24 ",
      "1 1 4 10 -48 ",
      "7 - 0.7 ",
      "80  15",
      "80  50 1 0 0 0 1 0 0 0 1 38",
      "38 20.DAT\r\n",
      "38 56",
      "88  0 1 0 0 0 0 -1 0 1 0 3613.DAT\r\n",
      "0 0 0 -1 0 1 0 1 0 0 300 2.DAT\r\n",
      "0. 12 ",
      "0. 12",
      "0. 7 -0.7 ",
      "408 5A.DAT\r\n",
      "1 14  1",
      "1 14  40 -",
      "1 14  40 -152 16",
      "361 2.DAT\r\n",
      "11 0 -1 0 0 0 1 0 0 0 -1 ",
      "11 6 1 0 0 ",
      "12 8 ",
      "12 0 0 0 -1 0 1 0 1 0 0 3003.DAT\r\n",
      "12 0 1 0 0 0 1 0 0 0 1 3613.DAT\r\n",
      "12 3 -",
      "40 - 30 1 0 0 0 1 0 0 0 1 4",
      "39 .DAT\r\n",
      "32  9",
      " -1 0 0  0 1 0 0 0 -1 4600.DAT\r\n",
      "56  8",
      "1 1 280 - 32 ",
      "0 0 0 1 0 1 0 -1 0 0  795.DAT\r\n",
      "0 -16 8 ",
      "1 4 - 50 -",
      "1 4 - 110 -",
      "1 4 280 - 56 ",
      "1 15  5",
      "10 1 0 0 0 1 0 0 0 1  38",
      "10 1 0 0 0 1 0 0 0 1  3660.DAT\r\n",
      "20 0 0 0 -1 0 1 0 1 0 0 3003.DAT\r\n",
      "20 0 1 0 0 0 1 0 0 0 1 3613.DAT\r\n",
      "EN T",
      "0 1 0 0 0 0 -1 0 1 0  3612.DAT\r\n",
      "0 0 0 -1 0 1 0 1 0 0 79 5.DAT\r\n",
      "0 -160  53",
      "45 7.DAT\r\n",
      "1 15 -8 0 -160 ",
      "1 15 -8 0 -136 ",
      "1 15 -8 0 -168 ",
      "1 1 51 6.666 -64 ",
      "1 1 51 6.666 -24 ",
      "1 1 51 6.666 -48 ",
      "20 - 96 -",
      "96  680 0 0 1 0 1 0 -1 0 0 ",
      "1 1 60 0 -104 ",
      "0 1 0 0 0 1 0 0 0 1 4 21",
      "0 -136  28",
      "0 -136  44",
      "1 1 576.666 - 24 ",
      "1 1 576.666 - 48 ",
      "399  0 0 -1 0 1 0 1 0 0 ",
      "399  0 0 1 0 1 0 -1 0 0 ",
      "1 1 806.666 - 24 ",
      "1 1 806.666 - 48 ",
      "0 !LEOCAD MODEL  CO",
      "0 !LEOCAD GROUP BEGIN  t",
      "0 !LEOCAD GROUP BEGIN  male",
      "0 !LEOCAD GROUP BEGIN  female",
      "26 0 0 0 -1 0 1 0 1 0 0 3009.DAT\r\n",
      "72  0 0 0 1 0 1 0 -1 0 0 3069B.DAT\r\n",
      "8 - 46.",
      "1 4 7 ",
      "1 7 -80 - 24 ",
      "1 7 -80 - 32 ",
      "459  -1 0 0 0 1 0 0 0 -1 3022.DAT\r\n",
      "459  0 0 -1 0 1 0 1 0 0 ",
      "459  0 0 1 0 1 0 -1 0 0 ",
      "0 -120  65",
      "52 0 1 0 0 0 0 1 0 -1 0 ",
      "1 1 - 50 -88 ",
      "1 1 - 110 -88 ",
      "1 1 - 80 -88 ",
      "1 1 74 6.666 -64 ",
      "1 1 74 6.666 -24 ",
      "1 1 74 6.666 -48 ",
      "0 1 0 0 0 1 0 0 0 1 300 4.DAT\r\n",
      "1 15 -80 - 64 ",
      "0 -112 7 20 0 0 1 0 1 0 -1 0 0 3069A.DAT\r\n",
      "1 0 0 0 0 -1 0 1 0  37",
      "0.7  3820.DAT\r\n",
      "0.17  1 0 0 0 1 ",
      "0.17  0.7 -0.7 ",
      "1 4 -80 - 64 ",
      "1 4 -80 - 80 ",
      "51 0 -1 0 0 0 1 0 0 0 -1 3024.DAT\r\n",
      "54 2 ",
      "an o;\r\n",
      "ro fur",
      "ro m N",
      "0 -152  50 1 0 0 0 1 0 0 0 1 30",
      "0 -144  16",
      "1 1 54 6.666 -64 ",
      "64 8 30 1 0 0 0 1 0 0 0 1 3069A.DAT\r\n",
      "1 1 470 - 24 ",
      "1 1 470 - 48 ",
      "1 1 690 - 24 ",
      "1 1 690 - 48 ",
      "07 0.DAT\r\n",
      "44 0 0 0 -1 0 1 0 1 0 0 3009.DAT\r\n",
      "40 1 0 0 0 0 -1 0 1 0  3062B.DAT\r\n",
      "40 1 0 0 0 0 -1 0 1 0  407",
      "70  120 1 0 0 0 1 0 0 0 1 3613.DAT\r\n",
      "70  200 1 0 0 0 1 0 0 0 1 3613.DAT\r\n",
      "in g ",
      "1 0  334 -",
      "0 -72  12",
      "0 -72  20",
      "1 1 20 - 28 -",
      "1 4 30 6 -68 ",
      "0 0 1 0 -1 0  3062B.DAT\r\n",
      "190 -1 0 0 0 1 0 0 0 -1 30 10.DAT\r\n",
      "190 -1 0 0 0 1 0 0 0 -1 30 04.DAT\r\n",
      "1 1 600 - 96 ",
      " f rom N",
      "18 0 0 0 1 0 1 0 -1 0 0 3020.DAT\r\n",
      "35 0 0 0 -1 0 1 0 1 0 0 3622.DAT\r\n",
      "56 - 3",
      "it rofur",
      "1 1 776.666 - 64 ",
      "64 77 0 0 0 1 0 1 0 -1 0 0 3069A.DAT\r\n",
      "1 0 -80 -24  2",
      "1 15 40 - 96 ",
      "64 86 0 0 0 1 0 1 0 -1 0 0 3069A.DAT\r\n",
      "38 3 24 1 0 0 0 0 -1 0 1 0 3062B.DAT\r\n",
      "0 !LEOCAD MODEL AUTHOR  LEGO",
      "0 !LEOCAD MODEL DESCRIPTION  2",
      " . ldr",
      " n eed",
      " st af",
      "-1 0 1 ",
      ".5  -64 ",
      "330 7.DAT\r\n",
      "3.65 8 -46.",
      "40 0 0 1 0 1 0 -1 0 0 30 23.DAT\r\n",
      "46  520 1 0 0 0 0 1 0 -1 0 ",
      "54 - 40 1 0 0 0 0 -1 0 1 0 407",
      "76  210 1 0 0 0 1 0 0 0 1 36",
      "8 -1 0 0  0 0 -1 0 -1 0 ",
      "MM ENT",
      "f ( unkn",
      "n);  .ldr",
      "ow n); .ldr",
      "ru ck",
      "0 0.7  0.7 3820.DAT\r\n",
      "0 1 0 0 0 1 0 0 0 1 39 57.DAT\r\n",
      "0 -132 16 0 1 0 0 0 0 -1 0 1 0 3612.DAT\r\n",
      "0 1 0 0 0 1 0 0 0 1 3062 A.DAT\r\n",
      "0 1 0 0 0 1 0 0 0 1 3070 A.DAT\r\n",
      "1 4 24 6 -68 ",
      "0 0 0 -1 -1  0 0 0 1 0 795.DAT\r\n",
      "6 -1 0 0  0 0 1 0 1 0 3614.DAT\r\n",
      "0 0 0 1 1 0 0 0 1  0 795.DAT\r\n",
      "64 74 0 1 0 0 0 1 0 0 0 1 3069A.DAT\r\n",
      "64 13 0 1 0 0 0 1 0 0 0 1 3957.DAT\r\n",
      "0 -112 68 0 0 0 1 0 1 0 -1 0 0 3069A.DAT\r\n",
      "0 -112 64 0 0 0 1 0 1 0 -1 0 0 3069A.DAT\r\n",
      "80 15 6 -1 0 0 0 0 1 0 1 0 3614.DAT\r\n",
      "3856 .DAT\r\n",
      "0.12  -",
      "110 -1 0 0 0 1 0 0 0 -1  4085A.DAT\r\n",
      "116 1 0 0  0 0 1 0 -1 0 3062B.DAT\r\n",
      "123 - 20 1 ",
      "40 -30 1 0 0 0 1 0 0 0 1 4 070.DAT\r\n",
      "0 -160 53 0 -1 0 0 0 1 0 0 0 -1 3024.DAT\r\n",
      "20 -96 - 10 1 0 0 0 1 0 0 0 1 36",
      "96 680 0 0 1 0 1 0 -1 0 0  3307.DAT\r\n",
      "0 -136 28 0 0 0 1 0 1 0 -1 0 0 3008.DAT\r\n",
      "0 -136 44 0 0 0 1 0 1 0 -1 0 0 3008.DAT\r\n",
      "0 !LEOCAD MODEL CO MMENT",
      "1 0 0 0 0 -1 0 1 0 37 10.DAT\r\n",
      "0.17 1 0 0 0 1  38",
      "0.17 0.7 -0.7  0 0.7 0.7 3820.DAT\r\n",
      "0 -152 50 1 0 0 0 1 0 0 0 1 30 24.DAT\r\n",
      "1 0 334 - 68 ",
      "1 1 20 -28 - 10 1 0 0 0 1 0 0 0 1 38",
      " from N itrofur",
      "0 !LEOCAD MODEL AUTHOR LEGO  staf",
      " need s ",
      ".5 -64  -10 1 ",
      "3.658 -46. 123 -20 1 ",
      "46 520 1 0 0 0 0 1 0 -1 0  3024.DAT\r\n",
      "54 -40 1 0 0 0 0 -1 0 1 0 407 3.DAT\r\n",
      "8 -1 0 0 0 0 -1 0 -1 0  457.DAT\r\n",
      "f (unkn own); .ldr",
      " from Nitrofur ano;\r\n",
      "0 !LEOCAD MODEL AUTHOR LEGO staf f (unknown); .ldr",
      "0 !LEOCAD MODEL AUTHOR LEGO staff (unknown); .ldr  from Nitrofurano;\r\n",
      "  C",
      "  D",
      "  I",
      "  P",
      "  T",
      "  m",
      "  ac",
      ",  needs ",
      "- h",
      "- 0.17 ",
      "- 0.12 ",
      "- 10 1 0 0 0 1 0 0 0 1 3660.DAT\r\n",
      "- 3.658 -46.123 -20 1 ",
      "0 1",
      "0 D",
      "0 7 -",
      "0 0 0 0 -1 0 1 0 1 0 0 3034.DAT\r\n",
      "1 0 1 0 0 0 1 0 0 0 1 30",
      "1 5.DAT\r\n",
      "1 0 1 0 0 0 1 0 0 0 1 3068A.DAT\r\n",
      "1 9.DAT\r\n",
      "1 0 0 0 -1 0 1 0 1 0 0 3021.DAT\r\n",
      "1 30 1 0 0 0 1 0 0 0 1 3023.DAT\r\n",
      "1 0 -1 0 0 0 1 0 0 0 -1 3660.DAT\r\n",
      "1 40 0 0 -1 0 1 0 1 0 0 3034.DAT\r\n",
      "1 0 0 0 1 0 1 0 -1 0 0 3002.DAT\r\n",
      "1 0 0 0 -1 0 1 0 1 0 0 3002.DAT\r\n",
      "1 0 1 0 0 0 1 0 0 0 1 3004.DAT\r\n",
      "1 07 -",
      "2 9",
      "2  -",
      "2 0 1 0 0 0 1 0 0 0 1 30",
      "2 5.DAT\r\n",
      "2 39",
      "2 10 1 0 0 0 1 0 0 0 1 ",
      "2 0 -144 16",
      "3 2.DAT\r\n",
      "3 7.DAT\r\n",
      "3 10 1 0 0 0 1 0 0 0 1 3660.DAT\r\n",
      "4 19",
      "4 0 0 0 -1 0 1 0 1 0 0 3003.DAT\r\n",
      "4 8 -",
      "4 3.658 -46.123 -20 1 ",
      "4 00 0 0 -1 0 1 0 1 0 0 3034.DAT\r\n",
      "5 5",
      "5 \r\n",
      "5 3.DAT\r\n",
      "5 0 0 -1 ",
      "5 0 0 0 -1 0 1 0 1 0 0 3021.DAT\r\n",
      "5 0 -160 530 -1 0 0 0 1 0 0 0 -1 3024.DAT\r\n",
      "5 0 -152 50 1 0 0 0 1 0 0 0 1 3024.DAT\r\n",
      "6 0 1 0 0 0 1 0 0 0 1 3031.DAT\r\n",
      "6 30 1 0 0 0 1 0 0 0 1 3008.DAT\r\n",
      "6 0 -144 16",
      "7 30 1 0 0 0 1 0 0 0 1 3008.DAT\r\n",
      "7 0 -132 160 1 0 0 0 0 -1 0 1 0 3612.DAT\r\n",
      "7 8 -1 0 0 0 0 -1 0 -1 0 457.DAT\r\n",
      "7 10 1 0 0 0 1 0 0 0 1 3068A.DAT\r\n",
      "7 2 -",
      "8 8",
      "8 0 0 0 -1 0 1 0 1 0 0 3003.DAT\r\n",
      "8 0 -136 ",
      "8 8 -",
      "8 0 1 0 0 0 1 0 0 0 1 421",
      "8 5\r\n",
      "9  -1 0 0 0 1 0 0 0 -1 30",
      "9  -1 0 0 0 1 0 0 0 -1 3022.DAT\r\n",
      "9 73",
      "9 0 -120 65",
      "B P01.DAT\r\n",
      "P 26",
      "P 0D",
      "R ed",
      "S u",
      "a d",
      "a i",
      "a  P",
      "b e",
      "c ur",
      "d g",
      "d i",
      "d  f",
      "e v",
      "e 1\r\n",
      "e  - 19",
      "f ig",
      "g u",
      "h er",
      "i o",
      "i ro",
      "i fig",
      "m in",
      "n , needs ",
      "n di",
      "o st",
      "p iro",
      "r s",
      "r 1\r\n",
      "r ai",
      "r ev",
      "s  - 19",
      "s ing ",
      "t t",
      "t her",
      "w ig",
      "y \r\n",
      "0  0.17 1 0 0 0 1 38",
      "0 0  0 0 1 0 1 0 3614.DAT\r\n",
      "0 - 64 ",
      "0 - 64 86",
      "0 - 64 830 1 0 0 0 1 0 0 0 1 3069A.DAT\r\n",
      "0 - 0.17 1 0 0 0 1 38",
      "30 0 -1 0 0 ",
      "30 0 0 0 -1 0 1 0 1 0 0 30",
      "30 29.DAT\r\n",
      "1 1  35",
      "0 1 0 0 0 1 0 0 0 1  36",
      "0 1 0 0 0 1 0 0 0 1  37",
      "0 -1 0 0  0 0 1 0 1 0 3614.DAT\r\n",
      "0 1 0 0 0 1 0 0 0 1 30 33",
      "0 1 0 0 0 1 0 0 0 1 30 39.DAT\r\n",
      "33 0 -1 0 0 0 1 0 0 0 -1 30",
      "33 0 -1 0 0 0 1 0 0 0 -1 3660.DAT\r\n",
      "33 0 0 0 -1 0 1 0 1 0 0 3002.DAT\r\n",
      "0 1 0 -1 0 0  3856.DAT\r\n",
      "80 - 64 830 1 0 0 0 1 0 0 0 1 3069A.DAT\r\n",
      "8  15",
      "8  890 1 0 0 0 1 0 0 0 1 3010.DAT\r\n",
      "1 4  10 -",
      "1 4  60",
      "1 4  10 -48 ",
      "1 4  776.666 -",
      "1 4  40 -152 16",
      "24  0 0 0 1 0 1 0 -1 0 0 30",
      "0 0 1  0 1 0 -1 0 0 3856.DAT\r\n",
      "69 3.333 0 0 1 0 1 0 -1 0 0 3069A.DAT\r\n",
      "69 0 1 0 0 0 1 0 0 0 1 3062A.DAT\r\n",
      "69 0 1 0 0 0 1 0 0 0 1 3070A.DAT\r\n",
      "1 15 - 12",
      "1 15 - 40 -152 ",
      "10 - 88 0 1 0 0 0 0 -1 0 1 0 3613.DAT\r\n",
      "10 - 64 770 0 0 1 0 1 0 -1 0 0 3069A.DAT\r\n",
      "10 - 96 680 0 0 1 0 1 0 -1 0 0 3307.DAT\r\n",
      "6.666 - 56 ",
      "1 1 5 80 -64 830 1 0 0 0 1 0 0 0 1 3069A.DAT\r\n",
      "1 1 5 10 -96 680 0 0 1 0 1 0 -1 0 0 3307.DAT\r\n",
      " 0 0 1 0 1 0 -1 0 0 30 32.DAT\r\n",
      "64  673.333 0 0 1 0 1 0 -1 0 0 30",
      "0 -112  190 -1 0 0 0 1 0 0 0 -1 3004.DAT\r\n",
      "0 -112  180 0 0 1 0 1 0 -1 0 0 3020.DAT\r\n",
      "48  1 0 0 0 0 -1 0 1 0 3710.DAT\r\n",
      "0 0 0 1 0 1 0 -1 0 0 30 21.DAT\r\n",
      "30 1 0 0 0 1 0 0 0 1 30 10.DAT\r\n",
      "50 - 46 520 1 0 0 0 0 1 0 -1 0 3024.DAT\r\n",
      "50 - 54 -40 1 0 0 0 0 -1 0 1 0 4073.DAT\r\n",
      "68 B.DAT\r\n",
      "68 0 1 0 0 0 1 0 0 0 1 3033",
      "1 0 -80 - 30 -",
      "1 0 -80 - 38 ",
      "1 0 -80 - 38 3",
      "16 .DAT\r\n",
      "16 0 0 0 -1 0 1 0 1 0 0 3003.DAT\r\n",
      "16 0 0 0 -1 0 1 0 1 0 0 4084.DAT\r\n",
      "16 0 0 0 -1 0 1 0 1 0 0 4624.DAT\r\n",
      "16 0 0 0 1 0 1 0 -1 0 0 4084.DAT\r\n",
      "16 0 0 0 1 0 1 0 -1 0 0 4624.DAT\r\n",
      "1 1 4 20 -",
      "1 1 4 0 -120 ",
      "1 1 4 0 -152 ",
      "1 1 4 0 -104 ",
      "1 1 4 60 -",
      "1 1 4 .5 -64 -10 1 ",
      "1 1 4 0 -64 ",
      "1 1 4 10 -64 770 0 0 1 0 1 0 -1 0 0 3069A.DAT\r\n",
      "7 - 80 -136 ",
      "80  52",
      "80  160 1 0 0 0 1 0 0 0 1 3003.DAT\r\n",
      "80  800 1 0 0 0 1 0 0 0 1 3010.DAT\r\n",
      "80  890 1 0 0 0 1 0 0 0 1 3010.DAT\r\n",
      "80  533.333 0 0 1 0 1 0 -1 0 0 3010.DAT\r\n",
      "80  673.333 0 0 1 0 1 0 -1 0 0 3010.DAT\r\n",
      "38 .DAT\r\n",
      "38 53.DAT\r\n",
      "88  190 -1 0 0 0 1 0 0 0 -1 3010.DAT\r\n",
      "88  0 0 0 -1 -1 0 0 0 1 0 795.DAT\r\n",
      "88  0 0 0 1 1 0 0 0 1 0 795.DAT\r\n",
      "70 - 88 0 1 0 0 0 0 -1 0 1 0 3613.DAT\r\n",
      "70 - 56 -3",
      "1 14  40 -1",
      "1 14  70 -120 ",
      "1 14  20 -96 -10 1 0 0 0 1 0 0 0 1 36",
      "1 14  -3.658 -46.123 -20 1 ",
      "1 14  20 -144 16",
      "1 14  43.658 -46.123 -20 1 ",
      "1 14  60 -144 16",
      "1 14  70 -132 160 1 0 0 0 0 -1 0 1 0 3612.DAT\r\n",
      "11 0 1 0 0 0 1 0 0 0 1 3010.DAT\r\n",
      "11 0 1 0 0 0 1 0 0 0 1 3023.DAT\r\n",
      "11 0 1 0 0 0 1 0 0 0 1 421",
      "11 0 -160 530 -1 0 0 0 1 0 0 0 -1 3024.DAT\r\n",
      "11 0 -152 50 1 0 0 0 1 0 0 0 1 3024.DAT\r\n",
      "80 0 1 0 0 0 1 0 0 0 1 3069A.DAT\r\n",
      "80 C01.DAT\r\n",
      "40 - 64 77",
      "110 - 46 520 1 0 0 0 0 1 0 -1 0 3024.DAT\r\n",
      "110 - 54 -40 1 0 0 0 0 -1 0 1 0 4073.DAT\r\n",
      "39 37.DAT\r\n",
      "39 38.DAT\r\n",
      "56  22",
      "56  673.333 0 0 1 0 1 0 -1 0 0 30",
      "56  77",
      "56  0 1 0 0 0 1 0 0 0 1 3022.DAT\r\n",
      "56  160 1 0 0 0 1 0 0 0 1 3003.DAT\r\n",
      "56  330 0 0 -1 0 1 0 1 0 0 3002.DAT\r\n",
      "1 1 280 - 32 16",
      "1 1 280 - 56 -",
      "1 1 280 - 80 -1",
      "1 1 280 - 56 330 0 0 -1 0 1 0 1 0 0 3002.DAT\r\n",
      "40 -1 0 1 0 0 0 1 0 0 0 1 38",
      "40 -1 76 210 1 0 0 0 1 0 0 0 1 36",
      "1 4 - 90 -",
      "1 4 - 70 -56 -3",
      "70 3.333 -1 0 0 0 1 0 0 0 -1 3069A.DAT\r\n",
      "0 -1 0 0 0 1 0 0 0 -1 30 31.DAT\r\n",
      "0 -1 0 0 0 1 0 0 0 -1 30 01",
      "1 15  20 -",
      "1 15  52",
      "1 15  53",
      "1 15  60 -",
      "1 15  10 -88 0 1 0 0 0 0 -1 0 1 0 3613.DAT\r\n",
      "1 15  70 -88 0 1 0 0 0 0 -1 0 1 0 3613.DAT\r\n",
      "36  800 1 0 0 0 1 0 0 0 1 3069A.DAT\r\n",
      "10 1 0 0 0 1 0 0 0 1  973",
      "20 0 0 0 -1 0 1 0 1 0 0 3020.DAT\r\n",
      "19 0 -1 0 0 0 1 0 0 0 -1 3660.DAT\r\n",
      "1 15 -8 0 -152 ",
      "1 15 -8 0 -144 ",
      "1 15 -8 0 -112 190 -1 0 0 0 1 0 0 0 -1 3004.DAT\r\n",
      "1 1 51 0 -112 720 0 0 1 0 1 0 -1 0 0 3069A.DAT\r\n",
      "1 1 51 0 -112 680 0 0 1 0 1 0 -1 0 0 3069A.DAT\r\n",
      "1 1 51 0 -112 640 0 0 1 0 1 0 -1 0 0 3069A.DAT\r\n",
      "89 0 1 0 0 0 1 0 0 0 1 3069A.DAT\r\n",
      "96  0 1 0 0 0 1 0 0 0 1 685P01.DAT\r\n",
      "96  10 1 0 0 0 1 0 0 0 1 30",
      "1 1 69 0 -112 720 0 0 1 0 1 0 -1 0 0 3069A.DAT\r\n",
      "1 1 69 0 -112 680 0 0 1 0 1 0 -1 0 0 3069A.DAT\r\n",
      "1 1 69 0 -112 640 0 0 1 0 1 0 -1 0 0 3069A.DAT\r\n",
      "1 1 60 0 -12",
      "1 1 60 0 -136 ",
      "1 15 -5 0 -136 280 0 0 1 0 1 0 -1 0 0 3008.DAT\r\n",
      "1 15 -5 0 -136 440 0 0 1 0 1 0 -1 0 0 3008.DAT\r\n",
      "1 15 -11 0 -136 280 0 0 1 0 1 0 -1 0 0 3008.DAT\r\n",
      "1 15 -11 0 -136 440 0 0 1 0 1 0 -1 0 0 3008.DAT\r\n",
      "1 1 576.666 - 136 ",
      "1 1 576.666 - 104 ",
      "1 1 576.666 - 128 ",
      "1 1 576.666 - 80 533.333 0 0 1 0 1 0 -1 0 0 3010.DAT\r\n",
      "399  -1 0 0 0 1 0 0 0 -1 4600.DAT\r\n",
      "1 1 806.666 - 136 ",
      "1 1 806.666 - 104 ",
      "1 1 806.666 - 128 ",
      "1 1 806.666 - 80 673.333 0 0 1 0 1 0 -1 0 0 3010.DAT\r\n",
      "0 !LEOCAD GROUP BEGIN  min",
      "0 !LEOCAD GROUP BEGIN  piro",
      "04  160 1 0 0 0 1 0 0 0 1 3003.DAT\r\n",
      "04  800 1 0 0 0 1 0 0 0 1 3010.DAT\r\n",
      "22 0 1 0 0 0 1 0 0 0 1 3022.DAT\r\n",
      "22 0 0 0 -1 0 1 0 1 0 0 4084.DAT\r\n",
      "22 0 0 0 -1 0 1 0 1 0 0 4624.DAT\r\n",
      "22 0 0 0 1 0 1 0 -1 0 0 4084.DAT\r\n",
      "22 0 0 0 1 0 1 0 -1 0 0 4624.DAT\r\n",
      "22 0 1 0 0 0 1 0 0 0 1 4600.DAT\r\n",
      "24 0 0 0 -1 0 1 0 1 0 0 3003.DAT\r\n",
      "26 A.DAT\r\n",
      "26 BP01.DAT\r\n",
      "56 3.333 -1 0 0 0 1 0 0 0 -1 3069A.DAT\r\n",
      "64 3.333 -1 0 0 0 1 0 0 0 -1 3069A.DAT\r\n",
      "72  0 1 0 0 0 1 0 0 0 1 3022.DAT\r\n",
      "8 - 30 1 0 0 0 1 0 0 0 1 3023.DAT\r\n",
      "1 4 7 -80 -136 ",
      "0 -1 0 0 0 1 0 0 0 -1  3853.DAT\r\n",
      "0 -1 0 0 0 1 0 0 0 -1  3938.DAT\r\n",
      "6.666 -64  533.333 0 0 1 0 1 0 -1 0 0 30",
      "0 0 0 -1 0 1 0 1 0 0 303 2.DAT\r\n",
      "1 7 -80 - 32 16",
      "1 7 -80 - 88 -",
      "1 7 -80 - 56 22",
      "459  -1 0 0 0 1 0 0 0 -1 4600.DAT\r\n",
      "0 -120  160 1 0 0 0 0 -1 0 1 0 3613.DAT\r\n",
      "0 -120  690 1 0 0 0 1 0 0 0 1 3070A.DAT\r\n",
      "15  - ",
      "15 0 1 0 0 0 1 0 0 0 1 3023.DAT\r\n",
      "15 8 -1 0 0 0 0 -1 0 -1 0 457.DAT\r\n",
      "44  1 0 0 0 0 -1 0 1 0 3710.DAT\r\n",
      "52 0 -144 ",
      "52 9 -1 0 0 0 1 0 0 0 -1 30",
      "65 3.333 0 0 1 0 1 0 -1 0 0 3069A.DAT\r\n",
      "65 0 1 0 0 0 1 0 0 0 1 3062A.DAT\r\n",
      "90 -  D",
      "1 4 40 - 32 16",
      "1 4 40 - 8 15",
      "1 4 40 - 24 0 0 0 1 0 1 0 -1 0 0 30",
      "1 4 40 - 56 0 1 0 0 0 1 0 0 0 1 3022.DAT\r\n",
      "1 4 40 - 96 0 1 0 0 0 1 0 0 0 1 685P01.DAT\r\n",
      "1 4 40 - 72 0 1 0 0 0 1 0 0 0 1 3022.DAT\r\n",
      "1 15 -80 - 96 -",
      "1 15 -80 - 80 52",
      "1 15 -80 - 88 190 -1 0 0 0 1 0 0 0 -1 3010.DAT\r\n",
      "1 15 -80 - 96 10 1 0 0 0 1 0 0 0 1 30",
      "0 0 -1 0 1 0 1 0 0  3856.DAT\r\n",
      "1 0 -80 -4 8 -30 1 0 0 0 1 0 0 0 1 3023.DAT\r\n",
      "0.17  0 -0.17 1 0 0 0 1 38",
      "1 4 -80 - 80 -1",
      "1 4 -80 - 56 8",
      "533.333 0 0 1 0 1 0 -1 0 0 30 69A.DAT\r\n",
      "533.333 0 0 1 0 1 0 -1 0 0 30 31.DAT\r\n",
      "673.333 0 0 1 0 1 0 -1 0 0 30 69A.DAT\r\n",
      " 0 0 -1 0 1 0 1 0 0  3029.DAT\r\n",
      "49 9 -1 0 0 0 1 0 0 0 -1 3022.DAT\r\n",
      "50 3.333 -1 0 0 0 1 0 0 0 -1 3069A.DAT\r\n",
      "51 3.333 0 0 1 0 1 0 -1 0 0 3069A.DAT\r\n",
      "53 0 -144 ",
      "53 0 -1 0 0 0 1 0 0 0 -1 3853.DAT\r\n",
      "77 \r\n",
      "an ad",
      "an d f",
      "an s - 19",
      "le r1\r\n",
      "1 1 630 - 24 830 1 0 0 0 1 0 0 0 1 3005.DAT\r\n",
      "1 1 630 - 24 890 1 0 0 0 1 0 0 0 1 3005.DAT\r\n",
      "1 1 630 - 48 830 1 0 0 0 1 0 0 0 1 3005.DAT\r\n",
      "1 1 630 - 48 890 1 0 0 0 1 0 0 0 1 3005.DAT\r\n",
      "1 1 630 - 64 860 0 0 1 0 1 0 -1 0 0 3069A.DAT\r\n",
      "0 -152  542 ",
      "0 0 1 0 1 0  3937.DAT\r\n",
      "1 0 -50 -24  0 0 0 -1 0 1 0 1 0 0 4084.DAT\r\n",
      "1 0 -50 -24  399 0 0 -1 0 1 0 1 0 0 ",
      "1 0 -50 -24  459 0 0 -1 0 1 0 1 0 0 ",
      "1 0 -50 -24  160 0 0 -1 0 1 0 1 0 0 4084.DAT\r\n",
      "1 0 -50 -24  220 0 0 -1 0 1 0 1 0 0 4084.DAT\r\n",
      "1 1 54 0 -112 630 1 0 0 0 1 0 0 0 1 3069A.DAT\r\n",
      "1 1 54 0 -112 730 1 0 0 0 1 0 0 0 1 3069A.DAT\r\n",
      "1 1 54 6.666 -56 ",
      "1 1 570 - 24 830 1 0 0 0 1 0 0 0 1 3005.DAT\r\n",
      "1 1 570 - 24 890 1 0 0 0 1 0 0 0 1 3005.DAT\r\n",
      "1 1 570 - 48 830 1 0 0 0 1 0 0 0 1 3005.DAT\r\n",
      "1 1 570 - 48 890 1 0 0 0 1 0 0 0 1 3005.DAT\r\n",
      "1 1 570 - 64 860 0 0 1 0 1 0 -1 0 0 3069A.DAT\r\n",
      "1 0 -80 -48  31",
      "1 0 -80 -48  399 -1 0 0 0 1 0 0 0 -1 3022.DAT\r\n",
      "1 0 -80 -48  46",
      "1 0 -80 -48  60 0 0 -1 0 1 0 1 0 0 3034.DAT\r\n",
      "1 0 -80 -48  220 1 0 0 0 1 0 0 0 1 3022.DAT\r\n",
      "1 1 470 - 64 770 0 0 1 0 1 0 -1 0 0 3069A.DAT\r\n",
      "1 7 -50 -24  0 0 0 -1 0 1 0 1 0 0 4624.DAT\r\n",
      "1 7 -50 -24  399 0 0 -1 0 1 0 1 0 0 ",
      "1 7 -50 -24  459 0 0 -1 0 1 0 1 0 0 ",
      "1 7 -50 -24  160 0 0 -1 0 1 0 1 0 0 4624.DAT\r\n",
      "1 7 -50 -24  220 0 0 -1 0 1 0 1 0 0 4624.DAT\r\n",
      "1 0 -110 -24  0 0 0 1 0 1 0 -1 0 0 4084.DAT\r\n",
      "1 0 -110 -24  399 0 0 1 0 1 0 -1 0 0 ",
      "1 0 -110 -24  459 0 0 1 0 1 0 -1 0 0 ",
      "1 0 -110 -24  160 0 0 1 0 1 0 -1 0 0 4084.DAT\r\n",
      "1 0 -110 -24  220 0 0 1 0 1 0 -1 0 0 4084.DAT\r\n",
      "1 1 690 - 96 680 0 0 1 0 1 0 -1 0 0 3307.DAT\r\n",
      "1 0 -80 -40  399 -1 0 0 0 1 0 0 0 -1 3022.DAT\r\n",
      "1 0 -80 -40  60 0 0 -1 0 1 0 1 0 0 3034.DAT\r\n",
      "1 0 -80 -40  459 -1 0 0 0 1 0 0 0 -1 3022.DAT\r\n",
      "1 0 -80 -40  200 0 0 -1 0 1 0 1 0 0 3020.DAT\r\n",
      "1 0 -80 -40  150 1 0 0 0 1 0 0 0 1 3023.DAT\r\n",
      "1 7 -110 -24  0 0 0 1 0 1 0 -1 0 0 4624.DAT\r\n",
      "1 7 -110 -24  399 0 0 1 0 1 0 -1 0 0 ",
      "1 7 -110 -24  459 0 0 1 0 1 0 -1 0 0 ",
      "1 7 -110 -24  160 0 0 1 0 1 0 -1 0 0 4624.DAT\r\n",
      "1 7 -110 -24  220 0 0 1 0 1 0 -1 0 0 4624.DAT\r\n",
      "28 0 0 0 -1 0 1 0 1 0 0 3003.DAT\r\n",
      "28 0 0 0 -1 0 1 0 1 0 0 3034.DAT\r\n",
      "50 1 0 0 0 1 0 0 0 1 38 23.DAT\r\n",
      "50 1 0 0 0 1 0 0 0 1 38 29",
      "in ing ",
      "1 0  20 -96 -10 1 0 0 0 1 0 0 0 1 36",
      "1 0  40 -176 210 1 0 0 0 1 0 0 0 1 36",
      "1 36 - 50 -160 530 -1 0 0 0 1 0 0 0 -1 3024.DAT\r\n",
      "1 36 - 50 -46 520 1 0 0 0 0 1 0 -1 0 3024.DAT\r\n",
      "1 36 - 110 -160 530 -1 0 0 0 1 0 0 0 -1 3024.DAT\r\n",
      "1 36 - 110 -46 520 1 0 0 0 0 1 0 -1 0 3024.DAT\r\n",
      "1 1 20 - 72 -",
      "1 1 20 - 40 -10 1 0 0 0 1 0 0 0 1 38",
      "1 4 30 0 -72 12",
      "1 4 30 0 -72 20",
      "1 0 -50 - 64 130 1 0 0 0 1 0 0 0 1 3957.DAT\r\n",
      "1 0 -70 - 48 51",
      "1 0 -70 - 32 9",
      "1 0 -70 - 38 324 1 0 0 0 0 -1 0 1 0 3062B.DAT\r\n",
      "1 0 -70 - 40 -30 1 0 0 0 1 0 0 0 1 4070.DAT\r\n",
      "1 0 -90 - 48 51",
      "1 0 -90 - 32 9",
      "1 0 -90 - 38 324 1 0 0 0 0 -1 0 1 0 3062B.DAT\r\n",
      "1 0 -90 - 40 -30 1 0 0 0 1 0 0 0 1 4070.DAT\r\n",
      "1 15 -50 -88  260 0 0 -1 0 1 0 1 0 0 3009.DAT\r\n",
      "1 15 -50 -88  510 -1 0 0 0 1 0 0 0 -1 3024.DAT\r\n",
      "1 15 -50 -88  440 0 0 -1 0 1 0 1 0 0 3009.DAT\r\n",
      "1 15 -50 -88  350 0 0 -1 0 1 0 1 0 0 3622.DAT\r\n",
      "1 15 -110 -88  260 0 0 -1 0 1 0 1 0 0 3009.DAT\r\n",
      "1 15 -110 -88  510 -1 0 0 0 1 0 0 0 -1 3024.DAT\r\n",
      "1 15 -110 -88  440 0 0 -1 0 1 0 1 0 0 3009.DAT\r\n",
      "1 15 -110 -88  350 0 0 -1 0 1 0 1 0 0 3622.DAT\r\n",
      "1 0 -80 -32  399 -1 0 0 0 1 0 0 0 -1 3022.DAT\r\n",
      "1 0 -80 -32  459 -1 0 0 0 1 0 0 0 -1 3022.DAT\r\n",
      "1 0 -80 -32  130 1 0 0 0 1 0 0 0 1 3023.DAT\r\n",
      "1 0 -80 -32  50 0 0 -1 0 1 0 1 0 0 3021.DAT\r\n",
      "1 14 280 -24  120 0 0 -1 0 1 0 1 0 0 3003.DAT\r\n",
      "1 14 280 -24  200 0 0 -1 0 1 0 1 0 0 3003.DAT\r\n",
      "1 14 280 -24  40 0 0 -1 0 1 0 1 0 0 3003.DAT\r\n",
      "1 14 280 -24  280 0 0 -1 0 1 0 1 0 0 3003.DAT\r\n",
      "1 1 280 -24  31",
      "1 1 280 -24  -10 1 0 0 0 1 0 0 0 1 3660.DAT\r\n",
      "1 1 280 -24  10 1 0 0 0 1 0 0 0 1 3004.DAT\r\n",
      "1 1 280 -24  330 -1 0 0 0 1 0 0 0 -1 3660.DAT\r\n",
      "1 0 -110 - 64 130 1 0 0 0 1 0 0 0 1 3957.DAT\r\n",
      "1 1 600 - 56 8",
      "1 1 600 - 80 890 1 0 0 0 1 0 0 0 1 3010.DAT\r\n",
      "1 46 - 50 -152 50 1 0 0 0 1 0 0 0 1 3024.DAT\r\n",
      "1 46 - 50 -54 -40 1 0 0 0 0 -1 0 1 0 4073.DAT\r\n",
      "1 46 - 110 -152 50 1 0 0 0 1 0 0 0 1 3024.DAT\r\n",
      "1 46 - 110 -54 -40 1 0 0 0 0 -1 0 1 0 4073.DAT\r\n",
      "18 .DAT\r\n",
      "31 0 1 0 0 0 1 0 0 0 1 3023.DAT\r\n",
      "30 1 0 0 0 1 0 0 0 1 4 17",
      "ea dg",
      "ea rs",
      "ea ther",
      "it e - 19",
      "s  and f",
      "1 1 62 0 -112 630 1 0 0 0 1 0 0 0 1 3069A.DAT\r\n",
      "1 1 62 0 -112 730 1 0 0 0 1 0 0 0 1 3069A.DAT\r\n",
      "1 1 62 0 -64 830 1 0 0 0 1 0 0 0 1 3069A.DAT\r\n",
      "1 1 776.666 - 56 673.333 0 0 1 0 1 0 -1 0 0 30",
      "1 4 54 0 -112 660 1 0 0 0 1 0 0 0 1 3068A.DAT\r\n",
      "1 4 54 0 -112 700 1 0 0 0 1 0 0 0 1 3068A.DAT\r\n",
      "1 4 54 6.666 -64 533.333 0 0 1 0 1 0 -1 0 0 30",
      "1 0 -80 -24  140 0 0 -1 0 1 0 1 0 0 3034.DAT\r\n",
      "1 0 -80 -56  400 0 0 -1 0 1 0 1 0 0 3034.DAT\r\n",
      "1 0 -80 -56  499 -1 0 0 0 1 0 0 0 -1 3022.DAT\r\n",
      "1 0 -80 -56  310 1 0 0 0 1 0 0 0 1 3023.DAT\r\n",
      "1 1 440 -1 28 ",
      "1 1 440 -1 36 800 1 0 0 0 1 0 0 0 1 3069A.DAT\r\n",
      "1 1 440 -1 04 800 1 0 0 0 1 0 0 0 1 3010.DAT\r\n",
      "1 1 280 -80  10 -1 0 0 0 1 0 0 0 -1 3660.DAT\r\n",
      "1 1 280 -80  310 1 0 0 0 1 0 0 0 1 3660.DAT\r\n",
      "1 1 280 -80  330 -1 0 0 0 1 0 0 0 -1 30",
      "1 4 280 -24  80 0 0 -1 0 1 0 1 0 0 3003.DAT\r\n",
      "1 4 280 -24  160 0 0 -1 0 1 0 1 0 0 3003.DAT\r\n",
      "1 4 280 -24  240 0 0 -1 0 1 0 1 0 0 3003.DAT\r\n",
      "1 15 40 - 48 -",
      "1 15 -50 -112  380 0 0 1 0 1 0 -1 0 0 3008.DAT\r\n",
      "1 15 -50 -112  240 0 0 -1 0 1 0 1 0 0 3009.DAT\r\n",
      "1 15 -50 -112  490 0 0 -1 0 1 0 1 0 0 3622.DAT\r\n",
      "1 15 -50 -160  380 0 0 1 0 1 0 -1 0 0 3008.DAT\r\n",
      "1 15 -50 -160  240 0 0 -1 0 1 0 1 0 0 3009.DAT\r\n",
      "1 15 -50 -160  490 0 0 -1 0 1 0 1 0 0 3622.DAT\r\n",
      "1 15 -110 -112  380 0 0 1 0 1 0 -1 0 0 3008.DAT\r\n",
      "1 15 -110 -112  240 0 0 -1 0 1 0 1 0 0 3009.DAT\r\n",
      "1 15 -110 -112  490 0 0 -1 0 1 0 1 0 0 3622.DAT\r\n",
      "1 15 -110 -160  380 0 0 1 0 1 0 -1 0 0 3008.DAT\r\n",
      "1 15 -110 -160  240 0 0 -1 0 1 0 1 0 0 3009.DAT\r\n",
      "1 15 -110 -160  490 0 0 -1 0 1 0 1 0 0 3622.DAT\r\n",
      "1 4 280 -80 12 0 0 0 -1 0 1 0 1 0 0 793.DAT\r\n",
      "1 4 280 -80 12 0 0 0 -1 0 1 0 1 0 0 792.DAT\r\n",
      "1 4 280 -80 12 0 1 0 0 0 1 0 0 0 1 685P01.DAT\r\n",
      "1 4 280 -80 20 0 0 0 -1 0 1 0 1 0 0 793.DAT\r\n",
      "1 4 280 -80 20 0 0 0 -1 0 1 0 1 0 0 792.DAT\r\n",
      "1 4 280 -80 20 0 1 0 0 0 1 0 0 0 1 685P01.DAT\r\n",
      " - 19 85\r\n",
      "1 0 -50 -30  64 1 0 0 0 0 -1 0 1 0 3062B.DAT\r\n",
      "1 0 -50 -30  40 1 0 0 0 0 -1 0 1 0 3062B.DAT\r\n",
      "1 0 -50 -30  116 1 0 0 0 0 1 0 -1 0 3062B.DAT\r\n",
      "1 0 -110 -30  64 1 0 0 0 0 -1 0 1 0 3062B.DAT\r\n",
      "1 0 -110 -30  40 1 0 0 0 0 -1 0 1 0 3062B.DAT\r\n",
      "1 0 -110 -30  116 1 0 0 0 0 1 0 -1 0 3062B.DAT\r\n",
      "0 !LEOCAD MODEL AUTHOR  \r\n",
      "0 !LEOCAD MODEL DESCRIPTION  107 -",
      "17 0 0 0 1 0 1 0 -1 0 0 3021.DAT\r\n",
      "28  170 0 0 1 0 1 0 -1 0 0 3021.DAT\r\n",
      "46 0 -1 0 0 0 1 0 0 0 -1 3031.DAT\r\n",
      "73 \r\n",
      "70 -120  710 1 0 0 0 1 0 0 0 1 3068A.DAT\r\n",
      "ac y\r\n",
      "er  ac",
      "is io",
      "is sing ",
      "1 1 66 0 -112 630 1 0 0 0 1 0 0 0 1 3069A.DAT\r\n",
      "1 1 66 0 -112 730 1 0 0 0 1 0 0 0 1 3069A.DAT\r\n",
      "1 4 4 0 -112 180 0 0 1 0 1 0 -1 0 0 3020.DAT\r\n",
      "1 4 4 40 -64 77",
      "1 4 66 0 -112 660 1 0 0 0 1 0 0 0 1 3068A.DAT\r\n",
      "1 4 66 0 -112 700 1 0 0 0 1 0 0 0 1 3068A.DAT\r\n",
      "1 4 62 0 -112 660 1 0 0 0 1 0 0 0 1 3068A.DAT\r\n",
      "1 4 62 0 -112 700 1 0 0 0 1 0 0 0 1 3068A.DAT\r\n",
      "1 4 70 - 80 156 -1 0 0 0 0 1 0 1 0 3614.DAT\r\n",
      "1 4 70 - 50 0 -1 ",
      "1 4 40 -1 76 210 1 0 0 0 1 0 0 0 1 36",
      "1 4 40 -1 28 170 0 0 1 0 1 0 -1 0 0 3021.DAT\r\n",
      "1 4 26 0 -72 12",
      "1 4 26 0 -72 20",
      "1 4 250 - 70 120 1 0 0 0 1 0 0 0 1 3613.DAT\r\n",
      "1 4 250 - 70 200 1 0 0 0 1 0 0 0 1 3613.DAT\r\n",
      "1 4 310 - 70 120 1 0 0 0 1 0 0 0 1 3613.DAT\r\n",
      "1 4 310 - 70 200 1 0 0 0 1 0 0 0 1 3613.DAT\r\n",
      "1 4 58 0 -112 660 1 0 0 0 1 0 0 0 1 3068A.DAT\r\n",
      "1 4 58 0 -112 700 1 0 0 0 1 0 0 0 1 3068A.DAT\r\n",
      "1 1 58 0 -112 630 1 0 0 0 1 0 0 0 1 3069A.DAT\r\n",
      "1 1 58 0 -112 730 1 0 0 0 1 0 0 0 1 3069A.DAT\r\n",
      "1 1 510 -24  630 1 0 0 0 1 0 0 0 1 3005.DAT\r\n",
      "1 1 510 -24  730 1 0 0 0 1 0 0 0 1 3005.DAT\r\n",
      "1 1 510 -48  630 1 0 0 0 1 0 0 0 1 3005.DAT\r\n",
      "1 1 510 -48  730 1 0 0 0 1 0 0 0 1 3005.DAT\r\n",
      "1 1 440 - 80 800 1 0 0 0 1 0 0 0 1 3010.DAT\r\n",
      "1 1 440 - 56 77",
      "1 1 410 -24  800 1 0 0 0 1 0 0 0 1 3005.DAT\r\n",
      "1 1 410 -24  740 1 0 0 0 1 0 0 0 1 3005.DAT\r\n",
      "1 1 410 -48  800 1 0 0 0 1 0 0 0 1 3005.DAT\r\n",
      "1 1 410 -48  740 1 0 0 0 1 0 0 0 1 3005.DAT\r\n",
      "80 50 1 0 0 0 1 0 0 0 1 38 22.DAT\r\n",
      "80 50 1 0 0 0 1 0 0 0 1 38 21.DAT\r\n",
      "0.12  0.17 0.7 -0.7 0 0.7 0.7 3820.DAT\r\n",
      "1 14 1 0 -132 160 1 0 0 0 0 -1 0 1 0 3612.DAT\r\n",
      "1 14 1 0 -120 160 1 0 0 0 0 -1 0 1 0 3613.DAT\r\n",
      "1 14 40 - 80 160 1 0 0 0 1 0 0 0 1 3003.DAT\r\n",
      "1 14 40 - 56 160 1 0 0 0 1 0 0 0 1 3003.DAT\r\n",
      "1 14 40 -152 16 0 0 0 -1 0 1 0 1 0 0 793.DAT\r\n",
      "1 14 40 -152 16 0 0 0 -1 0 1 0 1 0 0 792.DAT\r\n",
      "1 1 280 -32  40 0 0 -1 0 1 0 1 0 0 3034.DAT\r\n",
      "1 1 280 -32  280 0 0 -1 0 1 0 1 0 0 3034.DAT\r\n",
      "1 4 -50 - 72 0 0 0 1 0 1 0 -1 0 0 3069B.DAT\r\n",
      "1 4 -50 - 80 50 1 0 0 0 1 0 0 0 1 3822.DAT\r\n",
      "1 4 -110 - 72 0 0 0 1 0 1 0 -1 0 0 3069B.DAT\r\n",
      "1 4 -110 - 80 50 1 0 0 0 1 0 0 0 1 3821.DAT\r\n",
      "1 4 280 -56  120 0 0 -1 0 1 0 1 0 0 3003.DAT\r\n",
      "1 4 280 -56  200 0 0 -1 0 1 0 1 0 0 3003.DAT\r\n",
      "1 15 5 90 -120 65",
      "1 15 5 70 -120 710 1 0 0 0 1 0 0 0 1 3068A.DAT\r\n",
      "1 15 -80 -160  190 -1 0 0 0 1 0 0 0 -1 3004.DAT\r\n",
      "1 15 -80 -160  529 -1 0 0 0 1 0 0 0 -1 30",
      "1 15 -80 -136  190 -1 0 0 0 1 0 0 0 -1 3010.DAT\r\n",
      "1 15 -80 -136  110 1 0 0 0 1 0 0 0 1 421",
      "1 15 -80 -168  239",
      "1 15 -80 -168  419",
      "1 1 516.666 -64  55",
      "1 1 516.666 -64  513.333 0 0 1 0 1 0 -1 0 0 3069A.DAT\r\n",
      "1 1 516.666 -24  563.333 0 0 1 0 1 0 -1 0 0 3005.DAT\r\n",
      "1 1 516.666 -24  503.333 0 0 1 0 1 0 -1 0 0 3005.DAT\r\n",
      "1 1 516.666 -48  563.333 0 0 1 0 1 0 -1 0 0 3005.DAT\r\n",
      "1 1 516.666 -48  503.333 0 0 1 0 1 0 -1 0 0 3005.DAT\r\n",
      "1 1 600 -104  890 1 0 0 0 1 0 0 0 1 3010.DAT\r\n",
      "1 1 600 -104  680 1 0 0 0 1 0 0 0 1 3033",
      "1 1 576.666 -24  563.333 0 0 1 0 1 0 -1 0 0 3005.DAT\r\n",
      "1 1 576.666 -24  503.333 0 0 1 0 1 0 -1 0 0 3005.DAT\r\n",
      "1 1 576.666 -48  563.333 0 0 1 0 1 0 -1 0 0 3005.DAT\r\n",
      "1 1 576.666 -48  503.333 0 0 1 0 1 0 -1 0 0 3005.DAT\r\n",
      "1 1 806.666 -24  703.333 0 0 1 0 1 0 -1 0 0 3005.DAT\r\n",
      "1 1 806.666 -24  643.333 0 0 1 0 1 0 -1 0 0 3005.DAT\r\n",
      "1 1 806.666 -48  703.333 0 0 1 0 1 0 -1 0 0 3005.DAT\r\n",
      "1 1 806.666 -48  643.333 0 0 1 0 1 0 -1 0 0 3005.DAT\r\n",
      "0 !LEOCAD GROUP BEGIN t ruck",
      "0 !LEOCAD GROUP BEGIN t rai",
      "0 !LEOCAD GROUP BEGIN male 1\r\n",
      "0 !LEOCAD GROUP BEGIN male 2\r\n",
      "0 !LEOCAD GROUP BEGIN female 1\r\n",
      "0 !LEOCAD GROUP BEGIN female 2\r\n",
      "1 47  520 -144 ",
      "1 47  530 -144 ",
      "1 7 -80 -24  399 -1 0 0 0 1 0 0 0 -1 4600.DAT\r\n",
      "1 7 -80 -24  459 -1 0 0 0 1 0 0 0 -1 4600.DAT\r\n",
      "1 7 -80 -32  0 1 0 0 0 1 0 0 0 1 4600.DAT\r\n",
      "1 7 -80 -32  220 1 0 0 0 1 0 0 0 1 4600.DAT\r\n",
      "0 -120 65 0 1 0 0 0 1 0 0 0 1 3070A.DAT\r\n",
      "1 1 -50 -88  40 0 0 1 0 1 0 -1 0 0 3023.DAT\r\n",
      "1 1 -50 -88  110 -1 0 0 0 1 0 0 0 -1 4085A.DAT\r\n",
      "1 1 -110 -88  40 0 0 1 0 1 0 -1 0 0 3023.DAT\r\n",
      "1 1 -110 -88  110 -1 0 0 0 1 0 0 0 -1 4085A.DAT\r\n",
      "1 1 -80 -88  10 0 0 -1 0 1 0 1 0 0 3021.DAT\r\n",
      "1 1 -80 -88  110 1 0 0 0 1 0 0 0 1 3023.DAT\r\n",
      "1 1 746.666 -64  693.333 0 0 1 0 1 0 -1 0 0 3069A.DAT\r\n",
      "1 1 746.666 -64  653.333 0 0 1 0 1 0 -1 0 0 3069A.DAT\r\n",
      "1 1 746.666 -24  703.333 0 0 1 0 1 0 -1 0 0 3005.DAT\r\n",
      "1 1 746.666 -24  643.333 0 0 1 0 1 0 -1 0 0 3005.DAT\r\n",
      "1 1 746.666 -48  703.333 0 0 1 0 1 0 -1 0 0 3005.DAT\r\n",
      "1 1 746.666 -48  643.333 0 0 1 0 1 0 -1 0 0 3005.DAT\r\n",
      "1 15 -80 -64  300 0 0 -1 0 1 0 1 0 0 30",
      "1 15 -80 -64  460 -1 0 0 0 1 0 0 0 -1 3031.DAT\r\n",
      "1 4 -80 -64  0 1 0 0 0 1 0 0 0 1 37",
      "1 4 -80 -64  50 1 0 0 0 1 0 0 0 1 3829",
      "1 4 -80 -80  30 1 0 0 0 1 0 0 0 1 3010.DAT\r\n",
      "1 4 -80 -80  110 1 0 0 0 1 0 0 0 1 3010.DAT\r\n",
      "542  0 0 1 0 1 0 -1 0 0 3856.DAT\r\n",
      "1 1 546.666 -64  563.333 -1 0 0 0 1 0 0 0 -1 3069A.DAT\r\n",
      "1 1 546.666 -64  503.333 -1 0 0 0 1 0 0 0 -1 3069A.DAT\r\n",
      "1 1 470 -24  800 1 0 0 0 1 0 0 0 1 3005.DAT\r\n",
      "1 1 470 -24  740 1 0 0 0 1 0 0 0 1 3005.DAT\r\n",
      "1 1 470 -48  800 1 0 0 0 1 0 0 0 1 3005.DAT\r\n",
      "1 1 470 -48  740 1 0 0 0 1 0 0 0 1 3005.DAT\r\n",
      "1 1 690 -24  630 1 0 0 0 1 0 0 0 1 3005.DAT\r\n",
      "1 1 690 -24  730 1 0 0 0 1 0 0 0 1 3005.DAT\r\n",
      "1 1 690 -48  630 1 0 0 0 1 0 0 0 1 3005.DAT\r\n",
      "1 1 690 -48  730 1 0 0 0 1 0 0 0 1 3005.DAT\r\n",
      "1 4 306 -68  80 0 1 0 1 0 0 0 0 -1 3614.DAT\r\n",
      "1 4 306 -68  160 0 1 0 1 0 0 0 0 -1 3614.DAT\r\n",
      "1 1 600 -96  630 1 0 0 0 1 0 0 0 1 3008.DAT\r\n",
      "1 1 600 -96  730 1 0 0 0 1 0 0 0 1 3008.DAT\r\n",
      "56 -3 0 0 0 1 0 1 0 -1 0 0 4081A.DAT\r\n",
      "1 1 776.666 -64  703.333 -1 0 0 0 1 0 0 0 -1 3069A.DAT\r\n",
      "1 1 776.666 -64  643.333 -1 0 0 0 1 0 0 0 -1 3069A.DAT\r\n",
      "1 0 -80 -24 2 0 0 0 -1 0 1 0 1 0 0 3020.DAT\r\n",
      "1 0 -80 -24 2 30 1 0 0 0 1 0 0 0 1 3023.DAT\r\n",
      "1 15 40 -96  0 0 0 -1 0 1 0 1 0 0 793.DAT\r\n",
      "1 15 40 -96  0 0 0 -1 0 1 0 1 0 0 792.DAT\r\n",
      "0 !LEOCAD MODEL DESCRIPTION 2 15 - ",
      "0 !LEOCAD MODEL DESCRIPTION 2 90 - D",
      "ruck  - 1985\r\n",
      "1 4 246 -68  80 0 1 0 1 0 0 0 0 -1 3614.DAT\r\n",
      "1 4 246 -68  160 0 1 0 1 0 0 0 0 -1 3614.DAT\r\n",
      "0.12 - 0.12 -",
      "0 !LEOCAD MODEL COMMENT  needs ",
      "0 !LEOCAD MODEL COMMENT  m",
      "1 0 334 -68  78 -1 0 0 0 0 -1 0 -1 0 457.DAT\r\n",
      "1 0 334 -68  158 -1 0 0 0 0 -1 0 -1 0 457.DAT\r\n",
      "1 1 20 -28 -10 1 0 0 0 1 0 0 0 1 38 17.DAT\r\n",
      "1 1 20 -28 -10 1 0 0 0 1 0 0 0 1 38 16.DAT\r\n",
      ".5 -64 -10 1  0.17 0 -0.17 1 0 0 0 1 38",
      " C anad",
      " I ndi",
      " T ruck - 1985\r\n",
      "-h eadg",
      "-0.17  0 0.17 1 0 0 0 1 38",
      "-0.12  0.12 0.17 0.7 -0.7 0 0.7 0.7 3820.DAT\r\n",
      "20 1 0 0 0 1 0 0 0 1 30 68B.DAT\r\n",
      "210 1 0 0 0 1 0 0 0 1  17.DAT\r\n",
      "88 .DAT\r\n",
      "80 1 0 0 0 1 0 0 0 1 421 3.DAT\r\n",
      "P26 .DAT\r\n",
      "P0D .DAT\r\n",
      "Red  Indi",
      "Su ite - 19",
      "a P ost",
      "be tt",
      "cur acy\r\n",
      "gu e1\r\n",
      "ifig 1\r\n",
      "n, needs  bett",
      "rev isio",
      "wig s and f",
      "0 -64 86 0 1 0 0 0 1 0 0 0 1 3068A.DAT\r\n",
      "300 -1 0 0  0 0 1 0 1 0 3937.DAT\r\n",
      "1 1 35 .5 -64 -10 1 0.17 0 -0.17 1 0 0 0 1 38",
      "0 1 0 0 0 1 0 0 0 1 36 80C01.DAT\r\n",
      "1 4 10 - 80 156 -1 0 0 0 0 1 0 1 0 3614.DAT\r\n",
      "1 4 60 0 -64 860 1 0 0 0 1 0 0 0 1 3068A.DAT\r\n",
      "1 4 10 -48  0 -1 0 0 0 0 1 0 1 0 3614.DAT\r\n",
      "1 4 776.666 - 64 673.333 0 0 1 0 1 0 -1 0 0 30",
      "1 4 40 -152 16 0 1 0 0 0 1 0 0 0 1 685P01.DAT\r\n",
      "1 15 -12 0 -152 542 ",
      "1 15 -40 -152  542 0 0 1 0 1 0 -1 0 0 3856.DAT\r\n",
      "1 0 -80 -30 - 44 1 0 0 0 0 -1 0 1 0 3710.DAT\r\n",
      "1 0 -80 -38  300 -1 0 0 0 0 1 0 1 0 3937.DAT\r\n",
      "1 0 -80 -38 3 48 1 0 0 0 0 -1 0 1 0 3710.DAT\r\n",
      "1 1 420 - 64 740 1 0 0 0 1 0 0 0 1 3069A.DAT\r\n",
      "1 1 40 -120  180 0 0 1 0 1 0 -1 0 0 3020.DAT\r\n",
      "1 1 40 -152  210 1 0 0 0 1 0 0 0 1 17.DAT\r\n",
      "1 1 40 -104  190 -1 0 0 0 1 0 0 0 -1 3660.DAT\r\n",
      "1 1 460 - 64 740 1 0 0 0 1 0 0 0 1 3069A.DAT\r\n",
      "1 1 4.5 -64 -10 1  -0.17 0 0.17 1 0 0 0 1 38",
      "1 1 40 -64  0 1 0 0 0 1 0 0 0 1 3022.DAT\r\n",
      "1 14 40 -1 04 160 1 0 0 0 1 0 0 0 1 3003.DAT\r\n",
      "1 14 70 -120  160 1 0 0 0 0 -1 0 1 0 3613.DAT\r\n",
      "1 14 20 -96 -10 1 0 0 0 1 0 0 0 1 36 26BP01.DAT\r\n",
      "1 14 -3.658 -46.123 -20 1  -0.12 0.12 0.17 0.7 -0.7 0 0.7 0.7 3820.DAT\r\n",
      "1 14 20 -144 16 0 0 0 -1 -1 0 0 0 1 0 795.DAT\r\n",
      "1 14 43.658 -46.123 -20 1  0.12 -0.12 -",
      "1 14 60 -144 16 0 0 0 1 1 0 0 0 1 0 795.DAT\r\n",
      "1 1 280 -32 16 0 0 0 -1 0 1 0 1 0 0 3020.DAT\r\n",
      "1 1 280 -56 - 10 0 0 -1 0 1 0 1 0 0 3002.DAT\r\n",
      "1 1 280 -80 -1 0 1 0 0 0 1 0 0 0 1 3039.DAT\r\n",
      "1 4 -90 - 56 -30 0 0 1 0 1 0 -1 0 0 4081A.DAT\r\n",
      "1 4 -70 -56 -3 0 0 0 -1 0 1 0 1 0 0 4081A.DAT\r\n",
      "0 -1 0 0 0 1 0 0 0 -1 3001 P0D.DAT\r\n",
      "1 15 20 - 88 0 0 0 -1 -1 0 0 0 1 0 795.DAT\r\n",
      "1 15 52 0 -120 650 1 0 0 0 1 0 0 0 1 3070A.DAT\r\n",
      "1 15 53 0 -120 690 1 0 0 0 1 0 0 0 1 3070A.DAT\r\n",
      "1 15 60 - 88 0 0 0 1 1 0 0 0 1 0 795.DAT\r\n",
      "10 1 0 0 0 1 0 0 0 1 973 P26.DAT\r\n",
      "1 15 -80 -152  530 -1 0 0 0 1 0 0 0 -1 3853.DAT\r\n",
      "1 15 -80 -144  80 1 0 0 0 1 0 0 0 1 4213.DAT\r\n",
      "1 1 600 -12 8 890 1 0 0 0 1 0 0 0 1 3010.DAT\r\n",
      "1 1 600 -136  890 1 0 0 0 1 0 0 0 1 3069A.DAT\r\n",
      "1 1 576.666 -136  533.333 0 0 1 0 1 0 -1 0 0 3069A.DAT\r\n",
      "1 1 576.666 -104  533.333 0 0 1 0 1 0 -1 0 0 3010.DAT\r\n",
      "1 1 576.666 -128  533.333 0 0 1 0 1 0 -1 0 0 3010.DAT\r\n",
      "1 1 806.666 -136  673.333 0 0 1 0 1 0 -1 0 0 3069A.DAT\r\n",
      "1 1 806.666 -104  673.333 0 0 1 0 1 0 -1 0 0 3010.DAT\r\n",
      "1 1 806.666 -128  673.333 0 0 1 0 1 0 -1 0 0 3010.DAT\r\n",
      "0 !LEOCAD GROUP BEGIN min ifig1\r\n",
      "0 !LEOCAD GROUP BEGIN piro gue1\r\n",
      "1 47 -80 -136  50 1 0 0 0 1 0 0 0 1 3823.DAT\r\n",
      "1 7 -80 -32 16 0 1 0 0 0 1 0 0 0 1 4600.DAT\r\n",
      "1 7 -80 -88 - 30 1 0 0 0 1 0 0 0 1 417",
      "1 7 -80 -56 22 0 1 0 0 0 1 0 0 0 1 3680C01.DAT\r\n",
      "1 4 40 -32 16 0 1 0 0 0 1 0 0 0 1 3003.DAT\r\n",
      "1 4 40 -8 15 0 0 0 -1 0 1 0 1 0 0 3021.DAT\r\n",
      "1 4 40 -24 0 0 0 1 0 1 0 -1 0 0 30 01.DAT\r\n",
      "1 15 -80 -96 - 20 1 0 0 0 1 0 0 0 1 3068B.DAT\r\n",
      "1 15 -80 -80 52 0 -1 0 0 0 1 0 0 0 -1 3001P0D.DAT\r\n",
      "1 15 -80 -96 10 1 0 0 0 1 0 0 0 1 30 69B.DAT\r\n",
      "1 4 -80 -80 -1 0 0 0 1 0 1 0 -1 0 0 3002.DAT\r\n",
      "1 4 -80 -56 8 0 0 0 -1 0 1 0 1 0 0 3032.DAT\r\n",
      "ans - 19 77\r\n",
      "1 0 -50 -24 399 0 0 -1 0 1 0 1 0 0  4084.DAT\r\n",
      "1 0 -50 -24 459 0 0 -1 0 1 0 1 0 0  4084.DAT\r\n",
      "1 1 546.666 -56  533.333 0 0 1 0 1 0 -1 0 0 3031.DAT\r\n",
      "1 0 -80 -48 31 0 -1 0 0 0 1 0 0 0 -1 3938.DAT\r\n",
      "1 0 -80 -48 46 0 0 0 1 0 1 0 -1 0 0 3020.DAT\r\n",
      "1 7 -50 -24 399 0 0 -1 0 1 0 1 0 0  4624.DAT\r\n",
      "1 7 -50 -24 459 0 0 -1 0 1 0 1 0 0  4624.DAT\r\n",
      "1 0 -110 -24 399 0 0 1 0 1 0 -1 0 0  4084.DAT\r\n",
      "1 0 -110 -24 459 0 0 1 0 1 0 -1 0 0  4084.DAT\r\n",
      "1 7 -110 -24 399 0 0 1 0 1 0 -1 0 0  4624.DAT\r\n",
      "1 7 -110 -24 459 0 0 1 0 1 0 -1 0 0  4624.DAT\r\n",
      "ining  Suite - 19",
      "1 0 20 -96 -10 1 0 0 0 1 0 0 0 1 36 24.DAT\r\n",
      "1 0 40 -176 210 1 0 0 0 1 0 0 0 1 36 25.DAT\r\n",
      "1 1 20 -72 - 10 1 0 0 0 1 0 0 0 1 973P26.DAT\r\n",
      "1 1 20 -40 -10 1 0 0 0 1 0 0 0 1 38 15.DAT\r\n",
      "1 4 300 -72 12 0 0 0 1 0 1 0 -1 0 0 795.DAT\r\n",
      "1 4 300 -72 20 0 0 0 1 0 1 0 -1 0 0 795.DAT\r\n",
      "1 0 -70 -48 51 0 0 0 -1 0 1 0 1 0 0 4081A.DAT\r\n",
      "1 0 -70 -32 9 0 0 0 -1 0 1 0 1 0 0 4081A.DAT\r\n",
      "1 0 -90 -48 51 0 0 0 1 0 1 0 -1 0 0 4081A.DAT\r\n",
      "1 0 -90 -32 9 0 0 0 1 0 1 0 -1 0 0 4081A.DAT\r\n",
      "1 1 280 -24 31 0 1 0 0 0 1 0 0 0 1 3004.DAT\r\n",
      "1 1 600 -56 8 60 1 0 0 0 1 0 0 0 1 3031.DAT\r\n",
      "ears ;\r\n",
      "eather -headg",
      "1 1 776.666 -56 673.333 0 0 1 0 1 0 -1 0 0 30 31.DAT\r\n",
      "1 4 546.666 -64 533.333 0 0 1 0 1 0 -1 0 0 30 68A.DAT\r\n",
      "1 1 440 -128  800 1 0 0 0 1 0 0 0 1 3010.DAT\r\n",
      "1 1 280 -80 330 -1 0 0 0 1 0 0 0 -1 30 39.DAT\r\n",
      "1 15 40 -48 - 10 0 0 1 0 1 0 -1 0 0 3002.DAT\r\n",
      "0 !LEOCAD MODEL DESCRIPTION 107 -  Canad",
      "er ac curacy\r\n",
      "issing  wigs and f",
      "1 4 440 -64 77 0 1 0 0 0 1 0 0 0 1 3068A.DAT\r\n",
      "1 4 70 -50 0 -1  0 0 0 0 1 0 1 0 3614.DAT\r\n",
      "1 4 40 -176 210 1 0 0 0 1 0 0 0 1 36 26A.DAT\r\n",
      "1 4 260 -72 12 0 0 0 -1 0 1 0 1 0 0 795.DAT\r\n",
      "1 4 260 -72 20 0 0 0 -1 0 1 0 1 0 0 795.DAT\r\n",
      "1 1 440 -56 77 0 1 0 0 0 1 0 0 0 1 3031.DAT\r\n",
      "1 15 590 -120 65 0 1 0 0 0 1 0 0 0 1 3068A.DAT\r\n",
      "1 15 -80 -160 529 -1 0 0 0 1 0 0 0 -1 30 23.DAT\r\n",
      "1 15 -80 -136 110 1 0 0 0 1 0 0 0 1 421 4.DAT\r\n",
      "1 15 -80 -168 239  0 0 1 0 1 0 -1 0 0 3032.DAT\r\n",
      "1 15 -80 -168 419  0 0 -1 0 1 0 1 0 0 3029.DAT\r\n",
      "1 1 516.666 -64 55 3.333 0 0 1 0 1 0 -1 0 0 3069A.DAT\r\n",
      "1 1 600 -104 680 1 0 0 0 1 0 0 0 1 3033 .DAT\r\n",
      "0 !LEOCAD GROUP BEGIN truck 1\r\n",
      "0 !LEOCAD GROUP BEGIN trai ler1\r\n",
      "1 47 520 -144  650 1 0 0 0 1 0 0 0 1 3062A.DAT\r\n",
      "1 47 530 -144  690 1 0 0 0 1 0 0 0 1 3062A.DAT\r\n",
      "1 15 -80 -64 300 0 0 -1 0 1 0 1 0 0 30 29.DAT\r\n",
      "1 4 -80 -64 0 1 0 0 0 1 0 0 0 1 37 88.DAT\r\n",
      "1 4 -80 -64 50 1 0 0 0 1 0 0 0 1 3829 C01.DAT\r\n",
      "0 !LEOCAD MODEL DESCRIPTION 215 -  Red Indi",
      "0 !LEOCAD MODEL DESCRIPTION 290 - D ining Suite - 19",
      "0 !LEOCAD MODEL COMMENT needs  revisio",
      "0 !LEOCAD MODEL COMMENT m issing wigs and f",
      "a Post  Truck - 1985\r\n",
      "n, needs bett er accuracy\r\n",
      "1 1 35.5 -64 -10 1 0.17 0 -0.17 1 0 0 0 1 38 19.DAT\r\n",
      "1 4 776.666 -64 673.333 0 0 1 0 1 0 -1 0 0 30 68A.DAT\r\n",
      "1 15 -120 -152 542  0 0 -1 0 1 0 1 0 0 3856.DAT\r\n",
      "1 1 4.5 -64 -10 1 -0.17 0 0.17 1 0 0 0 1 38 18.DAT\r\n",
      "1 14 43.658 -46.123 -20 1 0.12 -0.12 - 0.17 0.7 -0.7 0 0.7 0.7 3820.DAT\r\n",
      "1 7 -80 -88 -30 1 0 0 0 1 0 0 0 1 417 5.DAT\r\n",
      "eather-headg ears;\r\n",
      "0 !LEOCAD MODEL DESCRIPTION 107 - Canad a Post Truck - 1985\r\n",
      "0 !LEOCAD MODEL DESCRIPTION 215 - Red Indi ans - 1977\r\n",
      "0 !LEOCAD MODEL DESCRIPTION 290 - Dining Suite - 19 73\r\n",
      "0 !LEOCAD MODEL COMMENT needs revisio n, needs better accuracy\r\n",
      "0 !LEOCAD MODEL COMMENT missing wigs and f eather-headgears;\r\n"
    ]
  }
}