{
  "version": "1.0",
  "truncation": null,
  "padding": null,
  "added_tokens": [
    {
      "id": 0,
      "content": "[UNK]",
      "single_word": false,
      "lstrip": false,
      "rstrip": false,
      "normalized": false,
      "special": true
    },
    {
      "id": 1,
      "content": "[CLS]",
      "single_word": false,
      "lstrip": false,
      "rstrip": false,
      "normalized": false,
      "special": true
    },
    {
      "id": 2,
      "content": "[SEP]",
      "single_word": false,
      "lstrip": false,
      "rstrip": false,
      "normalized": false,
      "special": true
    },
    {
      "id": 3,
      "content": "[PAD]",
      "single_word": false,
      "lstrip": false,
      "rstrip": false,
      "normalized": false,
      "special": true
    },
    {
      "id": 4,
      "content": "[MASK]",
      "single_word": false,
      "lstrip": false,
      "rstrip": false,
      "normalized": false,
      "special": true
    }
  ],
  "normalizer": null,
  "pre_tokenizer": {
    "type": "Sequence",
    "pretokenizers": [
      {
        "type": "Split",
        "pattern": {
          "Regex": "(?i)[sdmt]|ll|ve|re|[^\\r\\n\\w]?+[a-zA-Z]+|\\d{1,3}|\\s?[^\\s\\w]++[\\r\\n]*|\\s*[\\r\\n]|\\s+(?!\\S)|\\s+"
        },
        "behavior": "Isolated",
        "invert": false
      },
      {
        "type": "ByteLevel",
        "add_prefix_space": false,
        "trim_offsets": true,
        "use_regex": false
      }
    ]
  },
  "post_processor": null,
  "decoder": null,
  "model": {
    "type": "BPE",
    "dropout": null,
    "unk_token": "[UNK]",
    "continuing_subword_prefix": null,
    "end_of_word_suffix": null,
    "fuse_unk": false,
    "byte_fallback": false,
    "ignore_merges": false,
    "vocab": {
      "[UNK]": 0,
      "[CLS]": 1,
      "[SEP]": 2,
      "[PAD]": 3,
      "[MASK]": 4,
      "!": 5,
      "%": 6,
      "'": 7,
      "(": 8,
      ")": 9,
      "-": 10,
      ".": 11,
      "0": 12,
      "1": 13,
      "2": 14,
      "3": 15,
      "4": 16,
      "5": 17,
      "6": 18,
      "7": 19,
      "8": 20,
      "9": 21,
      ":": 22,
      "A": 23,
      "B": 24,
      "C": 25,
      "D": 26,
      "E": 27,
      "F": 28,
      "G": 29,
      "H": 30,
      "I": 31,
      "J": 32,
      "K": 33,
      "L": 34,
      "M": 35,
      "N": 36,
      "O": 37,
      "P": 38,
      "Q": 39,
      "R": 40,
      "S": 41,
      "T": 42,
      "U": 43,
      "V": 44,
      "W": 45,
      "X": 46,
      "Y": 47,
      "Z": 48,
      "_": 49,
      "a": 50,
      "b": 51,
      "c": 52,
      "d": 53,
      "e": 54,
      "f": 55,
      "g": 56,
      "h": 57,
      "i": 58,
      "j": 59,
      "k": 60,
      "l": 61,
      "m": 62,
      "n": 63,
      "o": 64,
      "p": 65,
      "q": 66,
      "r": 67,
      "s": 68,
      "t": 69,
      "u": 70,
      "v": 71,
      "w": 72,
      "x": 73,
      "y": 74,
      "z": 75,
      "Ċ": 76,
      "Ġ": 77,
      "00": 78,
      "000": 79,
      "Ġ-": 80,
      "at": 81,
      "mp": 82,
      ".d": 83,
      "__": 84,
      ".dat": 85,
      ".mp": 86,
      ".mpd": 87,
      "in": 88,
      "or": 89,
      "ĠM": 90,
      "10": 91,
      "ĠA": 92,
      "ĠF": 93,
      "ĠL": 94,
      "ain": 95,
      "th": 96,
      "me": 97,
      "ĠN": 98,
      "ĠAu": 99,
      "ame": 100,
      "er": 101,
      "ĠMain": 102,
      "LE": 103,
      "ON": 104,
      "TR": 105,
      "ILE": 106,
      "ĠFILE": 107,
      "ĠLTR": 108,
      "thor": 109,
      "ĠName": 110,
      "ĠAuthor": 111,
      "ĠLTRON": 112,
      "30": 113,
      "20": 114,
      "40": 115,
      "70": 116,
      "ĠT": 117,
      "15": 118,
      "ĠC": 119,
      "60": 120,
      "19": 121,
      "80": 122,
      "ĠS": 123,
      "ĠB": 124,
      "14": 125,
      "99": 126,
      "24": 127,
      "16": 128,
      "an": 129,
      "71": 130,
      "50": 131,
      "102": 132,
      "ĠR": 133,
      "13": 134,
      "ĠH": 135,
      "ĠTr": 136,
      "72": 137,
      "12": 138,
      "ar": 139,
      "66": 140,
      "25": 141,
      "on": 142,
      "302": 143,
      "ck": 144,
      "78": 145,
      "90": 146,
      "420": 147,
      "18": 148,
      "28": 149,
      "ĠP": 150,
      "36": 151,
      "300": 152,
      "42": 153,
      "17": 154,
      "32": 155,
      "se": 156,
      "ol": 157,
      "48": 158,
      "ow": 159,
      "st": 160,
      "65": 161,
      "39": 162,
      "76": 163,
      "38": 164,
      "98": 165,
      "11": 166,
      "re": 167,
      "al": 168,
      "100": 169,
      "ĠHo": 170,
      "707": 171,
      "ĠSt": 172,
      "le": 173,
      "43": 174,
      "75": 175,
      "ed": 176,
      "56": 177,
      "en": 178,
      "ig": 179,
      "ĠD": 180,
      "ĠG": 181,
      "et": 182,
      "26": 183,
      "44": 184,
      "500": 185,
      "uck": 186,
      "79": 187,
      "88": 188,
      "210": 189,
      "23": 190,
      "ing": 191,
      "101": 192,
      "ĠE": 193,
      "ac": 194,
      "120": 195,
      "el": 196,
      "46": 197,
      "ro": 198,
      "58": 199,
      "ĠU": 200,
      "ĠTruck": 201,
      "ad": 202,
      "74": 203,
      "29": 204,
      "ĠHou": 205,
      "ter": 206,
      "ĠV": 207,
      "ĠHouse": 208,
      "ic": 209,
      "ĠTow": 210,
      "he": 211,
      "54": 212,
      "866": 213,
      "ĠCr": 214,
      "52": 215,
      "64": 216,
      "320": 217,
      "id": 218,
      "110": 219,
      "160": 220,
      "73": 221,
      "150": 222,
      "ion": 223,
      "33": 224,
      "ĠI": 225,
      "igh": 226,
      "96": 227,
      "140": 228,
      "213": 229,
      "53": 230,
      "22": 231,
      "ĠO": 232,
      "ĠRo": 233,
      "310": 234,
      "200": 235,
      "49": 236,
      "278": 237,
      "ler": 238,
      "68": 239,
      "ge": 240,
      "ane": 241,
      "55": 242,
      "ĠCo": 243,
      "ĠBr": 244,
      "130": 245,
      "27": 246,
      "59": 247,
      "and": 248,
      "999": 249,
      "op": 250,
      "69": 251,
      "ster": 252,
      "421": 253,
      "08": 254,
      "ĠStar": 255,
      "tr": 256,
      "ĠEx": 257,
      "77": 258,
      "ld": 259,
      "it": 260,
      "303": 261,
      "34": 262,
      "es": 263,
      "180": 264,
      "all": 265,
      "um": 266,
      "iv": 267,
      "ĠCrane": 268,
      "21": 269,
      "ĠW": 270,
      "ĠBu": 271,
      "35": 272,
      "600": 273,
      "ff": 274,
      "sse": 275,
      "ĠTra": 276,
      "ith": 277,
      "240": 278,
      "84": 279,
      "un": 280,
      "170": 281,
      "190": 282,
      "ĠTower": 283,
      "800": 284,
      "ĠLo": 285,
      "ĠVol": 286,
      "err": 287,
      "ĠSh": 288,
      "51": 289,
      "655": 290,
      "366": 291,
      "CS": 292,
      "ĠUCS": 293,
      "306": 294,
      "371": 295,
      "362": 296,
      "614": 297,
      "ĠMo": 298,
      "sp": 299,
      "325": 300,
      "olo": 301,
      "ĠDe": 302,
      "83": 303,
      "ation": 304,
      "ighter": 305,
      "ay": 306,
      "ur": 307,
      "mo": 308,
      "112": 309,
      "220": 310,
      "ort": 311,
      "400": 312,
      "ĠRac": 313,
      "ack": 314,
      "with": 315,
      "idge": 316,
      "ĠBridge": 317,
      "280": 318,
      "47": 319,
      "ĠCar": 320,
      "ĠUn": 321,
      "41": 322,
      "ĠColo": 323,
      "sseum": 324,
      "ĠColosseum": 325,
      "370": 326,
      "ile": 327,
      "82": 328,
      "996": 329,
      "ĠBen": 330,
      "ul": 331,
      "ire": 332,
      "301": 333,
      "ced": 334,
      "che": 335,
      "57": 336,
      "ĠThe": 337,
      "tor": 338,
      "ĠRe": 339,
      "ini": 340,
      "Ġwith": 341,
      "is": 342,
      "as": 343,
      "379": 344,
      "ĠBl": 345,
      "61": 346,
      "37": 347,
      "ĠTre": 348,
      "09": 349,
      "260": 350,
      "104": 351,
      "av": 352,
      "ĠSp": 353,
      "230": 354,
      "way": 355,
      "107": 356,
      "ut": 357,
      "ĠCon": 358,
      "ĠOff": 359,
      "259": 360,
      "bile": 361,
      "ĠBo": 362,
      "roc": 363,
      "ick": 364,
      "62": 365,
      "eri": 366,
      "250": 367,
      "31": 368,
      "ie": 369,
      "tron": 370,
      "ĠVoltron": 371,
      "ĠTrain": 372,
      "ĠCa": 373,
      "ĠTree": 374,
      "128": 375,
      "ers": 376,
      "ower": 377,
      "89": 378,
      "270": 379,
      "erial": 380,
      "ĠFire": 381,
      "ĠTown": 382,
      "ĠJ": 383,
      "ĠCor": 384,
      "087": 385,
      "ĠX": 386,
      "ĠPl": 387,
      "198": 388,
      "144": 389,
      "242": 390,
      "ord": 391,
      "416": 392,
      "ner": 393,
      "mperial": 394,
      "ĠImperial": 395,
      "ader": 396,
      "966": 397,
      "opter": 398,
      "340": 399,
      "ĠMini": 400,
      "elic": 401,
      "am": 402,
      "ver": 403,
      "360": 404,
      "430": 405,
      "290": 406,
      "ĠCh": 407,
      "elicopter": 408,
      "45": 409,
      "304": 410,
      "ĠHelicopter": 411,
      "ct": 412,
      "998": 413,
      "152": 414,
      "272": 415,
      "243": 416,
      "gh": 417,
      "ĠBig": 418,
      "06": 419,
      "ĠBat": 420,
      "il": 421,
      "ĠPower": 422,
      "ild": 423,
      "ive": 424,
      "ir": 425,
      "ĠTrac": 426,
      "ĠIn": 427,
      "tain": 428,
      "136": 429,
      "324": 430,
      "992": 431,
      "ĠTran": 432,
      "750": 433,
      "819": 434,
      "eed": 435,
      "ch": 436,
      "ĠMer": 437,
      "cedes": 438,
      "ĠMercedes": 439,
      "168": 440,
      "93": 441,
      "ĠCom": 442,
      "ĠAd": 443,
      "997": 444,
      "960": 445,
      "age": 446,
      "ue": 447,
      "ĠStarf": 448,
      "ĠStarfighter": 449,
      "981": 450,
      "ĠAdv": 451,
      "ĠExc": 452,
      "-w": 453,
      "440": 454,
      "ĠHigh": 455,
      "208": 456,
      "ĠBuild": 457,
      "ag": 458,
      "911": 459,
      "-wing": 460,
      "ice": 461,
      "ĠY": 462,
      "ĠTransp": 463,
      "604": 464,
      "980": 465,
      "939": 466,
      "ine": 467,
      "321": 468,
      "67": 469,
      "ĠExp": 470,
      "ĠSe": 471,
      "ĠFl": 472,
      "ĠStation": 473,
      "288": 474,
      "ade": 475,
      "art": 476,
      "mobile": 477,
      "176": 478,
      "382": 479,
      "ator": 480,
      "ĠSn": 481,
      "407": 482,
      "ĠTransport": 483,
      "97": 484,
      "ĠAn": 485,
      "ĠHighway": 486,
      "ited": 487,
      "81": 488,
      "ang": 489,
      "bo": 490,
      "241": 491,
      "85": 492,
      "sche": 493,
      "orsche": 494,
      "ĠPorsche": 495,
      "380": 496,
      "330": 497,
      "ĠSnow": 498,
      "ent": 499,
      "870": 500,
      "errain": 501,
      "ard": 502,
      "-W": 503,
      "del": 504,
      "92": 505,
      "390": 506,
      "589": 507,
      "ĠCorner": 508,
      "017": 509,
      "495": 510,
      "ĠRacer": 511,
      "yer": 512,
      "Ġand": 513,
      "up": 514,
      "ĠMa": 515,
      "ĠUnited": 516,
      "ĠRol": 517,
      "ĠBatmobile": 518,
      "63": 519,
      "383": 520,
      "751": 521,
      "em": 522,
      "403": 523,
      "ĠTerrain": 524,
      "923": 525,
      "bb": 526,
      "ĠHobb": 527,
      "-Wing": 528,
      "ĠHobby": 529,
      "ce": 530,
      "ĠMan": 531,
      "880": 532,
      "155": 533,
      "ĠRoad": 534,
      "ĠTractor": 535,
      "iler": 536,
      "ĠFighter": 537,
      "aw": 538,
      "196": 539,
      "258": 540,
      "900": 541,
      "129": 542,
      "ĠRace": 543,
      "ĠStat": 544,
      "ĠCoa": 545,
      "ĠAroc": 546,
      "ĠBenz": 547,
      "ĠArocs": 548,
      "iz": 549,
      "638": 550,
      "ĠTrailer": 551,
      "avator": 552,
      "ĠExcavator": 553,
      "346": 554,
      "ĠAir": 555,
      "480": 556,
      "der": 557,
      "bel": 558,
      "ĠRebel": 559,
      "ĠJet": 560,
      "216": 561,
      "279": 562,
      "'s": 563,
      "ace": 564,
      "322": 565,
      "ĠAp": 566,
      "95": 567,
      "488": 568,
      "co": 569,
      "87": 570,
      "ib": 571,
      "ĠPlane": 572,
      "350": 573,
      "427": 574,
      "stro": 575,
      "ĠRoller": 576,
      "ĠCoaster": 577,
      "499": 578,
      "184": 579,
      "ĠDestro": 580,
      "ĠDestroyer": 581,
      "984": 582,
      "of": 583,
      "tre": 584,
      "tle": 585,
      "treme": 586,
      "191": 587,
      "114": 588,
      "367": 589,
      "ĠBlack": 590,
      "ons": 591,
      "ok": 592,
      "192": 593,
      "759": 594,
      "ĠLand": 595,
      "003": 596,
      "ĠStre": 597,
      "174": 598,
      "ĠAut": 599,
      "road": 600,
      "ĠCru": 601,
      "07": 602,
      "052": 603,
      "404": 604,
      "heel": 605,
      "94": 606,
      "698": 607,
      "761": 608,
      "ĠHall": 609,
      "447": 610,
      "ĠDu": 611,
      "ĠStreet": 612,
      "Ġof": 613,
      "ĠOld": 614,
      "fford": 615,
      "ĠTrafford": 616,
      "chester": 617,
      "ĠManchester": 618,
      "195": 619,
      "ĠShut": 620,
      "ĠShuttle": 621,
      "139": 622,
      "560": 623,
      "ĠSpace": 624,
      "ĠPick": 625,
      "675": 626,
      "ĠCl": 627,
      "ĠBrick": 628,
      "ĠII": 629,
      "sters": 630,
      "410": 631,
      "ĠRS": 632,
      "ĠLog": 633,
      "ĠCraw": 634,
      "ĠCrawler": 635,
      "sh": 636,
      "ust": 637,
      "574": 638,
      "eeder": 639,
      "ĠGre": 640,
      "620": 641,
      "ure": 642,
      "ĠAr": 643,
      "ank": 644,
      "03": 645,
      "924": 646,
      "122": 647,
      "030": 648,
      "ss": 649,
      "108": 650,
      "ple": 651,
      "816": 652,
      "106": 653,
      "520": 654,
      "ĠWheel": 655,
      "ity": 656,
      "965": 657,
      "885": 658,
      "rol": 659,
      "700": 660,
      "ĠBuilding": 661,
      "te": 662,
      "ĠMack": 663,
      "them": 664,
      "ĠAnthem": 665,
      "163": 666,
      "710": 667,
      "ock": 668,
      "ĠCen": 669,
      "040": 670,
      "179": 671,
      "bin": 672,
      "408": 673,
      "ĠCool": 674,
      "ĠOffroad": 675,
      "450": 676,
      "342": 677,
      "ĠExtreme": 678,
      "368": 679,
      "752": 680,
      "ide": 681,
      "ĠLoader": 682,
      "323": 683,
      "987": 684,
      "428": 685,
      "308": 686,
      "ft": 687,
      "ight": 688,
      "-M": 689,
      "tic": 690,
      "940": 691,
      "port": 692,
      "ugh": 693,
      "ĠBe": 694,
      "ell": 695,
      "193": 696,
      "ĠAdvent": 697,
      "580": 698,
      "113": 699,
      "119": 700,
      "224": 701,
      "ĠRough": 702,
      "460": 703,
      "ĠInter": 704,
      "02": 705,
      "ath": 706,
      "287": 707,
      "iser": 708,
      "ĠCruiser": 709,
      "ĠBuck": 710,
      "ĠDeath": 711,
      "605": 712,
      "86": 713,
      "374": 714,
      "978": 715,
      "ĠSk": 716,
      "speeder": 717,
      "ĠSnowspeeder": 718,
      "001": 719,
      "ond": 720,
      "132": 721,
      "umn": 722,
      "ĠAutumn": 723,
      "01": 724,
      "123": 725,
      "91": 726,
      "951": 727,
      "ĠGar": 728,
      "qu": 729,
      "990": 730,
      "ĠFerr": 731,
      "ian": 732,
      "ĠAdventure": 733,
      "162": 734,
      "ng": 735,
      "609": 736,
      "ally": 737,
      "ĠShop": 738,
      "124": 739,
      "653": 740,
      "ari": 741,
      "118": 742,
      "fe": 743,
      "489": 744,
      "116": 745,
      "307": 746,
      "105": 747,
      "393": 748,
      "ĠFerrari": 749,
      "untain": 750,
      "019": 751,
      "235": 752,
      "ctr": 753,
      "148": 754,
      "bh": 755,
      "ĠLie": 756,
      "bherr": 757,
      "ĠLiebherr": 758,
      "186": 759,
      "ind": 760,
      "454": 761,
      "683": 762,
      "ĠFor": 763,
      "ail": 764,
      "ĠBucket": 765,
      "570": 766,
      "ke": 767,
      "378": 768,
      "igade": 769,
      "ĠBrigade": 770,
      "ĠCafe": 771,
      "ĠFlat": 772,
      "ĠGarage": 773,
      "245": 774,
      "147": 775,
      "ĠHar": 776,
      "ĠRes": 777,
      "IE": 778,
      "ĠTIE": 779,
      "ĠRally": 780,
      "982": 781,
      "ĠSup": 782,
      "ĠMet": 783,
      "ru": 784,
      "178": 785,
      "680": 786,
      "156": 787,
      "256": 788,
      "134": 789,
      "151": 790,
      "993": 791,
      "tainer": 792,
      "lectr": 793,
      "146": 794,
      "284": 795,
      "-S": 796,
      "312": 797,
      "ĠDump": 798,
      "760": 799,
      "ater": 800,
      "608": 801,
      "ĠMust": 802,
      "ĠFord": 803,
      "ĠMobile": 804,
      "ĠMustang": 805,
      "248": 806,
      "244": 807,
      "ĠPar": 808,
      "mand": 809,
      "542": 810,
      "ĠSm": 811,
      "985": 812,
      "125": 813,
      "490": 814,
      "aur": 815,
      "173": 816,
      "950": 817,
      "vo": 818,
      "ĠContainer": 819,
      "567": 820,
      "om": 821,
      "433": 822,
      "415": 823,
      "amb": 824,
      "lor": 825,
      "ĠExplor": 826,
      "ĠExplorer": 827,
      "ĠAT": 828,
      "025": 829,
      "ĠVolvo": 830,
      "232": 831,
      "stru": 832,
      "struct": 833,
      "ĠCre": 834,
      "ĠCommand": 835,
      "Ġ%": 836,
      "ĠGr": 837,
      "576": 838,
      "121": 839,
      "246": 840,
      "ress": 841,
      "ĠState": 842,
      "640": 843,
      "470": 844,
      "296": 845,
      "ĠMar": 846,
      "ach": 847,
      "010": 848,
      "352": 849,
      "654": 850,
      "mot": 851,
      "530": 852,
      "ĠAl": 853,
      "720": 854,
      "126": 855,
      "ĠLion": 856,
      "ill": 857,
      "bed": 858,
      "ĠFlatbed": 859,
      "ible": 860,
      "111": 861,
      "449": 862,
      "anced": 863,
      "ĠAdvanced": 864,
      "au": 865,
      "odel": 866,
      "-Model": 867,
      "329": 868,
      "asse": 869,
      "ĠPasse": 870,
      "nger": 871,
      "ĠPassenger": 872,
      "ĠLions": 873,
      "597": 874,
      ".ld": 875,
      "ivers": 876,
      "ĠUnivers": 877,
      ".ldr": 878,
      "ĠUniversal": 879,
      "643": 880,
      "tt": 881,
      "674": 882,
      "ĠSmall": 883,
      "806": 884,
      "ĠHot": 885,
      "886": 886,
      "540": 887,
      "109": 888,
      "660": 889,
      "070": 890,
      "eg": 891,
      "ĠPro": 892,
      "ert": 893,
      "663": 894,
      "ĠSet": 895,
      "est": 896,
      "arth": 897,
      "ĠDarth": 898,
      "ĠMaul": 899,
      "305": 900,
      "tible": 901,
      "ĠConver": 902,
      "ĠConvertible": 903,
      "456": 904,
      "766": 905,
      "164": 906,
      "172": 907,
      "shop": 908,
      "ĠGT": 909,
      "ĠSi": 910,
      "ĠBank": 911,
      "455": 912,
      "336": 913,
      "994": 914,
      "per": 915,
      "624": 916,
      "799": 917,
      "ĠGroc": 918,
      "ĠGreen": 919,
      "ĠGrocer": 920,
      "774": 921,
      "763": 922,
      "ant": 923,
      "ĠHe": 924,
      "ĠProp": 925,
      "443": 926,
      "AS": 927,
      "ĠSuper": 928,
      "sons": 929,
      "mpsons": 930,
      "ĠSimpsons": 931,
      "648": 932,
      "ĠMed": 933,
      "ĠOffice": 934,
      "811": 935,
      "ĠBook": 936,
      "ĠBookshop": 937,
      "616": 938,
      "154": 939,
      "Ġin": 940,
      "orgh": 941,
      "ĠLamb": 942,
      "138": 943,
      "own": 944,
      "staur": 945,
      "ĠGall": 946,
      "ĠMountain": 947,
      "ĠRestaur": 948,
      "isian": 949,
      "ardo": 950,
      "ĠParisian": 951,
      "orghini": 952,
      "ĠLamborghini": 953,
      "ĠGallardo": 954,
      "ĠRestaurant": 955,
      "115": 956,
      "444": 957,
      "264": 958,
      "309": 959,
      "815": 960,
      "043": 961,
      "ĠPlan": 962,
      "142": 963,
      "gw": 964,
      "ĠHogw": 965,
      "ĠDr": 966,
      "arts": 967,
      "ĠHogwarts": 968,
      "958": 969,
      "ĠK": 970,
      "ĠPol": 971,
      "695": 972,
      "ĠCenter": 973,
      "-R": 974,
      "-Ro": 975,
      "ĠPolice": 976,
      "Ġx": 977,
      "158": 978,
      "05": 979,
      "827": 980,
      "ĠTrack": 981,
      "550": 982,
      "970": 983,
      "ĠDet": 984,
      "ĠDete": 985,
      "ĠMon": 986,
      "od": 987,
      "ĠGal": 988,
      "ĠRover": 989,
      "ives": 990,
      "lectric": 991,
      "ĠCombin": 992,
      "ĠExpress": 993,
      "ĠCombination": 994,
      "159": 995,
      "412": 996,
      "610": 997,
      "825": 998,
      "103": 999,
      "417": 1000,
      "comot": 1001,
      "comotive": 1002,
      "884": 1003,
      "669": 1004,
      "ĠPet": 1005,
      "177": 1006,
      "394": 1007,
      "389": 1008,
      "ĠBlock": 1009,
      "318": 1010,
      "598": 1011,
      "734": 1012,
      "ĠAirport": 1013,
      "254": 1014,
      "510": 1015,
      "577": 1016,
      "474": 1017,
      "035": 1018,
      "ĠSqu": 1019,
      "135": 1020,
      "253": 1021,
      "ctives": 1022,
      "ĠDetectives": 1023,
      "057": 1024,
      "637": 1025,
      "ear": 1026,
      "lo": 1027,
      "292": 1028,
      "cue": 1029,
      "ĠRescue": 1030,
      "808": 1031,
      "ix": 1032,
      "ven": 1033,
      "028": 1034,
      "933": 1035,
      "ase": 1036,
      "445": 1037,
      "639": 1038,
      "974": 1039,
      "448": 1040,
      "344": 1041,
      "464": 1042,
      "021": 1043,
      "ĠModel": 1044,
      "484": 1045,
      "328": 1046,
      "989": 1047,
      "side": 1048,
      "602": 1049,
      "601": 1050,
      "127": 1051,
      "ĠLocomotive": 1052,
      "930": 1053,
      "219": 1054,
      "ĠSat": 1055,
      "stle": 1056,
      "ĠCastle": 1057,
      "mer": 1058,
      "ĠCity": 1059,
      "struction": 1060,
      "ĠRail": 1061,
      "icle": 1062,
      "419": 1063,
      "ĠApple": 1064,
      "002": 1065,
      "189": 1066,
      "171": 1067,
      "ĠFr": 1068,
      "781": 1069,
      "man": 1070,
      "149": 1071,
      "165": 1072,
      "875": 1073,
      "402": 1074,
      "ĠLine": 1075,
      "406": 1076,
      "-B": 1077,
      "891": 1078,
      "212": 1079,
      "860": 1080,
      "414": 1081,
      "ĠHau": 1082,
      "urn": 1083,
      "ĠSaturn": 1084,
      "ĠHauler": 1085,
      "719": 1086,
      "ĠRobo": 1087,
      "117": 1088,
      "809": 1089,
      "688": 1090,
      "255": 1091,
      "iner": 1092,
      "ift": 1093,
      "166": 1094,
      "339": 1095,
      "758": 1096,
      "197": 1097,
      "395": 1098,
      "oper": 1099,
      "814": 1100,
      "483": 1101,
      "956": 1102,
      "ized": 1103,
      "376": 1104,
      "188": 1105,
      "906": 1106,
      "ĠBus": 1107,
      "012": 1108,
      "aring": 1109,
      "ĠRoaring": 1110,
      "ĠRoadsters": 1111,
      "920": 1112,
      "ĠBusters": 1113,
      "732": 1114,
      "for": 1115,
      "ai": 1116,
      "ĠRun": 1117,
      "ike": 1118,
      "182": 1119,
      "ĠStatue": 1120,
      "883": 1121,
      "358": 1122,
      "ĠVe": 1123,
      "157": 1124,
      "mith": 1125,
      "smith": 1126,
      "656": 1127,
      "ĠBlacksmith": 1128,
      "659": 1129,
      "ĠNAS": 1130,
      "ollo": 1131,
      "ĠApollo": 1132,
      "ĠNASA": 1133,
      "ĠRunner": 1134,
      "225": 1135,
      "214": 1136,
      "us": 1137,
      "ĠBlockade": 1138,
      "ated": 1139,
      "ulated": 1140,
      "ĠArtic": 1141,
      "ĠArticulated": 1142,
      "zer": 1143,
      "sel": 1144,
      "ĠDie": 1145,
      "ĠDiesel": 1146,
      "828": 1147,
      "hicle": 1148,
      "ĠLond": 1149,
      "ĠBlue": 1150,
      "ĠVehicle": 1151,
      "ĠLondon": 1152,
      "141": 1153,
      "roliner": 1154,
      "ĠMetroliner": 1155,
      "599": 1156,
      "590": 1157,
      "ĠLa": 1158,
      "-D": 1159,
      "ersk": 1160,
      "ĠMaersk": 1161,
      "262": 1162,
      "661": 1163,
      "fen": 1164,
      "ĠDefen": 1165,
      "avy": 1166,
      "ĠHeavy": 1167,
      "ĠDefender": 1168,
      "925": 1169,
      "ozer": 1170,
      "509": 1171,
      "137": 1172,
      "val": 1173,
      "ieval": 1174,
      "ĠMedieval": 1175,
      "072": 1176,
      "ho": 1177,
      "-E": 1178,
      "545": 1179,
      "145": 1180,
      "554": 1181,
      "ĠAll": 1182,
      "650": 1183,
      "ĠPickup": 1184,
      "820": 1185,
      "297": 1186,
      "426": 1187,
      "167": 1188,
      "585": 1189,
      "201": 1190,
      "813": 1191,
      "234": 1192,
      "914": 1193,
      "041": 1194,
      "690": 1195,
      "401": 1196,
      "143": 1197,
      "ĠEn": 1198,
      "pl": 1199,
      "204": 1200,
      "086": 1201,
      "169": 1202,
      "133": 1203,
      "mpire": 1204,
      "ĠEmpire": 1205,
      "238": 1206,
      "392": 1207,
      "986": 1208,
      "967": 1209,
      "020": 1210,
      "ĠRed": 1211,
      "ition": 1212,
      "ĠLib": 1213,
      "ĠTri": 1214,
      "erty": 1215,
      "ĠLiberty": 1216,
      "199": 1217,
      "882": 1218,
      "778": 1219,
      "268": 1220,
      "dition": 1221,
      "ra": 1222,
      "ĠEdition": 1223,
      "ĠSea": 1224,
      "ĠHor": 1225,
      "647": 1226,
      "424": 1227,
      "161": 1228,
      "unch": 1229,
      "840": 1230,
      "ĠTriple": 1231,
      "236": 1232,
      "678": 1233,
      "ĠPr": 1234,
      "926": 1235,
      "432": 1236,
      "094": 1237,
      "995": 1238,
      "men": 1239,
      "131": 1240,
      "265": 1241,
      "354": 1242,
      "872": 1243,
      "ĠOce": 1244,
      "ĠOcean": 1245,
      "384": 1246,
      "850": 1247,
      "175": 1248,
      "228": 1249,
      "846": 1250,
      "276": 1251,
      "orm": 1252,
      "229": 1253,
      "207": 1254,
      "ars": 1255,
      "313": 1256,
      "ĠTur": 1257,
      "ĠRig": 1258,
      "331": 1259,
      "365": 1260,
      "784": 1261,
      "ĠBeach": 1262,
      "391": 1263,
      "976": 1264,
      "948": 1265,
      "ph": 1266,
      "ub": 1267,
      "718": 1268,
      "ĠMotor": 1269,
      "ĠRobot": 1270,
      "635": 1271,
      "676": 1272,
      "gy": 1273,
      "imo": 1274,
      "enz": 1275,
      "ĠUnimo": 1276,
      "ĠCrew": 1277,
      "-Benz": 1278,
      "ĠUnimog": 1279,
      "153": 1280,
      "ĠHut": 1281,
      "ve": 1282,
      "473": 1283,
      "ast": 1284,
      "ider": 1285,
      "844": 1286,
      "187": 1287,
      "266": 1288,
      "ĠMart": 1289,
      "ĠBase": 1290,
      "056": 1291,
      "206": 1292,
      "-e": 1293,
      "496": 1294,
      "ĠTh": 1295,
      "-electric": 1296,
      "217": 1297,
      "359": 1298,
      "aas": 1299,
      "dul": 1300,
      "erion": 1301,
      "ĠVC": 1302,
      "ĠModul": 1303,
      "ĠXerion": 1304,
      "ĠClaas": 1305,
      "ĠModulars": 1306,
      "740": 1307,
      "754": 1308,
      "252": 1309,
      "ĠPo": 1310,
      "606": 1311,
      "947": 1312,
      "actic": 1313,
      "552": 1314,
      "ĠFive": 1315,
      "607": 1316,
      "459": 1317,
      "865": 1318,
      "ham": 1319,
      "ĠCater": 1320,
      "ĠSeven": 1321,
      "ĠCaterham": 1322,
      "823": 1323,
      "372": 1324,
      "194": 1325,
      "852": 1326,
      "630": 1327,
      "185": 1328,
      "cre": 1329,
      "364": 1330,
      "ĠHouses": 1331,
      "ash": 1332,
      "ĠGalactic": 1333,
      "ĠRSR": 1334,
      "830": 1335,
      "692": 1336,
      "361": 1337,
      "227": 1338,
      "699": 1339,
      "528": 1340,
      "453": 1341,
      "ĠCent": 1342,
      "472": 1343,
      "628": 1344,
      "ĠAtt": 1345,
      "681": 1346,
      "ĠAttack": 1347,
      "485": 1348,
      "ggy": 1349,
      "ĠBuggy": 1350,
      "ĠSky": 1351,
      "183": 1352,
      "316": 1353,
      "bine": 1354,
      "859": 1355,
      "218": 1356,
      "641": 1357,
      "ye": 1358,
      "007": 1359,
      "988": 1360,
      "tral": 1361,
      "311": 1362,
      "eing": 1363,
      "ĠBell": 1364,
      "rey": 1365,
      "ĠOsp": 1366,
      "ĠBoeing": 1367,
      "ĠOsprey": 1368,
      "662": 1369,
      "423": 1370,
      "233": 1371,
      "ĠNe": 1372,
      "cer": 1373,
      "491": 1374,
      "326": 1375,
      "438": 1376,
      "ĠGear": 1377,
      "inders": 1378,
      "ĠCommander": 1379,
      "ĠGrinders": 1380,
      "612": 1381,
      "bre": 1382,
      "erbre": 1383,
      "ĠGing": 1384,
      "erbread": 1385,
      "ĠGingerbread": 1386,
      "386": 1387,
      "818": 1388,
      "ĠGreat": 1389,
      "226": 1390,
      "285": 1391,
      "ĠBul": 1392,
      "ment": 1393,
      "437": 1394,
      "888": 1395,
      "ĠAmer": 1396,
      "ĠAmeric": 1397,
      "356": 1398,
      "222": 1399,
      "385": 1400,
      "211": 1401,
      "876": 1402,
      "239": 1403,
      "EG": 1404,
      "ĠLEG": 1405,
      "ĠLEGO": 1406,
      "479": 1407,
      "282": 1408,
      "396": 1409,
      "EK": 1410,
      "ĠHotel": 1411,
      "375": 1412,
      "ĠDrag": 1413,
      "ĠSpeed": 1414,
      "782": 1415,
      "rs": 1416,
      "ĠMark": 1417,
      "ĠTw": 1418,
      "su": 1419,
      "ĠMix": 1420,
      "ĠFre": 1421,
      "ĠMixer": 1422,
      "693": 1423,
      "334": 1424,
      "780": 1425,
      "izon": 1426,
      "ĠHorizon": 1427,
      "979": 1428,
      "ĠChal": 1429,
      "559": 1430,
      "812": 1431,
      "ĠAst": 1432,
      "ames": 1433,
      "ĠBond": 1434,
      "422": 1435,
      "ĠDB": 1436,
      "ĠJames": 1437,
      "ĠMartin": 1438,
      "ĠAstin": 1439,
      "319": 1440,
      "082": 1441,
      "ĠHol": 1442,
      "iday": 1443,
      "ĠHoliday": 1444,
      "015": 1445,
      "936": 1446,
      "lus": 1447,
      "ĠExclus": 1448,
      "ĠExclusive": 1449,
      "689": 1450,
      "670": 1451,
      "434": 1452,
      "493": 1453,
      "cep": 1454,
      "ĠIntercep": 1455,
      "633": 1456,
      "694": 1457,
      "ĠTwin": 1458,
      "ĠCentral": 1459,
      "ĠCroc": 1460,
      "odile": 1461,
      "ĠCrocodile": 1462,
      "913": 1463,
      "cra": 1464,
      "craft": 1465,
      "465": 1466,
      "518": 1467,
      "ip": 1468,
      "267": 1469,
      "273": 1470,
      "ĠZ": 1471,
      "932": 1472,
      "418": 1473,
      "929": 1474,
      "627": 1475,
      "ĠLift": 1476,
      "469": 1477,
      "ĠInstruction": 1478,
      "nge": 1479,
      "ĠLaunch": 1480,
      "973": 1481,
      "458": 1482,
      "708": 1483,
      "031": 1484,
      "181": 1485,
      "223": 1486,
      "333": 1487,
      "953": 1488,
      "353": 1489,
      "ri": 1490,
      "712": 1491,
      "lenge": 1492,
      "ĠChallenge": 1493,
      "cy": 1494,
      "po": 1495,
      "961": 1496,
      "523": 1497,
      "623": 1498,
      "ep": 1499,
      "ĠFreight": 1500,
      "634": 1501,
      "are": 1502,
      "512": 1503,
      "eam": 1504,
      "785": 1505,
      "ĠRod": 1506,
      "611": 1507,
      "531": 1508,
      "743": 1509,
      "952": 1510,
      "202": 1511,
      "ina": 1512,
      "-ST": 1513,
      "742": 1514,
      "-A": 1515,
      "arg": 1516,
      "373": 1517,
      "237": 1518,
      "ĠPat": 1519,
      "ldozer": 1520,
      "unt": 1521,
      "ĠBulldozer": 1522,
      "271": 1523,
      "927": 1524,
      "ĠVader": 1525,
      "ĠCabin": 1526,
      "755": 1527,
      "568": 1528,
      "ĠGas": 1529,
      "615": 1530,
      "646": 1531,
      "281": 1532,
      "ĠTarg": 1533,
      "ĠTarga": 1534,
      "215": 1535,
      "ks": 1536,
      "wag": 1537,
      "ĠCro": 1538,
      "etle": 1539,
      "ĠVolks": 1540,
      "ĠBeetle": 1541,
      "wagen": 1542,
      "ĠVolkswagen": 1543,
      "ĠTank": 1544,
      "507": 1545,
      "668": 1546,
      "636": 1547,
      "919": 1548,
      "283": 1549,
      "ate": 1550,
      "788": 1551,
      "261": 1552,
      "ĠSen": 1553,
      "060": 1554,
      "511": 1555,
      "ĠGo": 1556,
      "036": 1557,
      "864": 1558,
      "ite": 1559,
      "341": 1560,
      "ging": 1561,
      "ls": 1562,
      "ĠLogging": 1563,
      "ĠMarket": 1564,
      "773": 1565,
      "810": 1566,
      "804": 1567,
      "363": 1568,
      "492": 1569,
      "696": 1570,
      "008": 1571,
      "664": 1572,
      "ĠDro": 1573,
      "ĠDroid": 1574,
      "088": 1575,
      "501": 1576,
      "274": 1577,
      "515": 1578,
      "486": 1579,
      "006": 1580,
      "849": 1581,
      "764": 1582,
      "ley": 1583,
      "716": 1584,
      "ĠHarve": 1585,
      "ĠHarvester": 1586,
      "737": 1587,
      "867": 1588,
      "551": 1589,
      "332": 1590,
      "209": 1591,
      "ĠBike": 1592,
      "544": 1593,
      "af": 1594,
      "ĠHover": 1595,
      "ĠSkul": 1596,
      "forcer": 1597,
      "ĠEnforcer": 1598,
      "ĠHovercraft": 1599,
      "04": 1600,
      "ĠCat": 1601,
      "ĠRoadster": 1602,
      "702": 1603,
      "249": 1604,
      "im": 1605,
      "277": 1606,
      "-AT": 1607,
      "cle": 1608,
      "787": 1609,
      "269": 1610,
      "409": 1611,
      "724": 1612,
      "890": 1613,
      "fro": 1614,
      "Ġfro": 1615,
      "705": 1616,
      "ĠSolo": 1617,
      "ĠTracked": 1618,
      "Ġfrom": 1619,
      "ĠCooper": 1620,
      "667": 1621,
      "ab": 1622,
      "536": 1623,
      "772": 1624,
      "869": 1625,
      "205": 1626,
      "ĠUl": 1627,
      "ĠWag": 1628,
      "858": 1629,
      "Mw": 1630,
      "ĠSnowpl": 1631,
      "ĠSnowplow": 1632,
      "050": 1633,
      "City": 1634,
      "991": 1635,
      "ĠRock": 1636,
      "ĠTurbo": 1637,
      "971": 1638,
      "203": 1639,
      "080": 1640,
      "221": 1641,
      "768": 1642,
      "790": 1643,
      "431": 1644,
      "ĠMetro": 1645,
      "066": 1646,
      "za": 1647,
      "ĠFort": 1648,
      "trol": 1649,
      "fal": 1650,
      "gar": 1651,
      "ĠTrafal": 1652,
      "ĠSquare": 1653,
      "ĠTrafalgar": 1654,
      "-U": 1655,
      "-Up": 1656,
      "770": 1657,
      "081": 1658,
      "904": 1659,
      "tro": 1660,
      "ĠCott": 1661,
      "ĠCottage": 1662,
      "ax": 1663,
      "922": 1664,
      "928": 1665,
      "ĠRider": 1666,
      "ĠCombine": 1667,
      "004": 1668,
      "013": 1669,
      "355": 1670,
      "ba": 1671,
      "ĠRailway": 1672,
      "291": 1673,
      "WD": 1674,
      "247": 1675,
      "975": 1676,
      "802": 1677,
      "983": 1678,
      "349": 1679,
      "411": 1680,
      "839": 1681,
      "090": 1682,
      "091": 1683,
      "934": 1684,
      "584": 1685,
      "446": 1686,
      "807": 1687,
      "317": 1688,
      "ĠFat": 1689,
      "ĠHours": 1690,
      "ale": 1691,
      "546": 1692,
      "ĠEm": 1693,
      "ett": 1694,
      "ĠWr": 1695,
      "494": 1696,
      "erv": 1697,
      "ĠNew": 1698,
      "083": 1699,
      "462": 1700,
      "avid": 1701,
      "779": 1702,
      "347": 1703,
      "Ġth": 1704,
      "Ġthe": 1705,
      "ork": 1706,
      "ĠStunt": 1707,
      "275": 1708,
      "543": 1709,
      "946": 1710,
      "ber": 1711,
      "730": 1712,
      "ĠBoba": 1713,
      "498": 1714,
      "767": 1715,
      "451": 1716,
      "erman": 1717,
      "657": 1718,
      "793": 1719,
      "377": 1720,
      "ĠSy": 1721,
      "564": 1722,
      "289": 1723,
      "263": 1724,
      "ĠPatrol": 1725,
      "425": 1726,
      "803": 1727,
      "715": 1728,
      "ĠGerman": 1729,
      "ĠUp": 1730,
      "298": 1731,
      "car": 1732,
      "ĠTo": 1733,
      "369": 1734,
      "ĠDes": 1735,
      "592": 1736,
      "ĠMotorized": 1737,
      "848": 1738,
      "294": 1739,
      "ĠFett": 1740,
      "ĠCust": 1741,
      "ĠCustom": 1742,
      "357": 1743,
      "829": 1744,
      "672": 1745,
      "ĠCentur": 1746,
      "ĠCustomized": 1747,
      "405": 1748,
      "736": 1749,
      "uty": 1750,
      "ĠCreat": 1751,
      "079": 1752,
      "Xf": 1753,
      "hXf": 1754,
      "ĠLeg": 1755,
      "ĠChe": 1756,
      "ĠUlt": 1757,
      "hXfMw": 1758,
      "504": 1759,
      "586": 1760,
      "sation": 1761,
      "ĠSensation": 1762,
      "038": 1763,
      "338": 1764,
      "ĠEW": 1765,
      "868": 1766,
      "452": 1767,
      "ak": 1768,
      "gk": 1769,
      "ĠOl": 1770,
      "EKP": 1771,
      "gkEKP": 1772,
      "478": 1773,
      "293": 1774,
      "776": 1775,
      "son": 1776,
      "uard": 1777,
      "Ġaf": 1778,
      "ĠGte": 1779,
      "asons": 1780,
      "ĠBoy": 1781,
      "ĠCorse": 1782,
      "ĠChang": 1783,
      "ĠSeasons": 1784,
      "ĠHarley": 1785,
      "-David": 1786,
      "ĠChanging": 1787,
      "-Davidson": 1788,
      "ĠHome": 1789,
      "ĠShell": 1790,
      "ĠForest": 1791,
      "026": 1792,
      "345": 1793,
      "ĠFX": 1794,
      "762": 1795,
      "522": 1796,
      "642": 1797,
      "826": 1798,
      "964": 1799,
      "821": 1800,
      "251": 1801,
      "oner": 1802,
      "amel": 1803,
      "ĠCamel": 1804,
      "ĠSop": 1805,
      "ance": 1806,
      "ĠConcre": 1807,
      "ĠSopwith": 1808,
      "ĠConcrete": 1809,
      "348": 1810,
      "299": 1811,
      "613": 1812,
      "777": 1813,
      "071": 1814,
      "257": 1815,
      "738": 1816,
      "ĠChas": 1817,
      "899": 1818,
      "ĠGho": 1819,
      "eta": 1820,
      "ĠFron": 1821,
      "ĠWagon": 1822,
      "ĠGhost": 1823,
      "314": 1824,
      "ĠSc": 1825,
      "977": 1826,
      "ĠPur": 1827,
      "796": 1828,
      "-Roader": 1829,
      "ĠPursu": 1830,
      "573": 1831,
      "896": 1832,
      "910": 1833,
      "315": 1834,
      "706": 1835,
      "ĠBoat": 1836,
      "746": 1837,
      "ĠLe": 1838,
      "968": 1839,
      "399": 1840,
      "ĠWash": 1841,
      "ias": 1842,
      "ĠAuto": 1843,
      "397": 1844,
      "005": 1845,
      "709": 1846,
      "526": 1847,
      "618": 1848,
      "516": 1849,
      "mul": 1850,
      "645": 1851,
      "335": 1852,
      "ĠFormul": 1853,
      "ĠFormula": 1854,
      "457": 1855,
      "231": 1856,
      "684": 1857,
      "714": 1858,
      "water": 1859,
      "ĠFall": 1860,
      "ingwater": 1861,
      "ĠFallingwater": 1862,
      "ĠTanker": 1863,
      "ĠControl": 1864,
      "ĠFork": 1865,
      "045": 1866,
      "877": 1867,
      "047": 1868,
      "517": 1869,
      "ooner": 1870,
      "ĠSch": 1871,
      "ĠEye": 1872,
      "ĠSkulls": 1873,
      "ĠSchooner": 1874,
      "ud": 1875,
      "286": 1876,
      "ĠShip": 1877,
      "ĠFly": 1878,
      "836": 1879,
      "343": 1880,
      "666": 1881,
      "ĠClock": 1882,
      "893": 1883,
      "798": 1884,
      "ĠStorm": 1885,
      "eller": 1886,
      "trooper": 1887,
      "ĠStormtrooper": 1888,
      "969": 1889,
      "477": 1890,
      "632": 1891,
      "944": 1892,
      "582": 1893,
      "andler": 1894,
      "Rx": 1895,
      "bx": 1896,
      "658": 1897,
      "Rxbx": 1898,
      "vel": 1899,
      "ĠPursuit": 1900,
      "619": 1901,
      "vet": 1902,
      "vrol": 1903,
      "587": 1904,
      "ĠCorvet": 1905,
      "ĠChevrol": 1906,
      "ĠCorvette": 1907,
      "ĠChevrolet": 1908,
      "588": 1909,
      "con": 1910,
      "729": 1911,
      "547": 1912,
      "018": 1913,
      "337": 1914,
      "629": 1915,
      "879": 1916,
      "acation": 1917,
      "ĠVacation": 1918,
      "ĠSP": 1919,
      "under": 1920,
      "ĠBeachside": 1921,
      "ĠThunder": 1922,
      "505": 1923,
      "ĠQ": 1924,
      "ĠNa": 1925,
      "941": 1926,
      "704": 1927,
      "548": 1928,
      "644": 1929,
      "381": 1930,
      "ron": 1931,
      "yz": 1932,
      "ivet": 1933,
      "ĠDrive": 1934,
      "ĠPrivet": 1935,
      "617": 1936,
      "388": 1937,
      "682": 1938,
      "met": 1939,
      "ĠCrush": 1940,
      "ĠEmmet": 1941,
      "034": 1942,
      "town": 1943,
      "ĠDown": 1944,
      "ĠDepo": 1945,
      "cher": 1946,
      "ĠDowntown": 1947,
      "ĠDepot": 1948,
      "921": 1949,
      "562": 1950,
      "ake": 1951,
      "to": 1952,
      "ountain": 1953,
      "vi": 1954,
      "ĠMind": 1955,
      "ĠFountain": 1956,
      "805": 1957,
      "728": 1958,
      "storm": 1959,
      "ĠTrevi": 1960,
      "ĠMindstorm": 1961,
      "ĠMindstorms": 1962,
      "ainfor": 1963,
      "ĠSw": 1964,
      "ĠRainfor": 1965,
      "als": 1966,
      "ĠWill": 1967,
      "ĠAnim": 1968,
      "ĠDesert": 1969,
      "ĠRainforest": 1970,
      "ĠAnimals": 1971,
      "521": 1972,
      "731": 1973,
      "555": 1974,
      "ĠBon": 1975,
      "cover": 1976,
      "ise": 1977,
      "ĠSkyway": 1978,
      "ĠCentury": 1979,
      "ĠFront": 1980,
      "972": 1981,
      "797": 1982,
      "503": 1983,
      "691": 1984,
      "yal": 1985,
      "487": 1986,
      "ings": 1987,
      "ĠRoyal": 1988,
      "ĠKings": 1989,
      "436": 1990,
      "ĠServ": 1991,
      "ĠCross": 1992,
      "ĠService": 1993,
      "orail": 1994,
      "stem": 1995,
      "ĠMonorail": 1996,
      "ĠSystem": 1997,
      "851": 1998,
      "onder": 1999,
      "685": 2000,
      "024": 2001,
      "ĠTest": 2002,
      "ivias": 2003,
      "ĠOlivias": 2004,
      "556": 2005,
      "059": 2006,
      "847": 2007,
      "ĠConstruction": 2008,
      "665": 2009,
      "686": 2010,
      "-treme": 2011,
      "mon": 2012,
      "olph": 2013,
      "ĠDolph": 2014,
      "ĠGalax": 2015,
      "ĠDolphin": 2016,
      "ĠGalaxy": 2017,
      "558": 2018,
      "night": 2019,
      "ze": 2020,
      "ĠHy": 2021,
      "687": 2022,
      "uv": 2023,
      "ĠLouv": 2024,
      "ĠDragster": 2025,
      "ĠLouvre": 2026,
      "957": 2027,
      "506": 2028,
      "ĠIs": 2029,
      "ung": 2030,
      "ĠYear": 2031,
      "954": 2032,
      "783": 2033,
      "aran": 2034,
      "ĠStand": 2035,
      "amaran": 2036,
      "ĠCatamaran": 2037,
      "ĠOr": 2038,
      "ĠFlyer": 2039,
      "arch": 2040,
      "ĠEV": 2041,
      "ĠMonarch": 2042,
      "ĠMonarchs": 2043,
      "ĠBrickto": 2044,
      "ĠBricktober": 2045,
      "ĠHill": 2046,
      "ĠWh": 2047,
      "ĠHillside": 2048,
      "442": 2049,
      "398": 2050,
      "bul": 2051,
      "ĠMach": 2052,
      "-Rotor": 2053,
      "ĠFXX": 2054,
      "ĠMachine": 2055,
      "ĠInterceptor": 2056,
      "ĠSower": 2057,
      "oy": 2058,
      "mping": 2059,
      "ĠWho": 2060,
      "ĠSquad": 2061,
      "ĠWillow": 2062,
      "ĠWhomping": 2063,
      "bai": 2064,
      "ĠCy": 2065,
      "726": 2066,
      "ctic": 2067,
      "ĠDubai": 2068,
      "ĠArch": 2069,
      "ĠArctic": 2070,
      "593": 2071,
      "ĠElectric": 2072,
      "468": 2073,
      "942": 2074,
      "652": 2075,
      "894": 2076,
      "841": 2077,
      "519": 2078,
      "756": 2079,
      "ĠRoader": 2080,
      "677": 2081,
      "461": 2082,
      "439": 2083,
      "ech": 2084,
      "ĠConstruct": 2085,
      "-Mech": 2086,
      "ĠEmmets": 2087,
      "ĠConstructo": 2088,
      "467": 2089,
      "789": 2090,
      "anza": 2091,
      "295": 2092,
      "ĠPoe": 2093,
      "ĠBonanza": 2094,
      "ĠStor": 2095,
      "581": 2096,
      "ĠIce": 2097,
      "594": 2098,
      "eper": 2099,
      "044": 2100,
      "792": 2101,
      "ĠQu": 2102,
      "909": 2103,
      "596": 2104,
      "AL": 2105,
      "nation": 2106,
      "ĠStab": 2107,
      "ĠWAL": 2108,
      "ĠInternation": 2109,
      "ĠStable": 2110,
      "ĠWALLE": 2111,
      "ĠInternational": 2112,
      "ĠGeta": 2113,
      "ĠWall": 2114,
      "ĠChina": 2115,
      "ĠVehicles": 2116,
      "ĠGetaway": 2117,
      "ĠElectr": 2118,
      "ĠCrossing": 2119,
      "ĠStandard": 2120,
      "099": 2121,
      "525": 2122,
      "ĠTeam": 2123,
      "016": 2124,
      "857": 2125,
      "anger": 2126,
      "ĠWright": 2127,
      "073": 2128,
      "832": 2129,
      "ele": 2130,
      "ĠComp": 2131,
      "625": 2132,
      "009": 2133,
      "571": 2134,
      "dy": 2135,
      "ĠDo": 2136,
      "502": 2137,
      "481": 2138,
      "-City": 2139,
      "856": 2140,
      "ker": 2141,
      "697": 2142,
      "ĠYork": 2143,
      "ĠStorage": 2144,
      "042": 2145,
      "011": 2146,
      "ose": 2147,
      "ored": 2148,
      "327": 2149,
      "ĠCra": 2150,
      "ĠTrans": 2151,
      "izer": 2152,
      "ĠLegored": 2153,
      "ĠLegoredo": 2154,
      "-T": 2155,
      "838": 2156,
      "892": 2157,
      "ĠKnight": 2158,
      "ĠKnights": 2159,
      "529": 2160,
      "949": 2161,
      "466": 2162,
      "YM": 2163,
      "527": 2164,
      "ĠSolomon": 2165,
      "745": 2166,
      "ager": 2167,
      "014": 2168,
      "854": 2169,
      "902": 2170,
      "ĠWind": 2171,
      "775": 2172,
      "os": 2173,
      "725": 2174,
      "387": 2175,
      "ĠFlyers": 2176,
      "039": 2177,
      "878": 2178,
      "nie": 2179,
      "935": 2180,
      "429": 2181,
      "482": 2182,
      "Ġcar": 2183,
      "ĠSon": 2184,
      "085": 2185,
      "ĠRocket": 2186,
      "032": 2187,
      "565": 2188,
      "ĠSav": 2189,
      "ĠEnd": 2190,
      "476": 2191,
      "sion": 2192,
      "ĠTun": 2193,
      "-Sp": 2194,
      "626": 2195,
      "898": 2196,
      "733": 2197,
      "hin": 2198,
      "ĠRise": 2199,
      "ĠPan": 2200,
      "ĠSpike": 2201,
      "ĠSphin": 2202,
      "ĠSphinx": 2203,
      "435": 2204,
      "oye": 2205,
      "ĠVill": 2206,
      "persp": 2207,
      "ĠHypersp": 2208,
      "ĠSavoye": 2209,
      "ĠVilla": 2210,
      "959": 2211,
      "048": 2212,
      "413": 2213,
      "out": 2214,
      "831": 2215,
      "ĠWhite": 2216,
      "ĠTuner": 2217,
      "915": 2218,
      "sis": 2219,
      "ĠIron": 2220,
      "ĠLoad": 2221,
      "ĠChassis": 2222,
      "539": 2223,
      "Ġtr": 2224,
      "ĠDozer": 2225,
      "ĠRailroad": 2226,
      "938": 2227,
      "572": 2228,
      "ida": 2229,
      "ĠNaida": 2230,
      "801": 2231,
      "ĠLas": 2232,
      "ĠSand": 2233,
      "ĠBay": 2234,
      "ĠLogo": 2235,
      "ĠSupport": 2236,
      "ĠMarina": 2237,
      "ĠSands": 2238,
      "795": 2239,
      "ER": 2240,
      "cycle": 2241,
      "cin": 2242,
      "ĠHQ": 2243,
      "ĠPre": 2244,
      "ĠSte": 2245,
      "753": 2246,
      "cinct": 2247,
      "ĠPrecinct": 2248,
      "579": 2249,
      "955": 2250,
      "Ġn": 2251,
      "ĠPropeller": 2252,
      "089": 2253,
      "sage": 2254,
      "ĠMes": 2255,
      "ĠSub": 2256,
      "ĠSpeeder": 2257,
      "ĠIntercept": 2258,
      "ĠMessage": 2259,
      "744": 2260,
      "ĠMid": 2261,
      "901": 2262,
      "ĠBoom": 2263,
      "ĠSonic": 2264,
      "054": 2265,
      "471": 2266,
      "508": 2267,
      "ĠUnder": 2268,
      "ĠUndercover": 2269,
      "578": 2270,
      "Iz": 2271,
      "Jm": 2272,
      "Yg": 2273,
      "-Speed": 2274,
      "IzYg": 2275,
      "441": 2276,
      "old": 2277,
      "iver": 2278,
      "ĠChase": 2279,
      "lift": 2280,
      "lake": 2281,
      "ĠNight": 2282,
      "ĠRen": 2283,
      "ĠVoy": 2284,
      "549": 2285,
      "497": 2286,
      "ĠShow": 2287,
      "artlake": 2288,
      "ĠHeartlake": 2289,
      "ĠVoyager": 2290,
      "532": 2291,
      "ĠSport": 2292,
      "ĠPatroller": 2293,
      "862": 2294,
      "622": 2295,
      "air": 2296,
      "ug": 2297,
      "561": 2298,
      "ĠRacing": 2299,
      "ene": 2300,
      "962": 2301,
      "bour": 2302,
      "ĠHarbour": 2303,
      "ĠGrand": 2304,
      "ĠPrix": 2305,
      "ĠScene": 2306,
      "916": 2307,
      "945": 2308,
      "ĠSith": 2309,
      "ĠCars": 2310,
      "ĠAirte": 2311,
      "ĠClaw": 2312,
      "ĠAirtech": 2313,
      "889": 2314,
      "861": 2315,
      "cur": 2316,
      "ĠVeg": 2317,
      "ĠSecur": 2318,
      "ĠVegas": 2319,
      "ĠSecurity": 2320,
      "077": 2321,
      "769": 2322,
      "078": 2323,
      "angh": 2324,
      "ĠPad": 2325,
      "enced": 2326,
      "ĠShangh": 2327,
      "erienced": 2328,
      "ĠExperienced": 2329,
      "ĠResp": 2330,
      "ĠShanghai": 2331,
      "027": 2332,
      "cis": 2333,
      "ĠSan": 2334,
      "ancis": 2335,
      "ĠPD": 2336,
      "563": 2337,
      "ĠAlph": 2338,
      "ĠFrancis": 2339,
      "ĠAlpha": 2340,
      "ĠFrancisco": 2341,
      "ĠRanger": 2342,
      "ĠCarg": 2343,
      "514": 2344,
      "uardian": 2345,
      "475": 2346,
      "kin": 2347,
      "ĠFar": 2348,
      "ary": 2349,
      "ĠFarm": 2350,
      "ĠMag": 2351,
      "ĠStack": 2352,
      "ĠShock": 2353,
      "351": 2354,
      "kes": 2355,
      "ĠSur": 2356,
      "722": 2357,
      "541": 2358,
      "917": 2359,
      "ĠTele": 2360,
      "651": 2361,
      "055": 2362,
      "874": 2363,
      "eep": 2364,
      "603": 2365,
      "ĠJeep": 2366,
      "537": 2367,
      "538": 2368,
      "907": 2369,
      "ĠYard": 2370,
      "098": 2371,
      "pper": 2372,
      "yo": 2373,
      "ĠTok": 2374,
      "ĠHopper": 2375,
      "ĠGard": 2376,
      "591": 2377,
      "ĠDeep": 2378,
      "ĠJok": 2379,
      "ures": 2380,
      "ĠCreatures": 2381,
      "ĠTokyo": 2382,
      "ĠGarden": 2383,
      "ĠJoker": 2384,
      "569": 2385,
      "na": 2386,
      "ĠHan": 2387,
      "887": 2388,
      "063": 2389,
      "ĠSnowmobile": 2390,
      "553": 2391,
      "723": 2392,
      "lf": 2393,
      "land": 2394,
      "ĠElf": 2395,
      "box": 2396,
      "boat": 2397,
      "ĠIsland": 2398,
      "713": 2399,
      "ĠMis": 2400,
      "ĠMission": 2401,
      "575": 2402,
      "679": 2403,
      "524": 2404,
      "MW": 2405,
      "ĠFis": 2406,
      "ĠBMW": 2407,
      "ĠGS": 2408,
      "463": 2409,
      "ĠZR": 2410,
      "ĠFish": 2411,
      "handler": 2412,
      "ory": 2413,
      "ĠFir": 2414,
      "ĠBang": 2415,
      "ĠRotor": 2416,
      "ĠTheory": 2417,
      "ĠTelehandler": 2418,
      "ĠFirst": 2419,
      "824": 2420,
      "084": 2421,
      "zy": 2422,
      "ĠFlower": 2423,
      "ly": 2424,
      "ny": 2425,
      "ĠMr": 2426,
      "ĠPiz": 2427,
      "557": 2428,
      "ĠClub": 2429,
      "727": 2430,
      "871": 2431,
      "ĠFast": 2432,
      "uqu": 2433,
      "717": 2434,
      "ĠBlast": 2435,
      "ĠBouqu": 2436,
      "ĠBouquet": 2437,
      "etary": 2438,
      "ĠChild": 2439,
      "coast": 2440,
      "ĠIntercoast": 2441,
      "ĠSeaport": 2442,
      "ĠIntercoastal": 2443,
      "058": 2444,
      "621": 2445,
      "061": 2446,
      "843": 2447,
      "931": 2448,
      "atcher": 2449,
      "ĠAerial": 2450,
      "erkin": 2451,
      "ĠPerkin": 2452,
      "ĠThatcher": 2453,
      "ĠPerkins": 2454,
      "ernie": 2455,
      "olbox": 2456,
      "ĠVernie": 2457,
      "ĠBox": 2458,
      "ĠToolbox": 2459,
      "ĠCreative": 2460,
      "ĠCompac": 2461,
      "cat": 2462,
      "aning": 2463,
      "ĠPis": 2464,
      "igale": 2465,
      "ĠEng": 2466,
      "ĠDucat": 2467,
      "ĠLeaning": 2468,
      "ĠPanigale": 2469,
      "ĠPisa": 2470,
      "ĠDucati": 2471,
      "711": 2472,
      "SW": 2473,
      "cale": 2474,
      "iSW": 2475,
      "tsu": 2476,
      "erry": 2477,
      "-Scale": 2478,
      "ĠCrusher": 2479,
      "ĠMidi": 2480,
      "iSWtsu": 2481,
      "iSWtsuW": 2482,
      "721": 2483,
      "853": 2484,
      "cl": 2485,
      "513": 2486,
      "748": 2487,
      "535": 2488,
      "cons": 2489,
      "gen": 2490,
      "ĠFal": 2491,
      "905": 2492,
      "ĠEmer": 2493,
      "ĠFortress": 2494,
      "gency": 2495,
      "ĠFalcons": 2496,
      "ĠEmergency": 2497,
      "aul": 2498,
      "net": 2499,
      "sst": 2500,
      "ĠMeg": 2501,
      "ĠAm": 2502,
      "ĠBons": 2503,
      "ĠHaul": 2504,
      "786": 2505,
      "ĠCore": 2506,
      "ĠCrosst": 2507,
      "ĠCraze": 2508,
      "ĠMagnet": 2509,
      "ĠMega": 2510,
      "ĠBonsai": 2511,
      "ĠCrosstown": 2512,
      "ĠMagnetizer": 2513,
      "534": 2514,
      "mper": 2515,
      "led": 2516,
      "ĠCamper": 2517,
      "egade": 2518,
      "ĠRenegade": 2519,
      "583": 2520,
      "Dm": 2521,
      "Ew": 2522,
      "Mc": 2523,
      "SEK": 2524,
      "cDm": 2525,
      "oSEK": 2526,
      "uEw": 2527,
      "ĠInven": 2528,
      "ĠSecre": 2529,
      "ĠPost": 2530,
      "oSEKcDm": 2531,
      "uEwMc": 2532,
      "ĠInventor": 2533,
      "ĠSecret": 2534,
      "671": 2535,
      "053": 2536,
      "943": 2537,
      "ĠPir": 2538,
      "ĠSteam": 2539,
      "ĠMonster": 2540,
      "ĠHyperspeed": 2541,
      "ĠPirate": 2542,
      "dge": 2543,
      "ement": 2544,
      "ĠMin": 2545,
      "ĠCement": 2546,
      "ĠLodge": 2547,
      "ĠLakes": 2548,
      "ĠLakeside": 2549,
      "ĠCherry": 2550,
      "ĠLun": 2551,
      "ĠLevel": 2552,
      "ĠLunar": 2553,
      "908": 2554,
      "ride": 2555,
      "Ġride": 2556,
      "ĠCut": 2557,
      "ĠHide": 2558,
      "069": 2559,
      "963": 2560,
      "-G": 2561,
      "ellor": 2562,
      "ĠPropellor": 2563,
      "912": 2564,
      "ĠCarri": 2565,
      "ĠGrader": 2566,
      "iator": 2567,
      "ĠPod": 2568,
      "ĠPicker": 2569,
      "ĠMediator": 2570,
      "ĠPizza": 2571,
      "068": 2572,
      "566": 2573,
      "igate": 2574,
      "ĠMoon": 2575,
      "ĠBatman": 2576,
      "ĠFrigate": 2577,
      "ĠNebul": 2578,
      "ĠResponder": 2579,
      "ĠNebulon": 2580,
      "817": 2581,
      "rac": 2582,
      "765": 2583,
      "533": 2584,
      "int": 2585,
      "595": 2586,
      "ĠCycle": 2587,
      "855": 2588,
      "076": 2589,
      "022": 2590,
      "757": 2591,
      "ĠDun": 2592,
      "icag": 2593,
      "ĠCabo": 2594,
      "ĠChicag": 2595,
      "ĠYears": 2596,
      "ĠCargo": 2597,
      "ĠDune": 2598,
      "ĠCaboose": 2599,
      "ĠChicago": 2600,
      "051": 2601,
      "ĠRamb": 2602,
      "ĠDuty": 2603,
      "ĠRambler": 2604,
      "873": 2605,
      "881": 2606,
      "ĠMic": 2607,
      "ĠWe": 2608,
      "ĠWheels": 2609,
      "plane": 2610,
      "ĠSpeedboat": 2611,
      "ĠHolidays": 2612,
      "-Guardian": 2613,
      "ĠMicro": 2614,
      "649": 2615,
      "use": 2616,
      "741": 2617,
      "ship": 2618,
      "Ġmo": 2619,
      "idman": 2620,
      "ĠOut": 2621,
      "ĠSquidman": 2622,
      "Ġmodel": 2623,
      "794": 2624,
      "ĠCrunch": 2625,
      "artment": 2626,
      "ĠApartment": 2627,
      "ĠCruncher": 2628,
      "ĠBre": 2629,
      "ĠLanding": 2630,
      "ĠGung": 2631,
      "angler": 2632,
      "ĠTurbine": 2633,
      "ĠWrangler": 2634,
      "ĠGungan": 2635,
      "749": 2636,
      "lin": 2637,
      "erlin": 2638,
      "ĠBerlin": 2639,
      "096": 2640,
      "vac": 2641,
      "ĠEvac": 2642,
      "897": 2643,
      "037": 2644,
      "842": 2645,
      "ĠCozy": 2646,
      "822": 2647,
      "ĠGuard": 2648,
      "837": 2649,
      "ĠRoom": 2650,
      "ĠRecon": 2651,
      "ĠLock": 2652,
      "023": 2653,
      "029": 2654,
      "enon": 2655,
      "andal": 2656,
      "-Duty": 2657,
      "ĠZenon": 2658,
      "062": 2659,
      "673": 2660,
      "771": 2661,
      "903": 2662,
      "095": 2663,
      "top": 2664,
      "ĠLook": 2665,
      "ĠMountaintop": 2666,
      "ĠStables": 2667,
      "ĠLookout": 2668,
      "049": 2669,
      "ĠLim": 2670,
      "ĠLaunching": 2671,
      "ĠLimited": 2672,
      "DF": 2673,
      "jDF": 2674,
      "Ġlift": 2675,
      "ĠPit": 2676,
      "ĠFlatcar": 2677,
      "auri": 2678,
      "ĠCentauri": 2679,
      "post": 2680,
      "ĠQuad": 2681,
      "Ġtruck": 2682,
      "ĠOutpost": 2683,
      "ĠPits": 2684,
      "065": 2685,
      "739": 2686,
      "918": 2687,
      "bon": 2688,
      "ĠStri": 2689,
      "ĠStud": 2690,
      "791": 2691,
      "ĠCarbon": 2692,
      "ĠStudi": 2693,
      "ey": 2694,
      "ĠSung": 2695,
      "ĠHandler": 2696,
      "emun": 2697,
      "nyemun": 2698,
      "ĠSungnyemun": 2699,
      "895": 2700,
      "Ġat": 2701,
      "ĠGold": 2702,
      "ĠOdy": 2703,
      "ssey": 2704,
      "ĠCarav": 2705,
      "uble": 2706,
      "ĠDouble": 2707,
      "ĠOdyssey": 2708,
      "ĠCaravan": 2709,
      "ĠRiver": 2710,
      "ĠHaw": 2711,
      "ĠWom": 2712,
      "ĠWonder": 2713,
      "ĠArm": 2714,
      "ĠHawk": 2715,
      "ĠWoman": 2716,
      "end": 2717,
      "ĠRoll": 2718,
      "ĠHorse": 2719,
      "Cb": 2720,
      "KD": 2721,
      "ĠMrs": 2722,
      "ĠGate": 2723,
      "ave": 2724,
      "ĠClau": 2725,
      "udKD": 2726,
      "ĠCrushers": 2727,
      "CbudKD": 2728,
      "ĠClaus": 2729,
      "747": 2730,
      "BL": 2731,
      "Lis": 2732,
      "trax": 2733,
      "ĠRep": 2734,
      "ĠBattrax": 2735,
      "LisBL": 2736,
      "937": 2737,
      "bur": 2738,
      "iff": 2739,
      "yce": 2740,
      "enbur": 2741,
      "ĠEiff": 2742,
      "ĠBrand": 2743,
      "ĠRolls": 2744,
      "ĠPark": 2745,
      "-Royce": 2746,
      "enburg": 2747,
      "ĠEiffel": 2748,
      "ĠBrandenburg": 2749,
      "Ġmot": 2750,
      "ĠRobots": 2751,
      "ĠTranscon": 2752,
      "735": 2753,
      "093": 2754,
      "833": 2755,
      "alker": 2756,
      "opper": 2757,
      "ĠChopper": 2758,
      "ĠEngine": 2759,
      "Ġ'": 2760,
      "ĠMine": 2761,
      "ĠVen": 2762,
      "ĠMining": 2763,
      "ĠForge": 2764,
      "ĠOrc": 2765,
      "XV": 2766,
      "bus": 2767,
      "ier": 2768,
      "092": 2769,
      "-Road": 2770,
      "ĠQuick": 2771,
      "-Q": 2772,
      "ĠPier": 2773,
      "gu": 2774,
      "ĠMotorcycle": 2775,
      "Ae": 2776,
      "FER": 2777,
      "KAe": 2778,
      "UKAe": 2779,
      "ry": 2780,
      "orry": 2781,
      "ĠLorry": 2782,
      "703": 2783,
      "ĠRid": 2784,
      "UKAeFER": 2785,
      "ĠRiding": 2786,
      "033": 2787,
      "hol": 2788,
      "qo": 2789,
      "yn": 2790,
      "701": 2791,
      "arhol": 2792,
      "roe": 2793,
      "ĠWarhol": 2794,
      "ĠBur": 2795,
      "ilyn": 2796,
      "ĠAndy": 2797,
      "ĠMarilyn": 2798,
      "ĠKart": 2799,
      "ĠMonroe": 2800,
      "rio": 2801,
      "ĠSwe": 2802,
      "ĠDoc": 2803,
      "ĠWarhols": 2804,
      "074": 2805,
      "067": 2806,
      "631": 2807,
      "work": 2808,
      "ĠSco": 2809,
      "ĠRoadwork": 2810,
      "835": 2811,
      "Gj": 2812,
      "Ul": 2813,
      "amp": 2814,
      "lGj": 2815,
      "ĠPand": 2816,
      "ĠSkull": 2817,
      "UllGj": 2818,
      "UllGjm": 2819,
      "be": 2820,
      "eze": 2821,
      "gE": 2822,
      "kers": 2823,
      "ptain": 2824,
      "orian": 2825,
      "ĠMandal": 2826,
      "ĠBi": 2827,
      "097": 2828,
      "ĠCaptain": 2829,
      "ĠMarvel": 2830,
      "ĠCyber": 2831,
      "ĠStrikers": 2832,
      "ĠStudios": 2833,
      "ĠMandalorian": 2834,
      "pic": 2835,
      "atment": 2836,
      "ĠCave": 2837,
      "ĠEpic": 2838,
      "unct": 2839,
      "ĠTreatment": 2840,
      "ĠJunct": 2841,
      "ĠJunction": 2842,
      "ali": 2843,
      "ods": 2844,
      "ĠGoods": 2845,
      "046": 2846,
      "834": 2847,
      "ines": 2848,
      "ĠYach": 2849,
      "ĠCarbonite": 2850,
      "ĠYacht": 2851,
      "ĠRemo": 2852,
      "ĠMax": 2853,
      "ĠSmash": 2854,
      "illance": 2855,
      "veillance": 2856,
      "ĠSurveillance": 2857,
      "064": 2858,
      "AAS": 2859,
      "ION": 2860,
      "LAAS": 2861,
      "ĠCLAAS": 2862,
      "ĠXER": 2863,
      "ĠCoast": 2864,
      "ĠXERION": 2865,
      "IC": 2866,
      "NIC": 2867,
      "ĠRecycle": 2868,
      "863": 2869,
      "ef": 2870,
      "ger": 2871,
      "uder": 2872,
      "one": 2873,
      "truder": 2874,
      "ĠIntruder": 2875,
      "ĠRockef": 2876,
      "ĠChasing": 2877,
      "ĠRockefeller": 2878,
      "845": 2879,
      "bs": 2880,
      "ĠFle": 2881,
      "ĠObs": 2882,
      "umb": 2883,
      "atory": 2884,
      "ervatory": 2885,
      "ĠFleet": 2886,
      "ĠObservatory": 2887,
      "ark": 2888,
      "ĠVan": 2889,
      "ĠStarter": 2890,
      "ĠShark": 2891,
      "phan": 2892,
      "ĠStephan": 2893,
      "bM": 2894,
      "ĠPug": 2895,
      "ĠCute": 2896,
      "ĠPodrac": 2897,
      "ĠPodracer": 2898,
      "PS": 2899,
      "Pv": 2900,
      "QPS": 2901,
      "VPv": 2902,
      "ĠSau": 2903,
      "ĠSite": 2904,
      "ren": 2905,
      "ĠSaucer": 2906,
      "LZ": 2907,
      "aster": 2908,
      "wa": 2909,
      "ĠBeta": 2910,
      "ĠRam": 2911,
      "ĠGe": 2912,
      "ĠGro": 2913,
      "tering": 2914,
      "uma": 2915,
      "ĠTrauma": 2916,
      "ĠBattle": 2917,
      "ĠBattering": 2918,
      "qoLZ": 2919,
      "iX": 2920,
      "iker": 2921,
      "owler": 2922,
      "triker": 2923,
      "ĠSpin": 2924,
      "-Striker": 2925,
      "ĠPlanetary": 2926,
      "ĠProwler": 2927,
      "eer": 2928,
      "ĠHook": 2929,
      "ĠReind": 2930,
      "ĠSpa": 2931,
      "ĠElfie": 2932,
      "ĠCompact": 2933,
      "ĠReindeer": 2934,
      "ĠTram": 2935,
      "ĠInv": 2936,
      "-wheel": 2937,
      "ĠLego": 2938,
      "-wheeler": 2939,
      "-h": 2940,
      "mas": 2941,
      "rid": 2942,
      "orth": 2943,
      "ĠShe": 2944,
      "ĠHag": 2945,
      "ĠUru": 2946,
      "ĠShorth": 2947,
      "ĠBuckbe": 2948,
      "ĠCats": 2949,
      "ĠEmmas": 2950,
      "ĠArmy": 2951,
      "-hai": 2952,
      "ĠSheep": 2953,
      "ĠHagrid": 2954,
      "ĠUruk": 2955,
      "ĠShorthair": 2956,
      "ĠBuckbeak": 2957,
      "ca": 2958,
      "di": 2959,
      "dn": 2960,
      "mill": 2961,
      "Ġqu": 2962,
      "attro": 2963,
      "ĠAudi": 2964,
      "ĠRC": 2965,
      "ĠHer": 2966,
      "ĠOper": 2967,
      "ĠInn": 2968,
      "ĠSydn": 2969,
      "ĠWindmill": 2970,
      "ĠGuarded": 2971,
      "Ġquattro": 2972,
      "ĠOpera": 2973,
      "ĠSydney": 2974,
      "075": 2975,
      "Ġ(": 2976,
      "ĠSle": 2977,
      "olation": 2978,
      "ĠOiler": 2979,
      "itcher": 2980,
      "ĠSnake": 2981,
      "ĠSwitcher": 2982,
      "ĠIsolation": 2983,
      "ĠSurf": 2984,
      "ĠCarriage": 2985,
      "ĠBreeze": 2986,
      "ĠSleeper": 2987,
      "ĠBreezeway": 2988,
      "-C": 2989,
      "UP": 2990,
      "ial": 2991,
      "ontrol": 2992,
      "ĠPig": 2993,
      "ĠForestmen": 2994,
      "bulance": 2995,
      "Ġtrain": 2996,
      "Ġnose": 2997,
      "ĠAmbulance": 2998,
      "ĠHideout": 2999,
      "ĠRemote": 3000,
      "-Control": 3001,
      "-Controlled": 3002,
      "fa": 3003,
      "hali": 3004,
      "pe": 3005,
      "aters": 3006,
      "ĠMcl": 3007,
      "aren": 3008,
      "ĠRacers": 3009,
      "uto": 3010,
      "ĠPluto": 3011,
      "ofy": 3012,
      "ĠSkaters": 3013,
      "ĠKhali": 3014,
      "ĠSenna": 3015,
      "ĠGoofy": 3016,
      "ĠBurj": 3017,
      "ĠMclaren": 3018,
      "ĠKhalifa": 3019,
      "ae": 3020,
      "gok": 3021,
      "han": 3022,
      "jo": 3023,
      "ob": 3024,
      "ual": 3025,
      "uke": 3026,
      "walker": 3027,
      "ĠLuke": 3028,
      "ĠTae": 3029,
      "alent": 3030,
      "elob": 3031,
      "ĠValent": 3032,
      "ĠShelob": 3033,
      "ĠMouse": 3034,
      "ĠRecy": 3035,
      "ĠYod": 3036,
      "boo": 3037,
      "ĠManual": 3038,
      "ĠAttacks": 3039,
      "ĠSkywalker": 3040,
      "ĠTogok": 3041,
      "ĠNaboo": 3042,
      "cling": 3043,
      "ĠVenice": 3044,
      "ĠTaejo": 3045,
      "ĠRecycling": 3046,
      "ĠYoda": 3047,
      "ĠTogokhan": 3048,
      "Fly": 3049,
      "cFly": 3050,
      "ĠMcFly": 3051,
      "ĠBand": 3052,
      "room": 3053,
      "ĠBrown": 3054,
      "ĠMarty": 3055,
      "ĠBandit": 3056,
      "anetary": 3057,
      "ĠRet": 3058,
      "reat": 3059,
      "unter": 3060,
      "ulk": 3061,
      "ĠRaceway": 3062,
      "ĠInterpl": 3063,
      "ĠRocky": 3064,
      "aker": 3065,
      "ĠRetreat": 3066,
      "ĠInterplanetary": 3067,
      "ĠVint": 3068,
      "ĠCompactor": 3069,
      "ĠVintage": 3070,
      "CH": 3071,
      "ECH": 3072,
      "FT": 3073,
      "Qw": 3074,
      "lgE": 3075,
      "wen": 3076,
      "xlgE": 3077,
      "ore": 3078,
      "ĠTECH": 3079,
      "ĠSail": 3080,
      "ĠRon": 3081,
      "ĠStell": 3082,
      "ĠDumb": 3083,
      "ĠOwen": 3084,
      "asley": 3085,
      "ĠChine": 3086,
      "ĠAlbus": 3087,
      "ledore": 3088,
      "ĠWeasley": 3089,
      "XVFT": 3090,
      "ĠPandas": 3091,
      "QwxlgE": 3092,
      "ĠTECHNIC": 3093,
      "ĠStellar": 3094,
      "ĠDumbledore": 3095,
      "ĠChinese": 3096,
      "XVFTg": 3097,
      "QwxlgEA": 3098,
      "NW": 3099,
      "az": 3100,
      "ectr": 3101,
      "ist": 3102,
      "uation": 3103,
      "ĠAss": 3104,
      "ĠANW": 3105,
      "ĠStron": 3106,
      "ĠStarship": 3107,
      "ĠStargu": 3108,
      "ĠSpectr": 3109,
      "ĠXT": 3110,
      "ghold": 3111,
      "ĠRoadside": 3112,
      "covery": 3113,
      "ĠEvacuation": 3114,
      "istance": 3115,
      "ĠAssistance": 3116,
      "ĠANWB": 3117,
      "ĠStronghold": 3118,
      "ĠStarguider": 3119,
      "ĠSpectral": 3120,
      "Pl": 3121,
      "ton": 3122,
      "orld": 3123,
      "ĠStop": 3124,
      "ĠWorld": 3125,
      "ĠMap": 3126,
      "auty": 3127,
      "fly": 3128,
      "pter": 3129,
      "tter": 3130,
      "ĠCopter": 3131,
      "ĠButter": 3132,
      "ĠBeauty": 3133,
      "ĠButterfly": 3134,
      "bra": 3135,
      "hAS": 3136,
      "py": 3137,
      "rhAS": 3138,
      "zrhAS": 3139,
      "orter": 3140,
      "ĠCur": 3141,
      "ĠPup": 3142,
      "sed": 3143,
      "ĠCrater": 3144,
      "ĠCobra": 3145,
      "ĠRecovery": 3146,
      "ĠTrains": 3147,
      "ĠTransporter": 3148,
      "ĠAnna": 3149,
      "ĠWago": 3150,
      "ĠCenturion": 3151,
      "ĠOlaf": 3152,
      "ĠForklift": 3153,
      "ĠPostal": 3154,
      "ĠCursed": 3155,
      "ĠPuppy": 3156,
      "oter": 3157,
      "ĠAB": 3158,
      "ĠSing": 3159,
      "ĠBack": 3160,
      "ĠAnak": 3161,
      "ĠSuperman": 3162,
      "hoe": 3163,
      "ĠScooter": 3164,
      "ĠSingle": 3165,
      "ĠBackhoe": 3166,
      "ĠAnakin": 3167,
      "-O": 3168,
      "lider": 3169,
      "ĠGlider": 3170,
      "ĠAirl": 3171,
      "-St": 3172,
      "ĠAmerica": 3173,
      "ĠFlying": 3174,
      "-Out": 3175,
      "Gug": 3176,
      "bage": 3177,
      "iC": 3178,
      "xiC": 3179,
      "zxiC": 3180,
      "Ġu": 3181,
      "ĠGarbage": 3182,
      "GugzxiC": 3183,
      "ĠLi": 3184,
      "ĠBB": 3185,
      "onizer": 3186,
      "ĠPart": 3187,
      "ĠIonizer": 3188,
      "irement": 3189,
      "ĠRequ": 3190,
      "ĠHarri": 3191,
      "ĠParticle": 3192,
      "ĠRequirement": 3193,
      "ĠHarrier": 3194,
      "JC": 3195,
      "ĠGun": 3196,
      "etab": 3197,
      "ĠCarrier": 3198,
      "ĠWeetab": 3199,
      "ĠGunship": 3200,
      "ĠWeetabix": 3201,
      "omer": 3202,
      "ĠSally": 3203,
      "lete": 3204,
      "ington": 3205,
      "ĠTheater": 3206,
      "ĠJack": 3207,
      "ellington": 3208,
      "ĠSkellington": 3209,
      "ĠDragon": 3210,
      "ĠComplete": 3211,
      "ĠChildren": 3212,
      "ĠRepair": 3213,
      "ĠGroomer": 3214,
      "ĠChildrens": 3215,
      "Nak": 3216,
      "pNak": 3217,
      "ĠSpeedway": 3218,
      "pNakp": 3219,
      "bor": 3220,
      "ĠFlame": 3221,
      "ĠHarbor": 3222,
      "ĠDumper": 3223,
      "-Terrain": 3224,
      "ĠLoading": 3225,
      "ĠSweeper": 3226,
      "eyz": 3227,
      "hK": 3228,
      "ĠStacker": 3229,
      "PbM": 3230,
      "WPbM": 3231,
      "dm": 3232,
      "iend": 3233,
      "ĠCal": 3234,
      "olside": 3235,
      "adise": 3236,
      "ĠAircraft": 3237,
      "ĠSkid": 3238,
      "ĠParadise": 3239,
      "ĠFriend": 3240,
      "ĠPoint": 3241,
      "ĠPoolside": 3242,
      "ĠSteer": 3243,
      "endar": 3244,
      "ĠInvader": 3245,
      "WPbMdm": 3246,
      "ĠCalendar": 3247,
      "ĠFriends": 3248,
      "WPbMdmz": 3249,
      "-I": 3250,
      "ĠATX": 3251,
      "-TE": 3252,
      "ĠCutter": 3253,
      "ĠCoastal": 3254,
      "Copter": 3255,
      "gler": 3256,
      "ĠOct": 3257,
      "ĠAngler": 3258,
      "ĠBoatside": 3259,
      "ĠOctan": 3260,
      "UV": 3261,
      "cr": 3262,
      "col": 3263,
      "giv": 3264,
      "ies": 3265,
      "sgiv": 3266,
      "incol": 3267,
      "orial": 3268,
      "ĠMem": 3269,
      "ĠLincol": 3270,
      "anksgiv": 3271,
      "ĠThanksgiv": 3272,
      "ĠCentre": 3273,
      "arecr": 3274,
      "ĠScarecr": 3275,
      "ĠSwamp": 3276,
      "ĠOrion": 3277,
      "ĠHyperspace": 3278,
      "ĠStephanies": 3279,
      "ĠMemorial": 3280,
      "ĠLincoln": 3281,
      "ĠThanksgiving": 3282,
      "ĠScarecrow": 3283,
      "ĠGrab": 3284,
      "-K": 3285,
      "Ġst": 3286,
      "Ġlo": 3287,
      "amele": 3288,
      "ĠBir": 3289,
      "ĠChamele": 3290,
      "-Kart": 3291,
      "Ġsteam": 3292,
      "Ġlocomotive": 3293,
      "ĠBird": 3294,
      "ĠChameleon": 3295,
      "brio": 3296,
      "cord": 3297,
      "lic": 3298,
      "mi": 3299,
      "ĠHulk": 3300,
      "ĠRecord": 3301,
      "ĠCabrio": 3302,
      "ĠSemi": 3303,
      "ublic": 3304,
      "-Trac": 3305,
      "ĠBreaker": 3306,
      "ĠRepublic": 3307,
      "-Tractor": 3308,
      "Car": 3309,
      "JK": 3310,
      "ĠMus": 3311,
      "ĠSpeedCar": 3312,
      "ĠPatrio": 3313,
      "ĠMuscle": 3314,
      "ĠPatriot": 3315,
      "KMw": 3316,
      "dible": 3317,
      "uy": 3318,
      "xKMw": 3319,
      "zone": 3320,
      "ĠFro": 3321,
      "ĠBel": 3322,
      "ĠDance": 3323,
      "ĠGuy": 3324,
      "ital": 3325,
      "ĠPlace": 3326,
      "ĠIncre": 3327,
      "xKMwT": 3328,
      "ĠFrozone": 3329,
      "ĠBelle": 3330,
      "ĠIncredible": 3331,
      "ctor": 3332,
      "dro": 3333,
      "hroom": 3334,
      "ĠCol": 3335,
      "itch": 3336,
      "ĠSheri": 3337,
      "ĠSpy": 3338,
      "ĠBathroom": 3339,
      "ĠJetport": 3340,
      "ĠCreeper": 3341,
      "rak": 3342,
      "ĠFrone": 3343,
      "ĠHydro": 3344,
      "-Trak": 3345,
      "ĠSteve": 3346,
      "ĠValentines": 3347,
      "ĠColor": 3348,
      "ĠSheriff": 3349,
      "GPl": 3350,
      "IN": 3351,
      "Vv": 3352,
      "gn": 3353,
      "gGPl": 3354,
      "ĠLuck": 3355,
      "ther": 3356,
      "ĠTrike": 3357,
      "ĠCris": 3358,
      "ĠShunter": 3359,
      "ĠNews": 3360,
      "ĠPanther": 3361,
      "ĠEngines": 3362,
      "INgn": 3363,
      "ĠLucky": 3364,
      "ĠCrisis": 3365,
      "INgniX": 3366,
      "Fs": 3367,
      "bac": 3368,
      "pt": 3369,
      "wbac": 3370,
      "ĠLad": 3371,
      "ĠCpt": 3372,
      "idow": 3373,
      "ĠWidow": 3374,
      "ĠShunt": 3375,
      "-Man": 3376,
      "ĠChewbac": 3377,
      "ĠBiplane": 3378,
      "-Star": 3379,
      "ĠLadder": 3380,
      "ĠShunti": 3381,
      "ĠChewbacca": 3382,
      "PW": 3383,
      "ePW": 3384,
      "jl": 3385,
      "nny": 3386,
      "ĠMias": 3387,
      "ĠAqu": 3388,
      "ĠRamp": 3389,
      "ĠCrash": 3390,
      "ĠBunny": 3391,
      "aman": 3392,
      "ngine": 3393,
      "-Engine": 3394,
      "ĠCraft": 3395,
      "ĠAquaman": 3396,
      "Bo": 3397,
      "Gw": 3398,
      "ĠMay": 3399,
      "ĠEaster": 3400,
      "-Wheel": 3401,
      "ĠBee": 3402,
      "ĠPlanet": 3403,
      "Box": 3404,
      "Gwu": 3405,
      "Ag": 3406,
      "VK": 3407,
      "Ye": 3408,
      "Ype": 3409,
      "aos": 3410,
      "jAg": 3411,
      "kjAg": 3412,
      "Ġcon": 3413,
      "ĠBed": 3414,
      "ĠGuardian": 3415,
      "ĠChaos": 3416,
      "tralight": 3417,
      "ĠUltralight": 3418,
      "ĠTransit": 3419,
      "YeVK": 3420,
      "YpeYeVK": 3421,
      "Ġcontainer": 3422,
      "BBox": 3423,
      "rift": 3424,
      "ora": 3425,
      "ĠDair": 3426,
      "ĠGam": 3427,
      "hem": 3428,
      "ĠWitch": 3429,
      "ief": 3430,
      "ĠAdrift": 3431,
      "shal": 3432,
      "-Sat": 3433,
      "omaster": 3434,
      "ĠMarshal": 3435,
      "ĠCargomaster": 3436,
      "ĠSweet": 3437,
      "ĠMayhem": 3438,
      "ĠDairy": 3439,
      "ĠGamora": 3440,
      "Af": 3441,
      "CY": 3442,
      "FAf": 3443,
      "FCY": 3444,
      "Gv": 3445,
      "PZ": 3446,
      "mion": 3447,
      "uFAf": 3448,
      "ĠRV": 3449,
      "onse": 3450,
      "ĠCase": 3451,
      "ĠMail": 3452,
      "ĠGranger": 3453,
      "gyro": 3454,
      "ĠZX": 3455,
      "ĠAutogyro": 3456,
      "ĠWhale": 3457,
      "ĠResponse": 3458,
      "ĠAmuse": 3459,
      "ĠHermion": 3460,
      "FCYGv": 3461,
      "PZuFAf": 3462,
      "ĠAmusement": 3463,
      "ĠHermione": 3464,
      "PZuFAfi": 3465,
      "AC": 3466,
      "HAC": 3467,
      "has": 3468,
      "ma": 3469,
      "ĠPud": 3470,
      "ĠPhas": 3471,
      "sey": 3472,
      "ĠDel": 3473,
      "ĠWHAC": 3474,
      "ĠFlash": 3475,
      "ĠBear": 3476,
      "key": 3477,
      "ĠTurkey": 3478,
      "ivery": 3479,
      "ĠMinnie": 3480,
      "ĠHero": 3481,
      "ĠPudsey": 3482,
      "ĠPhasma": 3483,
      "ĠDelivery": 3484,
      "ĠWHACK": 3485,
      "eace": 3486,
      "eeper": 3487,
      "mar": 3488,
      "zard": 3489,
      "ĠNit": 3490,
      "ĠSal": 3491,
      "ĠPeace": 3492,
      "ĠDir": 3493,
      "ĠDemon": 3494,
      "ursion": 3495,
      "ĠBliz": 3496,
      "ĠExcursion": 3497,
      "ĠArmand": 3498,
      "ĠKeeper": 3499,
      "ĠSeaplane": 3500,
      "ĠQB": 3501,
      "ĠSubmar": 3502,
      "azar": 3503,
      "ĠLime": 3504,
      "ĠNitro": 3505,
      "ĠSalazar": 3506,
      "ĠDirt": 3507,
      "ĠBlizzard": 3508,
      "ĠArmando": 3509,
      "ĠSubmarine": 3510,
      "WUV": 3511,
      "uJ": 3512,
      "uel": 3513,
      "wit": 3514,
      "xon": 3515,
      "Ġwit": 3516,
      "ĠFuel": 3517,
      "reck": 3518,
      "ĠVi": 3519,
      "ĠOf": 3520,
      "ĠExxon": 3521,
      "ĠRey": 3522,
      "poiX": 3523,
      "poiXJC": 3524,
      "aff": 3525,
      "fr": 3526,
      "ou": 3527,
      "ovel": 3528,
      "ĠMick": 3529,
      "ĠAfr": 3530,
      "ĠSou": 3531,
      "ange": 3532,
      "anos": 3533,
      "ican": 3534,
      "ĠShovel": 3535,
      "ĠFlag": 3536,
      "motion": 3537,
      "ĠLab": 3538,
      "ĠThanos": 3539,
      "ĠOrange": 3540,
      "ĠMickey": 3541,
      "ĠAfrican": 3542,
      "ĠSouth": 3543,
      "pion": 3544,
      "ylo": 3545,
      "orpion": 3546,
      "igger": 3547,
      "ĠDin": 3548,
      "ĠDigger": 3549,
      "ĠStreak": 3550,
      "ĠKylo": 3551,
      "ĠScorpion": 3552,
      "ĠMidnight": 3553,
      "rat": 3554,
      "sca": 3555,
      "ĠStrat": 3556,
      "eria": 3557,
      "ĠStephanie": 3558,
      "ĠAirliner": 3559,
      "scape": 3560,
      "helicopter": 3561,
      "lon": 3562,
      "ush": 3563,
      "Ġhelicopter": 3564,
      "ĠPush": 3565,
      "let": 3566,
      "ĠWreck": 3567,
      "ĠTrax": 3568,
      "ĠBullet": 3569,
      "-Alon": 3570,
      "ĠArmor": 3571,
      "ĠScout": 3572,
      "ĠWrecker": 3573,
      "-Along": 3574,
      "Cr": 3575,
      "No": 3576,
      "RW": 3577,
      "XX": 3578,
      "iers": 3579,
      "rin": 3580,
      "uNo": 3581,
      "ĠLXX": 3582,
      "ĠTug": 3583,
      "ĠWalker": 3584,
      "und": 3585,
      "ĠPliers": 3586,
      "ĠChief": 3587,
      "ĠIII": 3588,
      "ĠDriver": 3589,
      "ĠAmaz": 3590,
      "ĠHulkbus": 3591,
      "ĠHydroplane": 3592,
      "Crater": 3593,
      "RWuNo": 3594,
      "rinter": 3595,
      "ĠLXXXV": 3596,
      "ĠAmazon": 3597,
      "RWuNog": 3598,
      "Ir": 3599,
      "Xv": 3600,
      "cc": 3601,
      "fXv": 3602,
      "ied": 3603,
      "xgu": 3604,
      "ĠAven": 3605,
      "ĠSide": 3606,
      "ĠSpider": 3607,
      "ĠBeast": 3608,
      "ĠAllied": 3609,
      "osaur": 3610,
      "ĠVenom": 3611,
      "xguM": 3612,
      "ĠAvenger": 3613,
      "Kh": 3614,
      "QN": 3615,
      "YbM": 3616,
      "ium": 3617,
      "isp": 3618,
      "lay": 3619,
      "ĠMK": 3620,
      "ĠAer": 3621,
      "ĠStad": 3622,
      "ĠDisp": 3623,
      "ĠRobin": 3624,
      "ĠReven": 3625,
      "ĠBull": 3626,
      "ĠAirline": 3627,
      "ĠStadium": 3628,
      "ĠDisplay": 3629,
      "ĠRevenge": 3630,
      "PV": 3631,
      "TT": 3632,
      "dre": 3633,
      "ĠMil": 3634,
      "ĠMPV": 3635,
      "ĠMTT": 3636,
      "ĠFed": 3637,
      "thol": 3638,
      "eration": 3639,
      "ĠTine": 3640,
      "ĠTrade": 3641,
      "igator": 3642,
      "ĠEB": 3643,
      "iss": 3644,
      "ĠAndre": 3645,
      "ĠAlligator": 3646,
      "ĠPothol": 3647,
      "ĠChalet": 3648,
      "ĠPatcher": 3649,
      "ĠDesig": 3650,
      "ĠSwiss": 3651,
      "ĠMilk": 3652,
      "ĠFederation": 3653,
      "ĠPothole": 3654,
      "ban": 3655,
      "ien": 3656,
      "rban": 3657,
      "ĠUrban": 3658,
      "ĠUnit": 3659,
      "ĠAlien": 3660,
      "ĠDetector": 3661,
      "ĠValentine": 3662,
      "ĠAlienator": 3663,
      "HK": 3664,
      "ĠTig": 3665,
      "ĠHunter": 3666,
      "oland": 3667,
      "ĠEscape": 3668,
      "ĠBount": 3669,
      "ĠLegoland": 3670,
      "ĠEndor": 3671,
      "ĠBedroom": 3672,
      "ĠTiger": 3673,
      "ĠBounty": 3674,
      "BE": 3675,
      "ZBE": 3676,
      "bag": 3677,
      "gir": 3678,
      "ybag": 3679,
      "ĠStage": 3680,
      "edi": 3681,
      "ĠJedi": 3682,
      "ĠBatgir": 3683,
      "ueZBE": 3684,
      "ĠPanda": 3685,
      "ĠBikes": 3686,
      "ĠAndreas": 3687,
      "ĠBatgirl": 3688,
      "Gp": 3689,
      "Pb": 3690,
      "hO": 3691,
      "inn": 3692,
      "orren": 3693,
      "ĠFinn": 3694,
      "ĠTorren": 3695,
      "ĠHosp": 3696,
      "ĠDavid": 3697,
      "ĠWild": 3698,
      "ĠWork": 3699,
      "isoner": 3700,
      "ĠSears": 3701,
      "ention": 3702,
      "ĠFerry": 3703,
      "ĠPrisoner": 3704,
      "ĠWillis": 3705,
      "gEhO": 3706,
      "ĠInvention": 3707,
      "ĠAero": 3708,
      "PbJ": 3709,
      "ĠTorrent": 3710,
      "ĠHospital": 3711,
      "ĠWorkshop": 3712,
      "UJC": 3713,
      "Vs": 3714,
      "cro": 3715,
      "hn": 3716,
      "king": 3717,
      "ohn": 3718,
      "rives": 3719,
      "yVs": 3720,
      "ĠATR": 3721,
      "ĠCele": 3722,
      "stial": 3723,
      "ĠGandal": 3724,
      "ĠWu": 3725,
      "ĠMoto": 3726,
      "ĠBling": 3727,
      "ĠJohn": 3728,
      "ĠYell": 3729,
      "ĠMaster": 3730,
      "cock": 3731,
      "ĠClown": 3732,
      "ĠArrives": 3733,
      "ĠWheelie": 3734,
      "ĠForager": 3735,
      "egic": 3736,
      "ĠPromotion": 3737,
      "ĠPursuer": 3738,
      "ĠOrder": 3739,
      "ĠHancock": 3740,
      "ĠGround": 3741,
      "ĠLife": 3742,
      "ĠViking": 3743,
      "ĠStrategic": 3744,
      "UJCyVs": 3745,
      "cross": 3746,
      "ĠCelestial": 3747,
      "ĠGandalf": 3748,
      "ĠMotocross": 3749,
      "ĠYellow": 3750,
      "ĠPromotional": 3751,
      "UJCyVsi": 3752,
      "-Pl": 3753,
      "HO": 3754,
      "QM": 3755,
      "bital": 3756,
      "yna": 3757,
      "ĠBar": 3758,
      "ĠBaker": 3759,
      "ĠDyna": 3760,
      "ĠEag": 3761,
      "ĠVulk": 3762,
      "ĠOver": 3763,
      "ĠTrail": 3764,
      "asure": 3765,
      "ĠTrainer": 3766,
      "ĠTracking": 3767,
      "ĠOrbital": 3768,
      "ĠBurger": 3769,
      "-Plane": 3770,
      "ĠBaron": 3771,
      "ĠBakery": 3772,
      "ĠDynamo": 3773,
      "ĠEagle": 3774,
      "ĠOverh": 3775,
      "MT": 3776,
      "NMT": 3777,
      "vz": 3778,
      "ĠBone": 3779,
      "QNNMT": 3780,
      "QNNMTvz": 3781,
      "XT": 3782,
      "rader": 3783,
      "zeria": 3784,
      "ĠFix": 3785,
      "ĠNXT": 3786,
      "ĠCoach": 3787,
      "ĠSebul": 3788,
      "ĠKrader": 3789,
      "ĠPizzeria": 3790,
      "ĠSurface": 3791,
      "-It": 3792,
      "ĠSebulba": 3793,
      "PR": 3794,
      "aid": 3795,
      "fil": 3796,
      "oal": 3797,
      "ĠFash": 3798,
      "ĠRaid": 3799,
      "ĠPle": 3800,
      "ĠPelic": 3801,
      "ĠVPR": 3802,
      "trator": 3803,
      "ĠInfil": 3804,
      "ĠKoal": 3805,
      "ĠStriker": 3806,
      "ĠStudio": 3807,
      "ĠDesign": 3808,
      "ĠFashion": 3809,
      "ĠPleasure": 3810,
      "ĠPelican": 3811,
      "ĠInfiltrator": 3812,
      "ĠKoala": 3813,
      "EF": 3814,
      "ten": 3815,
      "ĠMainten": 3816,
      "ĠStaff": 3817,
      "ĠUNIC": 3818,
      "ĠClone": 3819,
      "ĠWheelin": 3820,
      "ĠVector": 3821,
      "ĠChaser": 3822,
      "ĠGolden": 3823,
      "-Station": 3824,
      "ĠGuardians": 3825,
      "ĠDino": 3826,
      "ĠMaintenance": 3827,
      "ĠUNICEF": 3828,
      "Ef": 3829,
      "FH": 3830,
      "UEf": 3831,
      "mn": 3832,
      "nzy": 3833,
      "rUEf": 3834,
      "tali": 3835,
      "yFH": 3836,
      "ymn": 3837,
      "ĠRay": 3838,
      "ĠGymn": 3839,
      "ĠItali": 3840,
      "ĠChom": 3841,
      "ĠAirboat": 3842,
      "ellite": 3843,
      "ĠSatellite": 3844,
      "uba": 3845,
      "ĠFreeze": 3846,
      "ĠFrenzy": 3847,
      "etta": 3848,
      "ĠScuba": 3849,
      "ĠCrazy": 3850,
      "ĠBerlinetta": 3851,
      "yFHrUEf": 3852,
      "ĠGymnast": 3853,
      "ĠItalia": 3854,
      "ĠChomly": 3855,
      "Pol": 3856,
      "lick": 3857,
      "ĠTumb": 3858,
      "ĠSmo": 3859,
      "ĠSlick": 3860,
      "ĠGir": 3861,
      "ĠAirplane": 3862,
      "ĠTunerX": 3863,
      "affe": 3864,
      "Polybag": 3865,
      "ĠTumbler": 3866,
      "ĠSmokin": 3867,
      "ĠSlickster": 3868,
      "ĠGiraffe": 3869,
      "CN": 3870,
      "MI": 3871,
      "RMI": 3872,
      "YCN": 3873,
      "guard": 3874,
      "iary": 3875,
      "ouse": 3876,
      "xil": 3877,
      "ĠLigh": 3878,
      "thouse": 3879,
      "ĠAuxil": 3880,
      "ĠSUV": 3881,
      "ĠRX": 3882,
      "ola": 3883,
      "ĠGond": 3884,
      "ĠWave": 3885,
      "ĠCart": 3886,
      "ĠSprinter": 3887,
      "ĠProbe": 3888,
      "ĠLauncher": 3889,
      "ĠSonar": 3890,
      "-Sprinter": 3891,
      "ĠDinosaur": 3892,
      "ĠLifeguard": 3893,
      "YCNRMI": 3894,
      "ĠLighthouse": 3895,
      "ĠAuxiliary": 3896,
      "ĠGondola": 3897,
      "AT": 3898,
      "Cqo": 3899,
      "XZ": 3900,
      "YD": 3901,
      "azer": 3902,
      "ture": 3903,
      "uff": 3904,
      "atosaur": 3905,
      "ĠAAT": 3906,
      "eral": 3907,
      "eneral": 3908,
      "ĠGeneral": 3909,
      "acell": 3910,
      "ĠVul": 3911,
      "esmo": 3912,
      "ĠShuff": 3913,
      "uracell": 3914,
      "ĠBlazer": 3915,
      "ievo": 3916,
      "ĠStarfight": 3917,
      "ĠApatosaur": 3918,
      "ĠGrievo": 3919,
      "ĠGTO": 3920,
      "ĠSiesmo": 3921,
      "ĠRemover": 3922,
      "CqoYD": 3923,
      "XZCqoYD": 3924,
      "ĠVulture": 3925,
      "ĠApatosaurus": 3926,
      "ĠGrievous": 3927,
      "Ri": 3928,
      "kRi": 3929,
      "ov": 3930,
      "qM": 3931,
      "wal": 3932,
      "ĠNov": 3933,
      "ĠTail": 3934,
      "anone": 3935,
      "ĠDanone": 3936,
      "ĠEZ": 3937,
      "ĠTwo": 3938,
      "ĠLaser": 3939,
      "-Roadster": 3940,
      "ĠSailboat": 3941,
      "ĠChiefs": 3942,
      "ĠSidewal": 3943,
      "kRif": 3944,
      "ĠNova": 3945,
      "ĠSidewalk": 3946,
      "RC": 3947,
      "do": 3948,
      "gic": 3949,
      "molo": 3950,
      "tide": 3951,
      "yra": 3952,
      "ĠARC": 3953,
      "ĠTyra": 3954,
      "ĠRip": 3955,
      "heele": 3956,
      "ĠCover": 3957,
      "ismolo": 3958,
      "ĠSeismolo": 3959,
      "-Wheele": 3960,
      "ĠScud": 3961,
      "ĠOutdo": 3962,
      "ĠViper": 3963,
      "ĠTyrax": 3964,
      "ĠRiptide": 3965,
      "ĠCovered": 3966,
      "ĠSeismologic": 3967,
      "-Wheeled": 3968,
      "ĠScuderia": 3969,
      "ĠOutdoor": 3970,
      "Li": 3971,
      "eor": 3972,
      "eal": 3973,
      "ough": 3974,
      "pro": 3975,
      "Ġon": 3976,
      "Ġcer": 3977,
      "Ġpro": 3978,
      "ĠStock": 3979,
      "leph": 3980,
      "ĠEleph": 3981,
      "itor": 3982,
      "ĠPlough": 3983,
      "ĠMeteor": 3984,
      "ĠMonitor": 3985,
      "Life": 3986,
      "Ġcereal": 3987,
      "Ġpromotion": 3988,
      "ĠElephant": 3989,
      "ĠFun": 3990,
      "erine": 3991,
      "ĠTactic": 3992,
      "ĠCath": 3993,
      "ĠCrab": 3994,
      "ĠBunge": 3995,
      "ĠCord": 3996,
      "ĠBonnie": 3997,
      "ĠTactical": 3998,
      "ĠCatherine": 3999,
      "ĠBungee": 4000,
      "Ab": 4001,
      "Ss": 4002,
      "XSs": 4003,
      "bike": 4004,
      "uest": 4005,
      "ĠMotorbike": 4006,
      "ĠQuest": 4007,
      "ĠStore": 4008,
      "ĠMailbox": 4009,
      "ĠStrata": 4010,
      "AbXSs": 4011,
      "QX": 4012,
      "Xk": 4013,
      "abo": 4014,
      "hA": 4015,
      "wo": 4016,
      "Ġch": 4017,
      "attle": 4018,
      "ĠMiner": 4019,
      "ĠAstro": 4020,
      "ĠNeed": 4021,
      "ĠTip": 4022,
      "ĠSun": 4023,
      "ĠDash": 4024,
      "tory": 4025,
      "ĠSeattle": 4026,
      "ĠATV": 4027,
      "ĠPolybag": 4028,
      "ĠRunabo": 4029,
      "iefs": 4030,
      "ĠDesigner": 4031,
      "QXn": 4032,
      "Ġchiefs": 4033,
      "ĠMineral": 4034,
      "ĠNeedle": 4035,
      "ĠTipper": 4036,
      "ĠSuntory": 4037,
      "ĠDasher": 4038,
      "ĠRunabout": 4039,
      "-P": 4040,
      "Qu": 4041,
      "TF": 4042,
      "dian": 4043,
      "hk": 4044,
      "ot": 4045,
      "oth": 4046,
      "yP": 4047,
      "ĠMerry": 4048,
      "ĠFet": 4049,
      "ĠRight": 4050,
      "acon": 4051,
      "try": 4052,
      "ulQu": 4053,
      "ĠBooth": 4054,
      "ilot": 4055,
      "ĠTracer": 4056,
      "ĠIndian": 4057,
      "ĠBeacon": 4058,
      "ĠSkele": 4059,
      "ĠSuppl": 4060,
      "ĠCream": 4061,
      "-Round": 4062,
      "phone": 4063,
      "ĠTelephone": 4064,
      "-Go": 4065,
      "QNTF": 4066,
      "-Pilot": 4067,
      "hkQNTF": 4068,
      "ĠSkeleton": 4069,
      "ĠSupply": 4070,
      "mol": 4071,
      "rint": 4072,
      "sar": 4073,
      "ĠLight": 4074,
      "ĠRad": 4075,
      "ĠPul": 4076,
      "ĠCoup": 4077,
      "tra": 4078,
      "ĠDemol": 4079,
      "urer": 4080,
      "urers": 4081,
      "ĠSprint": 4082,
      "ĠCharg": 4083,
      "iller": 4084,
      "ĠLandscape": 4085,
      "ĠAdventurers": 4086,
      "ĠSki": 4087,
      "ĠDriller": 4088,
      "ĠUltra": 4089,
      "ĠTourer": 4090,
      "ĠDesk": 4091,
      "ĠRadar": 4092,
      "ĠPulsar": 4093,
      "ĠCoupe": 4094,
      "ĠDemolition": 4095,
      "ĠCharger": 4096,
      "-L": 4097,
      "zari": 4098,
      "ink": 4099,
      "ĠAzari": 4100,
      "ĠAlt": 4101,
      "ĠKitch": 4102,
      "ĠMagic": 4103,
      "ĠSidecar": 4104,
      "-Link": 4105,
      "ĠKitchen": 4106,
      "lane": 4107,
      "nel": 4108,
      "oplane": 4109,
      "ĠWater": 4110,
      "board": 4111,
      "ĠSkate": 4112,
      "ĠTunnel": 4113,
      "ĠMailman": 4114,
      "ĠAeroplane": 4115,
      "boarder": 4116,
      "ĠSkateboarder": 4117,
      "ĠTunnelator": 4118,
      "cp": 4119,
      "cpz": 4120,
      "Yd": 4121,
      "down": 4122,
      "ki": 4123,
      "wreck": 4124,
      "ĠCow": 4125,
      "ĠPort": 4126,
      "ĠDis": 4127,
      "ĠCoun": 4128,
      "ĠClive": 4129,
      "-Ski": 4130,
      "ĠTurtle": 4131,
      "ĠSentry": 4132,
      "ĠShipwreck": 4133,
      "ĠSaver": 4134,
      "ĠShowdown": 4135,
      "ĠFisherman": 4136,
      "YdX": 4137,
      "ĠDiscovery": 4138,
      "ĠCountry": 4139,
      "ĠShipwrecked": 4140,
      "ĠFill": 4141,
      "ĠPack": 4142,
      "ĠDuck": 4143,
      "ĠBuri": 4144,
      "ayak": 4145,
      "ĠTreasure": 4146,
      "ĠBuilder": 4147,
      "ĠKayak": 4148,
      "ĠAndrea": 4149
    },
    "merges": [
      "0 0",
      "00 0",
      "Ġ -",
      "a t",
      "m p",
      ". d",
      "_ _",
      ".d at",
      ". mp",
      ".mp d",
      "i n",
      "o r",
      "Ġ M",
      "1 0",
      "Ġ A",
      "Ġ F",
      "Ġ L",
      "a in",
      "t h",
      "m e",
      "Ġ N",
      "ĠA u",
      "a me",
      "e r",
      "ĠM ain",
      "L E",
      "O N",
      "T R",
      "I LE",
      "ĠF ILE",
      "ĠL TR",
      "th or",
      "ĠN ame",
      "ĠAu thor",
      "ĠLTR ON",
      "3 0",
      "2 0",
      "4 0",
      "7 0",
      "Ġ T",
      "1 5",
      "Ġ C",
      "6 0",
      "1 9",
      "8 0",
      "Ġ S",
      "Ġ B",
      "1 4",
      "9 9",
      "2 4",
      "1 6",
      "a n",
      "7 1",
      "5 0",
      "10 2",
      "Ġ R",
      "1 3",
      "Ġ H",
      "ĠT r",
      "7 2",
      "1 2",
      "a r",
      "6 6",
      "2 5",
      "o n",
      "30 2",
      "c k",
      "7 8",
      "9 0",
      "4 20",
      "1 8",
      "2 8",
      "Ġ P",
      "3 6",
      "3 00",
      "4 2",
      "1 7",
      "3 2",
      "s e",
      "o l",
      "4 8",
      "o w",
      "s t",
      "6 5",
      "3 9",
      "7 6",
      "3 8",
      "9 8",
      "1 1",
      "r e",
      "a l",
      "1 00",
      "ĠH o",
      "70 7",
      "ĠS t",
      "l e",
      "4 3",
      "7 5",
      "e d",
      "5 6",
      "e n",
      "i g",
      "Ġ D",
      "Ġ G",
      "e t",
      "2 6",
      "4 4",
      "5 00",
      "u ck",
      "7 9",
      "8 8",
      "2 10",
      "2 3",
      "in g",
      "10 1",
      "Ġ E",
      "a c",
      "1 20",
      "e l",
      "4 6",
      "r o",
      "5 8",
      "Ġ U",
      "ĠTr uck",
      "a d",
      "7 4",
      "2 9",
      "ĠHo u",
      "t er",
      "Ġ V",
      "ĠHou se",
      "i c",
      "ĠT ow",
      "h e",
      "5 4",
      "8 66",
      "ĠC r",
      "5 2",
      "6 4",
      "3 20",
      "i d",
      "1 10",
      "1 60",
      "7 3",
      "15 0",
      "i on",
      "3 3",
      "Ġ I",
      "ig h",
      "9 6",
      "1 40",
      "2 13",
      "5 3",
      "2 2",
      "Ġ O",
      "ĠR o",
      "3 10",
      "2 00",
      "4 9",
      "2 78",
      "l er",
      "6 8",
      "g e",
      "an e",
      "5 5",
      "ĠC o",
      "ĠB r",
      "1 30",
      "2 7",
      "5 9",
      "an d",
      "99 9",
      "o p",
      "6 9",
      "st er",
      "42 1",
      "0 8",
      "ĠSt ar",
      "t r",
      "ĠE x",
      "7 7",
      "l d",
      "i t",
      "30 3",
      "3 4",
      "e s",
      "1 80",
      "al l",
      "u m",
      "i v",
      "ĠCr ane",
      "2 1",
      "Ġ W",
      "ĠB u",
      "3 5",
      "6 00",
      "f f",
      "s se",
      "ĠTr a",
      "i th",
      "2 40",
      "8 4",
      "u n",
      "1 70",
      "19 0",
      "ĠTow er",
      "8 00",
      "ĠL o",
      "ĠV ol",
      "er r",
      "ĠS h",
      "5 1",
      "65 5",
      "3 66",
      "C S",
      "ĠU CS",
      "30 6",
      "3 71",
      "36 2",
      "6 14",
      "ĠM o",
      "s p",
      "3 25",
      "ol o",
      "ĠD e",
      "8 3",
      "at ion",
      "igh ter",
      "a y",
      "u r",
      "m o",
      "1 12",
      "2 20",
      "or t",
      "4 00",
      "ĠR ac",
      "a ck",
      "w ith",
      "id ge",
      "ĠBr idge",
      "2 80",
      "4 7",
      "ĠC ar",
      "ĠU n",
      "4 1",
      "ĠC olo",
      "sse um",
      "ĠColo sseum",
      "3 70",
      "i le",
      "8 2",
      "99 6",
      "ĠB en",
      "u l",
      "i re",
      "30 1",
      "c ed",
      "c he",
      "5 7",
      "ĠT he",
      "t or",
      "ĠR e",
      "in i",
      "Ġ with",
      "i s",
      "a s",
      "3 79",
      "ĠB l",
      "6 1",
      "3 7",
      "ĠTr e",
      "0 9",
      "2 60",
      "10 4",
      "a v",
      "ĠS p",
      "2 30",
      "w ay",
      "10 7",
      "u t",
      "ĠC on",
      "ĠO ff",
      "25 9",
      "b ile",
      "ĠB o",
      "ro c",
      "i ck",
      "6 2",
      "er i",
      "2 50",
      "3 1",
      "i e",
      "tr on",
      "ĠVol tron",
      "ĠTr ain",
      "ĠC a",
      "ĠTre e",
      "12 8",
      "er s",
      "ow er",
      "8 9",
      "2 70",
      "eri al",
      "ĠF ire",
      "ĠTow n",
      "Ġ J",
      "ĠC or",
      "08 7",
      "Ġ X",
      "ĠP l",
      "19 8",
      "14 4",
      "24 2",
      "or d",
      "4 16",
      "n er",
      "mp erial",
      "ĠI mperial",
      "ad er",
      "9 66",
      "op ter",
      "3 40",
      "ĠM ini",
      "el ic",
      "a m",
      "v er",
      "3 60",
      "4 30",
      "2 90",
      "ĠC h",
      "elic opter",
      "4 5",
      "30 4",
      "ĠH elicopter",
      "c t",
      "99 8",
      "15 2",
      "2 72",
      "24 3",
      "g h",
      "ĠB ig",
      "0 6",
      "ĠB at",
      "i l",
      "ĠP ower",
      "i ld",
      "iv e",
      "i r",
      "ĠTr ac",
      "ĠI n",
      "t ain",
      "13 6",
      "3 24",
      "99 2",
      "ĠTr an",
      "7 50",
      "8 19",
      "e ed",
      "c h",
      "ĠM er",
      "ced es",
      "ĠMer cedes",
      "16 8",
      "9 3",
      "ĠCo m",
      "ĠA d",
      "99 7",
      "9 60",
      "a ge",
      "u e",
      "ĠStar f",
      "ĠStarf ighter",
      "98 1",
      "ĠAd v",
      "ĠEx c",
      "- w",
      "4 40",
      "ĠH igh",
      "20 8",
      "ĠBu ild",
      "a g",
      "9 11",
      "-w ing",
      "ic e",
      "Ġ Y",
      "ĠTran sp",
      "60 4",
      "9 80",
      "9 39",
      "in e",
      "32 1",
      "6 7",
      "ĠEx p",
      "ĠS e",
      "ĠF l",
      "ĠSt ation",
      "28 8",
      "ad e",
      "ar t",
      "mo bile",
      "17 6",
      "38 2",
      "at or",
      "ĠS n",
      "40 7",
      "ĠTransp ort",
      "9 7",
      "ĠA n",
      "ĠHigh way",
      "it ed",
      "8 1",
      "an g",
      "b o",
      "24 1",
      "8 5",
      "s che",
      "or sche",
      "ĠP orsche",
      "3 80",
      "3 30",
      "ĠSn ow",
      "en t",
      "8 70",
      "err ain",
      "ar d",
      "- W",
      "d el",
      "9 2",
      "3 90",
      "58 9",
      "ĠCor ner",
      "0 17",
      "49 5",
      "ĠRac er",
      "y er",
      "Ġ and",
      "u p",
      "ĠM a",
      "ĠUn ited",
      "ĠR ol",
      "ĠBat mobile",
      "6 3",
      "38 3",
      "75 1",
      "e m",
      "40 3",
      "ĠT errain",
      "9 23",
      "b b",
      "ĠHo bb",
      "-W ing",
      "ĠHobb y",
      "c e",
      "ĠM an",
      "8 80",
      "15 5",
      "ĠRo ad",
      "ĠTrac tor",
      "i ler",
      "ĠF ighter",
      "a w",
      "19 6",
      "25 8",
      "9 00",
      "12 9",
      "ĠRac e",
      "ĠSt at",
      "ĠCo a",
      "ĠA roc",
      "ĠBen z",
      "ĠAroc s",
      "i z",
      "6 38",
      "ĠTra iler",
      "av ator",
      "ĠExc avator",
      "3 46",
      "ĠA ir",
      "4 80",
      "d er",
      "b el",
      "ĠRe bel",
      "ĠJ et",
      "2 16",
      "2 79",
      "' s",
      "ac e",
      "32 2",
      "ĠA p",
      "9 5",
      "48 8",
      "c o",
      "8 7",
      "i b",
      "ĠPl ane",
      "3 50",
      "42 7",
      "st ro",
      "ĠRol ler",
      "ĠCoa ster",
      "4 99",
      "18 4",
      "ĠDe stro",
      "ĠDestro yer",
      "98 4",
      "o f",
      "t re",
      "t le",
      "tre me",
      "19 1",
      "1 14",
      "36 7",
      "ĠBl ack",
      "on s",
      "o k",
      "19 2",
      "75 9",
      "ĠL and",
      "00 3",
      "ĠSt re",
      "17 4",
      "ĠAu t",
      "ro ad",
      "ĠCr u",
      "0 7",
      "0 52",
      "40 4",
      "he el",
      "9 4",
      "6 98",
      "76 1",
      "ĠH all",
      "44 7",
      "ĠD u",
      "ĠStre et",
      "Ġ of",
      "ĠO ld",
      "ff ord",
      "ĠTra fford",
      "che ster",
      "ĠMan chester",
      "19 5",
      "ĠSh ut",
      "ĠShut tle",
      "13 9",
      "5 60",
      "ĠSp ace",
      "ĠP ick",
      "6 75",
      "ĠC l",
      "ĠBr ick",
      "ĠI I",
      "ster s",
      "4 10",
      "ĠR S",
      "ĠLo g",
      "ĠCr aw",
      "ĠCraw ler",
      "s h",
      "u st",
      "5 74",
      "eed er",
      "ĠG re",
      "6 20",
      "u re",
      "ĠA r",
      "an k",
      "0 3",
      "9 24",
      "12 2",
      "0 30",
      "s s",
      "10 8",
      "p le",
      "8 16",
      "10 6",
      "5 20",
      "ĠW heel",
      "it y",
      "9 65",
      "88 5",
      "r ol",
      "7 00",
      "ĠBuild ing",
      "t e",
      "ĠM ack",
      "th em",
      "ĠAn them",
      "16 3",
      "7 10",
      "o ck",
      "ĠC en",
      "0 40",
      "17 9",
      "b in",
      "40 8",
      "ĠCo ol",
      "ĠOff road",
      "4 50",
      "3 42",
      "ĠEx treme",
      "36 8",
      "75 2",
      "id e",
      "ĠLo ader",
      "32 3",
      "98 7",
      "4 28",
      "30 8",
      "f t",
      "igh t",
      "- M",
      "t ic",
      "9 40",
      "p ort",
      "u gh",
      "ĠB e",
      "el l",
      "19 3",
      "ĠAdv ent",
      "5 80",
      "1 13",
      "1 19",
      "2 24",
      "ĠRo ugh",
      "4 60",
      "ĠIn ter",
      "0 2",
      "at h",
      "28 7",
      "is er",
      "ĠCru iser",
      "ĠB uck",
      "ĠDe ath",
      "60 5",
      "8 6",
      "3 74",
      "9 78",
      "ĠS k",
      "sp eeder",
      "ĠSnow speeder",
      "00 1",
      "on d",
      "13 2",
      "um n",
      "ĠAut umn",
      "0 1",
      "12 3",
      "9 1",
      "9 51",
      "ĠG ar",
      "q u",
      "99 0",
      "ĠF err",
      "i an",
      "ĠAdvent ure",
      "16 2",
      "n g",
      "60 9",
      "all y",
      "ĠSh op",
      "1 24",
      "65 3",
      "ar i",
      "1 18",
      "f e",
      "48 9",
      "1 16",
      "30 7",
      "10 5",
      "39 3",
      "ĠFerr ari",
      "un tain",
      "0 19",
      "23 5",
      "c tr",
      "14 8",
      "b h",
      "ĠL ie",
      "bh err",
      "ĠLie bherr",
      "18 6",
      "in d",
      "4 54",
      "68 3",
      "ĠF or",
      "a il",
      "ĠBuck et",
      "5 70",
      "k e",
      "3 78",
      "ig ade",
      "ĠBr igade",
      "ĠCa fe",
      "ĠFl at",
      "ĠGar age",
      "24 5",
      "14 7",
      "ĠH ar",
      "ĠR es",
      "I E",
      "ĠT IE",
      "ĠR ally",
      "98 2",
      "ĠS up",
      "ĠM et",
      "r u",
      "1 78",
      "6 80",
      "15 6",
      "25 6",
      "13 4",
      "15 1",
      "99 3",
      "tain er",
      "le ctr",
      "14 6",
      "28 4",
      "- S",
      "3 12",
      "ĠDu mp",
      "7 60",
      "at er",
      "60 8",
      "ĠM ust",
      "ĠF ord",
      "ĠMo bile",
      "ĠMust ang",
      "24 8",
      "24 4",
      "ĠP ar",
      "m and",
      "5 42",
      "ĠS m",
      "98 5",
      "12 5",
      "4 90",
      "a ur",
      "17 3",
      "9 50",
      "v o",
      "ĠCon tainer",
      "56 7",
      "o m",
      "43 3",
      "4 15",
      "am b",
      "l or",
      "ĠExp lor",
      "ĠExplor er",
      "ĠA T",
      "0 25",
      "ĠVol vo",
      "2 32",
      "st ru",
      "stru ct",
      "ĠC re",
      "ĠCom mand",
      "Ġ %",
      "ĠG r",
      "5 76",
      "12 1",
      "24 6",
      "re ss",
      "ĠStat e",
      "6 40",
      "4 70",
      "29 6",
      "ĠM ar",
      "ac h",
      "0 10",
      "3 52",
      "65 4",
      "mo t",
      "5 30",
      "ĠA l",
      "7 20",
      "12 6",
      "ĠL ion",
      "il l",
      "b ed",
      "ĠFlat bed",
      "ib le",
      "11 1",
      "44 9",
      "an ced",
      "ĠAdv anced",
      "a u",
      "o del",
      "-M odel",
      "32 9",
      "a sse",
      "ĠP asse",
      "ng er",
      "ĠPasse nger",
      "ĠLion s",
      "59 7",
      ". ld",
      "iv ers",
      "ĠUn ivers",
      ".ld r",
      "ĠUnivers al",
      "6 43",
      "t t",
      "6 74",
      "ĠSm all",
      "80 6",
      "ĠHo t",
      "88 6",
      "5 40",
      "10 9",
      "6 60",
      "0 70",
      "e g",
      "ĠP ro",
      "er t",
      "66 3",
      "ĠS et",
      "e st",
      "ar th",
      "ĠD arth",
      "ĠMa ul",
      "30 5",
      "t ible",
      "ĠCon ver",
      "ĠConver tible",
      "4 56",
      "7 66",
      "16 4",
      "1 72",
      "sh op",
      "ĠG T",
      "ĠS i",
      "ĠB ank",
      "4 55",
      "3 36",
      "99 4",
      "p er",
      "6 24",
      "7 99",
      "ĠG roc",
      "ĠGre en",
      "ĠGroc er",
      "7 74",
      "76 3",
      "an t",
      "ĠH e",
      "ĠPro p",
      "4 43",
      "A S",
      "ĠSup er",
      "s ons",
      "mp sons",
      "ĠSi mpsons",
      "6 48",
      "ĠM ed",
      "ĠOff ice",
      "8 11",
      "ĠBo ok",
      "ĠBook shop",
      "6 16",
      "15 4",
      "Ġ in",
      "or gh",
      "ĠL amb",
      "13 8",
      "ow n",
      "st aur",
      "ĠG all",
      "ĠMo untain",
      "ĠRe staur",
      "is ian",
      "ard o",
      "ĠPar isian",
      "orgh ini",
      "ĠLamb orghini",
      "ĠGall ardo",
      "ĠRestaur ant",
      "1 15",
      "44 4",
      "26 4",
      "30 9",
      "8 15",
      "0 43",
      "ĠPl an",
      "14 2",
      "g w",
      "ĠHo gw",
      "ĠD r",
      "art s",
      "ĠHogw arts",
      "9 58",
      "Ġ K",
      "ĠP ol",
      "69 5",
      "ĠCen ter",
      "- R",
      "-R o",
      "ĠPol ice",
      "Ġ x",
      "15 8",
      "0 5",
      "8 27",
      "ĠTra ck",
      "5 50",
      "9 70",
      "ĠD et",
      "ĠDet e",
      "ĠM on",
      "o d",
      "ĠG al",
      "ĠRo ver",
      "iv es",
      "lectr ic",
      "ĠCom bin",
      "ĠExp ress",
      "ĠCombin ation",
      "15 9",
      "4 12",
      "6 10",
      "8 25",
      "10 3",
      "4 17",
      "co mot",
      "comot ive",
      "88 4",
      "66 9",
      "ĠP et",
      "17 7",
      "39 4",
      "38 9",
      "ĠBl ock",
      "3 18",
      "5 98",
      "73 4",
      "ĠAir port",
      "25 4",
      "5 10",
      "5 77",
      "4 74",
      "0 35",
      "ĠS qu",
      "13 5",
      "25 3",
      "ct ives",
      "ĠDete ctives",
      "0 57",
      "6 37",
      "e ar",
      "l o",
      "29 2",
      "c ue",
      "ĠRes cue",
      "80 8",
      "i x",
      "v en",
      "0 28",
      "9 33",
      "a se",
      "44 5",
      "6 39",
      "9 74",
      "4 48",
      "3 44",
      "46 4",
      "0 21",
      "ĠMo del",
      "48 4",
      "3 28",
      "98 9",
      "s ide",
      "60 2",
      "60 1",
      "12 7",
      "ĠLo comotive",
      "9 30",
      "2 19",
      "ĠS at",
      "st le",
      "ĠCa stle",
      "me r",
      "ĠC ity",
      "struct ion",
      "ĠR ail",
      "ic le",
      "4 19",
      "ĠAp ple",
      "00 2",
      "18 9",
      "1 71",
      "ĠF r",
      "78 1",
      "m an",
      "14 9",
      "16 5",
      "8 75",
      "40 2",
      "ĠL ine",
      "40 6",
      "- B",
      "89 1",
      "2 12",
      "8 60",
      "4 14",
      "ĠH au",
      "ur n",
      "ĠSat urn",
      "ĠHau ler",
      "7 19",
      "ĠRo bo",
      "1 17",
      "80 9",
      "6 88",
      "25 5",
      "in er",
      "i ft",
      "16 6",
      "3 39",
      "75 8",
      "19 7",
      "39 5",
      "op er",
      "8 14",
      "48 3",
      "9 56",
      "iz ed",
      "3 76",
      "18 8",
      "90 6",
      "ĠBu s",
      "0 12",
      "ar ing",
      "ĠRo aring",
      "ĠRoad sters",
      "9 20",
      "ĠBu sters",
      "7 32",
      "f or",
      "a i",
      "ĠR un",
      "i ke",
      "18 2",
      "ĠStat ue",
      "88 3",
      "3 58",
      "ĠV e",
      "15 7",
      "m ith",
      "s mith",
      "65 6",
      "ĠBlack smith",
      "65 9",
      "ĠN AS",
      "ol lo",
      "ĠAp ollo",
      "ĠNAS A",
      "ĠRun ner",
      "2 25",
      "2 14",
      "u s",
      "ĠBlock ade",
      "at ed",
      "ul ated",
      "ĠAr tic",
      "ĠArtic ulated",
      "z er",
      "se l",
      "ĠD ie",
      "ĠDie sel",
      "8 28",
      "h icle",
      "ĠL ond",
      "ĠBl ue",
      "ĠVe hicle",
      "ĠLond on",
      "14 1",
      "rol iner",
      "ĠMet roliner",
      "5 99",
      "5 90",
      "ĠL a",
      "- D",
      "ers k",
      "ĠMa ersk",
      "26 2",
      "66 1",
      "f en",
      "ĠDe fen",
      "av y",
      "ĠHe avy",
      "ĠDefen der",
      "9 25",
      "o zer",
      "50 9",
      "13 7",
      "v al",
      "ie val",
      "ĠMed ieval",
      "0 72",
      "h o",
      "- E",
      "54 5",
      "14 5",
      "5 54",
      "ĠAl l",
      "6 50",
      "ĠPick up",
      "8 20",
      "29 7",
      "42 6",
      "16 7",
      "58 5",
      "20 1",
      "8 13",
      "23 4",
      "9 14",
      "0 41",
      "6 90",
      "40 1",
      "14 3",
      "ĠE n",
      "p l",
      "20 4",
      "08 6",
      "16 9",
      "13 3",
      "mp ire",
      "ĠE mpire",
      "2 38",
      "39 2",
      "98 6",
      "96 7",
      "0 20",
      "ĠR ed",
      "it ion",
      "ĠL ib",
      "ĠTr i",
      "ert y",
      "ĠLib erty",
      "19 9",
      "88 2",
      "7 78",
      "26 8",
      "d ition",
      "r a",
      "ĠE dition",
      "ĠSe a",
      "ĠH or",
      "64 7",
      "4 24",
      "16 1",
      "un ch",
      "8 40",
      "ĠTri ple",
      "2 36",
      "6 78",
      "ĠP r",
      "9 26",
      "4 32",
      "09 4",
      "99 5",
      "me n",
      "13 1",
      "2 65",
      "3 54",
      "8 72",
      "ĠO ce",
      "ĠOce an",
      "38 4",
      "8 50",
      "17 5",
      "2 28",
      "8 46",
      "2 76",
      "or m",
      "2 29",
      "20 7",
      "ar s",
      "3 13",
      "ĠT ur",
      "ĠR ig",
      "33 1",
      "36 5",
      "78 4",
      "ĠBe ach",
      "39 1",
      "9 76",
      "9 48",
      "p h",
      "u b",
      "71 8",
      "ĠMo tor",
      "ĠRobo t",
      "6 35",
      "6 76",
      "g y",
      "i mo",
      "en z",
      "ĠUn imo",
      "ĠCre w",
      "-B enz",
      "ĠUnimo g",
      "15 3",
      "ĠH ut",
      "v e",
      "4 73",
      "a st",
      "id er",
      "8 44",
      "18 7",
      "2 66",
      "ĠM art",
      "ĠB ase",
      "0 56",
      "20 6",
      "- e",
      "4 96",
      "ĠT h",
      "-e lectric",
      "2 17",
      "3 59",
      "a as",
      "d ul",
      "er ion",
      "ĠV C",
      "ĠMo dul",
      "ĠX erion",
      "ĠCl aas",
      "ĠModul ars",
      "7 40",
      "75 4",
      "25 2",
      "ĠP o",
      "60 6",
      "9 47",
      "ac tic",
      "5 52",
      "ĠF ive",
      "60 7",
      "4 59",
      "8 65",
      "h am",
      "ĠC ater",
      "ĠSe ven",
      "ĠCater ham",
      "8 23",
      "3 72",
      "19 4",
      "8 52",
      "6 30",
      "18 5",
      "c re",
      "36 4",
      "ĠHouse s",
      "as h",
      "ĠGal actic",
      "ĠRS R",
      "8 30",
      "69 2",
      "36 1",
      "22 7",
      "6 99",
      "5 28",
      "4 53",
      "ĠC ent",
      "4 72",
      "6 28",
      "ĠA tt",
      "68 1",
      "ĠAtt ack",
      "48 5",
      "g gy",
      "ĠBu ggy",
      "ĠSk y",
      "18 3",
      "3 16",
      "b ine",
      "8 59",
      "2 18",
      "64 1",
      "y e",
      "00 7",
      "98 8",
      "tr al",
      "3 11",
      "e ing",
      "ĠB ell",
      "re y",
      "ĠO sp",
      "ĠBo eing",
      "ĠOsp rey",
      "66 2",
      "42 3",
      "23 3",
      "ĠN e",
      "c er",
      "49 1",
      "32 6",
      "4 38",
      "ĠG ear",
      "ind ers",
      "ĠCommand er",
      "ĠGr inders",
      "6 12",
      "b re",
      "er bre",
      "ĠG ing",
      "erbre ad",
      "ĠGing erbread",
      "38 6",
      "8 18",
      "ĠGre at",
      "2 26",
      "28 5",
      "ĠBu l",
      "men t",
      "43 7",
      "88 8",
      "ĠA mer",
      "ĠAmer ic",
      "3 56",
      "22 2",
      "38 5",
      "2 11",
      "8 76",
      "2 39",
      "E G",
      "ĠL EG",
      "ĠLEG O",
      "4 79",
      "28 2",
      "39 6",
      "E K",
      "ĠHot el",
      "3 75",
      "ĠDr ag",
      "ĠSp eed",
      "78 2",
      "r s",
      "ĠMar k",
      "ĠT w",
      "s u",
      "ĠM ix",
      "ĠF re",
      "ĠMix er",
      "69 3",
      "33 4",
      "7 80",
      "iz on",
      "ĠHor izon",
      "9 79",
      "ĠCh al",
      "55 9",
      "8 12",
      "ĠA st",
      "ame s",
      "ĠB ond",
      "42 2",
      "ĠD B",
      "ĠJ ames",
      "ĠMart in",
      "ĠAst in",
      "3 19",
      "08 2",
      "ĠH ol",
      "id ay",
      "ĠHol iday",
      "0 15",
      "9 36",
      "l us",
      "ĠExc lus",
      "ĠExclus ive",
      "68 9",
      "6 70",
      "43 4",
      "49 3",
      "ce p",
      "ĠInter cep",
      "6 33",
      "69 4",
      "ĠTw in",
      "ĠCen tral",
      "ĠC roc",
      "od ile",
      "ĠCroc odile",
      "9 13",
      "c ra",
      "cra ft",
      "4 65",
      "5 18",
      "i p",
      "26 7",
      "2 73",
      "Ġ Z",
      "9 32",
      "4 18",
      "9 29",
      "6 27",
      "ĠL ift",
      "46 9",
      "ĠIn struction",
      "n ge",
      "ĠLa unch",
      "9 73",
      "4 58",
      "70 8",
      "0 31",
      "18 1",
      "2 23",
      "33 3",
      "9 53",
      "3 53",
      "r i",
      "71 2",
      "le nge",
      "ĠChal lenge",
      "c y",
      "p o",
      "96 1",
      "5 23",
      "6 23",
      "e p",
      "ĠFre ight",
      "6 34",
      "ar e",
      "5 12",
      "e am",
      "78 5",
      "ĠRo d",
      "6 11",
      "53 1",
      "7 43",
      "9 52",
      "20 2",
      "in a",
      "-S T",
      "7 42",
      "- A",
      "ar g",
      "3 73",
      "23 7",
      "ĠP at",
      "ld ozer",
      "un t",
      "ĠBul ldozer",
      "2 71",
      "9 27",
      "ĠV ader",
      "ĠCa bin",
      "75 5",
      "56 8",
      "ĠG as",
      "6 15",
      "6 46",
      "28 1",
      "ĠT arg",
      "ĠTarg a",
      "2 15",
      "k s",
      "w ag",
      "ĠC ro",
      "et le",
      "ĠVol ks",
      "ĠBe etle",
      "wag en",
      "ĠVolks wagen",
      "ĠT ank",
      "50 7",
      "66 8",
      "6 36",
      "9 19",
      "28 3",
      "at e",
      "78 8",
      "26 1",
      "ĠS en",
      "0 60",
      "5 11",
      "ĠG o",
      "0 36",
      "8 64",
      "it e",
      "34 1",
      "g ing",
      "l s",
      "ĠLog ging",
      "ĠMark et",
      "7 73",
      "8 10",
      "80 4",
      "36 3",
      "49 2",
      "6 96",
      "00 8",
      "66 4",
      "ĠD ro",
      "ĠDro id",
      "0 88",
      "50 1",
      "2 74",
      "5 15",
      "48 6",
      "00 6",
      "8 49",
      "76 4",
      "le y",
      "7 16",
      "ĠHar ve",
      "ĠHarve ster",
      "73 7",
      "8 67",
      "55 1",
      "3 32",
      "20 9",
      "ĠB ike",
      "5 44",
      "a f",
      "ĠHo ver",
      "ĠSk ul",
      "for cer",
      "ĠEn forcer",
      "ĠHover craft",
      "0 4",
      "ĠC at",
      "ĠRoad ster",
      "70 2",
      "24 9",
      "i m",
      "27 7",
      "-A T",
      "c le",
      "78 7",
      "26 9",
      "40 9",
      "7 24",
      "8 90",
      "f ro",
      "Ġ fro",
      "70 5",
      "ĠS olo",
      "ĠTrack ed",
      "Ġfro m",
      "ĠCo oper",
      "66 7",
      "a b",
      "5 36",
      "7 72",
      "8 69",
      "20 5",
      "ĠU l",
      "ĠW ag",
      "8 58",
      "M w",
      "ĠSnow pl",
      "ĠSnowpl ow",
      "0 50",
      "C ity",
      "99 1",
      "ĠRo ck",
      "ĠTur bo",
      "9 71",
      "20 3",
      "0 80",
      "22 1",
      "76 8",
      "7 90",
      "43 1",
      "ĠMet ro",
      "0 66",
      "z a",
      "ĠF ort",
      "tr ol",
      "f al",
      "g ar",
      "ĠTra fal",
      "ĠSqu are",
      "ĠTrafal gar",
      "- U",
      "-U p",
      "7 70",
      "08 1",
      "90 4",
      "t ro",
      "ĠCo tt",
      "ĠCott age",
      "a x",
      "9 22",
      "9 28",
      "ĠR ider",
      "ĠCom bine",
      "00 4",
      "0 13",
      "3 55",
      "b a",
      "ĠRail way",
      "29 1",
      "W D",
      "24 7",
      "9 75",
      "80 2",
      "98 3",
      "3 49",
      "4 11",
      "8 39",
      "0 90",
      "09 1",
      "9 34",
      "58 4",
      "44 6",
      "80 7",
      "3 17",
      "ĠF at",
      "ĠHou rs",
      "al e",
      "5 46",
      "ĠE m",
      "et t",
      "ĠW r",
      "49 4",
      "er v",
      "ĠNe w",
      "08 3",
      "46 2",
      "av id",
      "7 79",
      "34 7",
      "Ġ th",
      "Ġth e",
      "or k",
      "ĠSt unt",
      "2 75",
      "5 43",
      "9 46",
      "b er",
      "7 30",
      "ĠBo ba",
      "4 98",
      "76 7",
      "4 51",
      "er man",
      "65 7",
      "79 3",
      "3 77",
      "ĠS y",
      "56 4",
      "28 9",
      "26 3",
      "ĠPat rol",
      "4 25",
      "80 3",
      "7 15",
      "ĠG erman",
      "ĠU p",
      "2 98",
      "c ar",
      "ĠT o",
      "36 9",
      "ĠD es",
      "59 2",
      "ĠMotor ized",
      "8 48",
      "29 4",
      "ĠF ett",
      "ĠC ust",
      "ĠCust om",
      "35 7",
      "8 29",
      "6 72",
      "ĠCent ur",
      "ĠCustom ized",
      "40 5",
      "7 36",
      "ut y",
      "ĠCre at",
      "0 79",
      "X f",
      "h Xf",
      "ĠL eg",
      "ĠC he",
      "ĠUl t",
      "hXf Mw",
      "50 4",
      "58 6",
      "s ation",
      "ĠSen sation",
      "0 38",
      "3 38",
      "ĠE W",
      "8 68",
      "4 52",
      "a k",
      "g k",
      "ĠO l",
      "EK P",
      "gk EKP",
      "4 78",
      "29 3",
      "7 76",
      "s on",
      "u ard",
      "Ġ af",
      "ĠG te",
      "as ons",
      "ĠBo y",
      "ĠCor se",
      "ĠCh ang",
      "ĠSe asons",
      "ĠHar ley",
      "-D avid",
      "ĠChang ing",
      "-David son",
      "ĠHo me",
      "ĠSh ell",
      "ĠFor est",
      "0 26",
      "34 5",
      "ĠF X",
      "76 2",
      "52 2",
      "6 42",
      "8 26",
      "9 64",
      "8 21",
      "25 1",
      "on er",
      "ame l",
      "ĠC amel",
      "ĠS op",
      "an ce",
      "ĠCon cre",
      "ĠSop with",
      "ĠConcre te",
      "3 48",
      "2 99",
      "6 13",
      "77 7",
      "0 71",
      "25 7",
      "7 38",
      "ĠCh as",
      "8 99",
      "ĠG ho",
      "et a",
      "ĠFr on",
      "ĠWag on",
      "ĠGho st",
      "3 14",
      "ĠS c",
      "9 77",
      "ĠP ur",
      "79 6",
      "-Ro ader",
      "ĠPur su",
      "5 73",
      "8 96",
      "9 10",
      "3 15",
      "70 6",
      "ĠBo at",
      "7 46",
      "ĠL e",
      "96 8",
      "3 99",
      "ĠW ash",
      "i as",
      "ĠAut o",
      "39 7",
      "00 5",
      "70 9",
      "5 26",
      "6 18",
      "5 16",
      "m ul",
      "64 5",
      "33 5",
      "ĠFor mul",
      "ĠFormul a",
      "4 57",
      "23 1",
      "68 4",
      "7 14",
      "w ater",
      "ĠF all",
      "ing water",
      "ĠFall ingwater",
      "ĠTank er",
      "ĠCon trol",
      "ĠFor k",
      "0 45",
      "8 77",
      "0 47",
      "5 17",
      "o oner",
      "ĠS ch",
      "ĠE ye",
      "ĠSkul ls",
      "ĠSch ooner",
      "u d",
      "28 6",
      "ĠSh ip",
      "ĠFl y",
      "8 36",
      "3 43",
      "66 6",
      "ĠCl ock",
      "89 3",
      "7 98",
      "ĠSt orm",
      "el ler",
      "tro oper",
      "ĠStorm trooper",
      "96 9",
      "4 77",
      "6 32",
      "9 44",
      "58 2",
      "and ler",
      "R x",
      "b x",
      "65 8",
      "Rx bx",
      "v el",
      "ĠPursu it",
      "6 19",
      "v et",
      "v rol",
      "58 7",
      "ĠCor vet",
      "ĠChe vrol",
      "ĠCorvet te",
      "ĠChevrol et",
      "5 88",
      "c on",
      "72 9",
      "54 7",
      "0 18",
      "33 7",
      "6 29",
      "8 79",
      "ac ation",
      "ĠV acation",
      "ĠS P",
      "un der",
      "ĠBeach side",
      "ĠTh under",
      "50 5",
      "Ġ Q",
      "ĠN a",
      "9 41",
      "70 4",
      "5 48",
      "6 44",
      "38 1",
      "r on",
      "y z",
      "iv et",
      "ĠDr ive",
      "ĠPr ivet",
      "6 17",
      "38 8",
      "68 2",
      "me t",
      "ĠCru sh",
      "ĠEm met",
      "0 34",
      "t own",
      "ĠD own",
      "ĠDe po",
      "ch er",
      "ĠDown town",
      "ĠDepo t",
      "9 21",
      "56 2",
      "a ke",
      "t o",
      "o untain",
      "v i",
      "ĠM ind",
      "ĠF ountain",
      "80 5",
      "72 8",
      "st orm",
      "ĠTre vi",
      "ĠMind storm",
      "ĠMindstorm s",
      "ain for",
      "ĠS w",
      "ĠR ainfor",
      "al s",
      "ĠW ill",
      "ĠAn im",
      "ĠDes ert",
      "ĠRainfor est",
      "ĠAnim als",
      "52 1",
      "73 1",
      "55 5",
      "ĠB on",
      "co ver",
      "i se",
      "ĠSky way",
      "ĠCentur y",
      "ĠFron t",
      "9 72",
      "79 7",
      "50 3",
      "69 1",
      "y al",
      "48 7",
      "ing s",
      "ĠRo yal",
      "ĠK ings",
      "4 36",
      "ĠS erv",
      "ĠCro ss",
      "ĠServ ice",
      "or ail",
      "st em",
      "ĠMon orail",
      "ĠSy stem",
      "8 51",
      "on der",
      "68 5",
      "0 24",
      "ĠT est",
      "iv ias",
      "ĠOl ivias",
      "5 56",
      "0 59",
      "84 7",
      "ĠCon struction",
      "66 5",
      "68 6",
      "- treme",
      "m on",
      "ol ph",
      "ĠD olph",
      "ĠGal ax",
      "ĠDolph in",
      "ĠGalax y",
      "5 58",
      "n ight",
      "z e",
      "ĠH y",
      "68 7",
      "u v",
      "ĠLo uv",
      "ĠDrag ster",
      "ĠLouv re",
      "9 57",
      "50 6",
      "ĠI s",
      "un g",
      "ĠY ear",
      "9 54",
      "78 3",
      "ar an",
      "ĠSt and",
      "am aran",
      "ĠCat amaran",
      "ĠO r",
      "ĠFl yer",
      "ar ch",
      "ĠE V",
      "ĠMon arch",
      "ĠMonarch s",
      "ĠBrick to",
      "ĠBrickto ber",
      "ĠH ill",
      "ĠW h",
      "ĠHill side",
      "4 42",
      "39 8",
      "b ul",
      "ĠM ach",
      "-Ro tor",
      "ĠFX X",
      "ĠMach ine",
      "ĠIntercep tor",
      "ĠS ower",
      "o y",
      "mp ing",
      "ĠW ho",
      "ĠSqu ad",
      "ĠWill ow",
      "ĠWho mping",
      "b ai",
      "ĠC y",
      "72 6",
      "ct ic",
      "ĠDu bai",
      "ĠAr ch",
      "ĠAr ctic",
      "59 3",
      "ĠE lectric",
      "46 8",
      "9 42",
      "65 2",
      "89 4",
      "84 1",
      "5 19",
      "75 6",
      "ĠRo ader",
      "6 77",
      "46 1",
      "4 39",
      "e ch",
      "ĠCon struct",
      "-M ech",
      "ĠEmmet s",
      "ĠConstruct o",
      "46 7",
      "78 9",
      "an za",
      "29 5",
      "ĠPo e",
      "ĠBon anza",
      "ĠSt or",
      "58 1",
      "ĠI ce",
      "59 4",
      "e per",
      "0 44",
      "79 2",
      "ĠQ u",
      "90 9",
      "5 96",
      "A L",
      "n ation",
      "ĠSt ab",
      "ĠW AL",
      "ĠInter nation",
      "ĠStab le",
      "ĠWAL LE",
      "ĠInternation al",
      "ĠG eta",
      "ĠW all",
      "ĠCh ina",
      "ĠVehicle s",
      "ĠGeta way",
      "ĠE lectr",
      "ĠCross ing",
      "ĠStand ard",
      "0 99",
      "5 25",
      "ĠT eam",
      "0 16",
      "8 57",
      "ang er",
      "ĠWr ight",
      "0 73",
      "8 32",
      "e le",
      "ĠCo mp",
      "6 25",
      "00 9",
      "5 71",
      "d y",
      "ĠD o",
      "50 2",
      "48 1",
      "- City",
      "8 56",
      "k er",
      "69 7",
      "ĠY ork",
      "ĠStor age",
      "0 42",
      "0 11",
      "o se",
      "or ed",
      "32 7",
      "ĠCr a",
      "ĠTran s",
      "iz er",
      "ĠLeg ored",
      "ĠLegored o",
      "- T",
      "8 38",
      "89 2",
      "ĠK night",
      "ĠKnight s",
      "5 29",
      "9 49",
      "4 66",
      "Y M",
      "52 7",
      "ĠSolo mon",
      "74 5",
      "ag er",
      "0 14",
      "8 54",
      "90 2",
      "ĠW ind",
      "7 75",
      "o s",
      "72 5",
      "38 7",
      "ĠFly ers",
      "0 39",
      "8 78",
      "n ie",
      "9 35",
      "42 9",
      "48 2",
      "Ġ car",
      "ĠS on",
      "08 5",
      "ĠRock et",
      "0 32",
      "5 65",
      "ĠS av",
      "ĠEn d",
      "4 76",
      "s ion",
      "ĠT un",
      "-S p",
      "6 26",
      "8 98",
      "73 3",
      "h in",
      "ĠR ise",
      "ĠP an",
      "ĠSp ike",
      "ĠSp hin",
      "ĠSphin x",
      "43 5",
      "o ye",
      "ĠV ill",
      "per sp",
      "ĠHy persp",
      "ĠSav oye",
      "ĠVill a",
      "9 59",
      "0 48",
      "4 13",
      "o ut",
      "83 1",
      "ĠWh ite",
      "ĠTun er",
      "9 15",
      "s is",
      "ĠI ron",
      "ĠLo ad",
      "ĠChas sis",
      "5 39",
      "Ġ tr",
      "ĠD ozer",
      "ĠRail road",
      "9 38",
      "5 72",
      "id a",
      "ĠNa ida",
      "80 1",
      "ĠL as",
      "ĠS and",
      "ĠB ay",
      "ĠLog o",
      "ĠSup port",
      "ĠMar ina",
      "ĠSand s",
      "79 5",
      "E R",
      "cy cle",
      "c in",
      "ĠH Q",
      "ĠP re",
      "ĠSt e",
      "75 3",
      "cin ct",
      "ĠPre cinct",
      "5 79",
      "9 55",
      "Ġ n",
      "ĠProp eller",
      "08 9",
      "s age",
      "ĠM es",
      "ĠS ub",
      "ĠSp eeder",
      "ĠIntercep t",
      "ĠMes sage",
      "7 44",
      "ĠM id",
      "90 1",
      "ĠBo om",
      "ĠSon ic",
      "0 54",
      "4 71",
      "50 8",
      "ĠUn der",
      "ĠUnder cover",
      "5 78",
      "I z",
      "J m",
      "Y g",
      "-Sp eed",
      "Iz Yg",
      "44 1",
      "ol d",
      "iv er",
      "ĠCh ase",
      "l ift",
      "l ake",
      "ĠN ight",
      "ĠR en",
      "ĠV oy",
      "54 9",
      "49 7",
      "ĠSh ow",
      "art lake",
      "ĠHe artlake",
      "ĠVoy ager",
      "5 32",
      "ĠSp ort",
      "ĠPatrol ler",
      "8 62",
      "6 22",
      "a ir",
      "u g",
      "56 1",
      "ĠRac ing",
      "en e",
      "96 2",
      "bo ur",
      "ĠHar bour",
      "ĠGr and",
      "ĠPr ix",
      "ĠSc ene",
      "9 16",
      "9 45",
      "ĠS ith",
      "ĠCar s",
      "ĠAir te",
      "ĠCl aw",
      "ĠAirte ch",
      "88 9",
      "8 61",
      "c ur",
      "ĠV eg",
      "ĠSe cur",
      "ĠVeg as",
      "ĠSecur ity",
      "0 77",
      "76 9",
      "0 78",
      "an gh",
      "ĠP ad",
      "en ced",
      "ĠSh angh",
      "eri enced",
      "ĠExp erienced",
      "ĠRes p",
      "ĠShangh ai",
      "0 27",
      "c is",
      "ĠS an",
      "an cis",
      "ĠP D",
      "56 3",
      "ĠAl ph",
      "ĠFr ancis",
      "ĠAlph a",
      "ĠFrancis co",
      "ĠR anger",
      "ĠCar g",
      "5 14",
      "uard ian",
      "4 75",
      "k in",
      "ĠF ar",
      "ar y",
      "ĠFar m",
      "ĠM ag",
      "ĠSt ack",
      "ĠSh ock",
      "35 1",
      "k es",
      "ĠS ur",
      "72 2",
      "54 1",
      "9 17",
      "ĠT ele",
      "65 1",
      "0 55",
      "8 74",
      "e ep",
      "60 3",
      "ĠJ eep",
      "53 7",
      "5 38",
      "90 7",
      "ĠY ard",
      "0 98",
      "p per",
      "y o",
      "ĠT ok",
      "ĠHo pper",
      "ĠG ard",
      "59 1",
      "ĠDe ep",
      "ĠJ ok",
      "ure s",
      "ĠCreat ures",
      "ĠTok yo",
      "ĠGard en",
      "ĠJok er",
      "56 9",
      "n a",
      "ĠH an",
      "88 7",
      "06 3",
      "ĠSnow mobile",
      "5 53",
      "72 3",
      "l f",
      "l and",
      "ĠE lf",
      "bo x",
      "bo at",
      "ĠIs land",
      "71 3",
      "ĠM is",
      "ĠMis sion",
      "5 75",
      "6 79",
      "5 24",
      "M W",
      "ĠF is",
      "ĠB MW",
      "ĠG S",
      "46 3",
      "ĠZ R",
      "ĠFis h",
      "h andler",
      "or y",
      "ĠF ir",
      "ĠB ang",
      "ĠRo tor",
      "ĠThe ory",
      "ĠTele handler",
      "ĠFir st",
      "8 24",
      "08 4",
      "z y",
      "ĠFl ower",
      "l y",
      "n y",
      "ĠM r",
      "ĠP iz",
      "55 7",
      "ĠCl ub",
      "72 7",
      "8 71",
      "ĠF ast",
      "u qu",
      "71 7",
      "ĠBl ast",
      "ĠBo uqu",
      "ĠBouqu et",
      "et ary",
      "ĠCh ild",
      "co ast",
      "ĠInter coast",
      "ĠSea port",
      "ĠIntercoast al",
      "0 58",
      "6 21",
      "0 61",
      "8 43",
      "9 31",
      "at cher",
      "ĠA erial",
      "er kin",
      "ĠP erkin",
      "ĠTh atcher",
      "ĠPerkin s",
      "er nie",
      "ol box",
      "ĠV ernie",
      "ĠBo x",
      "ĠTo olbox",
      "ĠCreat ive",
      "ĠComp ac",
      "c at",
      "an ing",
      "ĠP is",
      "ig ale",
      "ĠE ng",
      "ĠDu cat",
      "ĠLe aning",
      "ĠPan igale",
      "ĠPis a",
      "ĠDucat i",
      "71 1",
      "S W",
      "c ale",
      "i SW",
      "t su",
      "err y",
      "-S cale",
      "ĠCrush er",
      "ĠMid i",
      "iSW tsu",
      "iSWtsu W",
      "72 1",
      "8 53",
      "c l",
      "5 13",
      "7 48",
      "53 5",
      "c ons",
      "g en",
      "ĠF al",
      "90 5",
      "ĠE mer",
      "ĠFort ress",
      "gen cy",
      "ĠFal cons",
      "ĠEmer gency",
      "a ul",
      "n et",
      "s st",
      "ĠM eg",
      "ĠA m",
      "ĠB ons",
      "ĠH aul",
      "78 6",
      "ĠCor e",
      "ĠCro sst",
      "ĠCra ze",
      "ĠMag net",
      "ĠMeg a",
      "ĠBons ai",
      "ĠCrosst own",
      "ĠMagnet izer",
      "53 4",
      "mp er",
      "le d",
      "ĠCa mper",
      "eg ade",
      "ĠRen egade",
      "58 3",
      "D m",
      "E w",
      "M c",
      "S EK",
      "c Dm",
      "o SEK",
      "u Ew",
      "ĠIn ven",
      "ĠSe cre",
      "ĠPo st",
      "oSEK cDm",
      "uEw Mc",
      "ĠInven tor",
      "ĠSecre t",
      "6 71",
      "0 53",
      "9 43",
      "ĠP ir",
      "ĠSt eam",
      "ĠMon ster",
      "ĠHypersp eed",
      "ĠPir ate",
      "d ge",
      "e ment",
      "ĠM in",
      "ĠC ement",
      "ĠLo dge",
      "ĠLa kes",
      "ĠLakes ide",
      "ĠCh erry",
      "ĠL un",
      "ĠLe vel",
      "ĠLun ar",
      "90 8",
      "r ide",
      "Ġ ride",
      "ĠC ut",
      "ĠH ide",
      "0 69",
      "96 3",
      "- G",
      "ell or",
      "ĠProp ellor",
      "9 12",
      "ĠCar ri",
      "ĠGr ader",
      "i ator",
      "ĠP od",
      "ĠPick er",
      "ĠMed iator",
      "ĠPiz za",
      "0 68",
      "5 66",
      "ig ate",
      "ĠMo on",
      "ĠBat man",
      "ĠFr igate",
      "ĠNe bul",
      "ĠResp onder",
      "ĠNebul on",
      "8 17",
      "r ac",
      "7 65",
      "5 33",
      "in t",
      "59 5",
      "ĠCy cle",
      "8 55",
      "0 76",
      "0 22",
      "75 7",
      "ĠD un",
      "ic ag",
      "ĠCa bo",
      "ĠCh icag",
      "ĠYear s",
      "ĠCarg o",
      "ĠDun e",
      "ĠCabo ose",
      "ĠChicag o",
      "0 51",
      "ĠR amb",
      "ĠD uty",
      "ĠRamb ler",
      "8 73",
      "88 1",
      "ĠM ic",
      "ĠW e",
      "ĠWheel s",
      "pl ane",
      "ĠSpeed boat",
      "ĠHoliday s",
      "-G uardian",
      "ĠMic ro",
      "64 9",
      "u se",
      "74 1",
      "sh ip",
      "Ġ mo",
      "id man",
      "ĠO ut",
      "ĠSqu idman",
      "Ġmo del",
      "79 4",
      "ĠCr unch",
      "art ment",
      "ĠAp artment",
      "ĠCrunch er",
      "ĠB re",
      "ĠLand ing",
      "ĠG ung",
      "ang ler",
      "ĠTur bine",
      "ĠWr angler",
      "ĠGung an",
      "74 9",
      "l in",
      "er lin",
      "ĠB erlin",
      "0 96",
      "v ac",
      "ĠE vac",
      "89 7",
      "0 37",
      "8 42",
      "ĠCo zy",
      "8 22",
      "ĠG uard",
      "83 7",
      "ĠRo om",
      "ĠRe con",
      "ĠLo ck",
      "0 23",
      "0 29",
      "en on",
      "and al",
      "-D uty",
      "ĠZ enon",
      "0 62",
      "6 73",
      "7 71",
      "90 3",
      "09 5",
      "t op",
      "ĠLo ok",
      "ĠMountain top",
      "ĠStable s",
      "ĠLook out",
      "0 49",
      "ĠL im",
      "ĠLaunch ing",
      "ĠLim ited",
      "D F",
      "j DF",
      "Ġ lift",
      "ĠP it",
      "ĠFlat car",
      "aur i",
      "ĠCent auri",
      "po st",
      "ĠQu ad",
      "Ġtr uck",
      "ĠOut post",
      "ĠPit s",
      "0 65",
      "7 39",
      "9 18",
      "b on",
      "ĠSt ri",
      "ĠSt ud",
      "79 1",
      "ĠCar bon",
      "ĠStud i",
      "e y",
      "ĠS ung",
      "ĠH andler",
      "em un",
      "ny emun",
      "ĠSung nyemun",
      "89 5",
      "Ġ at",
      "ĠG old",
      "ĠO dy",
      "sse y",
      "ĠCar av",
      "ub le",
      "ĠDo uble",
      "ĠOdy ssey",
      "ĠCarav an",
      "ĠR iver",
      "ĠH aw",
      "ĠW om",
      "ĠW onder",
      "ĠAr m",
      "ĠHaw k",
      "ĠWom an",
      "en d",
      "ĠRol l",
      "ĠHor se",
      "C b",
      "K D",
      "ĠM rs",
      "ĠG ate",
      "av e",
      "ĠCl au",
      "ud KD",
      "ĠCrush ers",
      "Cb udKD",
      "ĠClau s",
      "74 7",
      "B L",
      "L is",
      "tr ax",
      "ĠRe p",
      "ĠBat trax",
      "Lis BL",
      "9 37",
      "b ur",
      "i ff",
      "y ce",
      "en bur",
      "ĠE iff",
      "ĠBr and",
      "ĠRol ls",
      "ĠPar k",
      "-Ro yce",
      "enbur g",
      "ĠEiff el",
      "ĠBrand enburg",
      "Ġ mot",
      "ĠRobot s",
      "ĠTrans con",
      "73 5",
      "09 3",
      "8 33",
      "al ker",
      "op per",
      "ĠCh opper",
      "ĠEng ine",
      "Ġ '",
      "ĠM ine",
      "ĠV en",
      "ĠMin ing",
      "ĠFor ge",
      "ĠOr c",
      "X V",
      "b us",
      "i er",
      "09 2",
      "-Ro ad",
      "ĠQu ick",
      "- Q",
      "ĠP ier",
      "g u",
      "ĠMotor cycle",
      "A e",
      "F ER",
      "K Ae",
      "U KAe",
      "r y",
      "or ry",
      "ĠL orry",
      "70 3",
      "ĠR id",
      "UKAe FER",
      "ĠRid ing",
      "0 33",
      "h ol",
      "q o",
      "y n",
      "70 1",
      "ar hol",
      "ro e",
      "ĠW arhol",
      "ĠBu r",
      "il yn",
      "ĠAn dy",
      "ĠMar ilyn",
      "ĠK art",
      "ĠMon roe",
      "ri o",
      "ĠSw e",
      "ĠDo c",
      "ĠWarhol s",
      "0 74",
      "06 7",
      "6 31",
      "w ork",
      "ĠS co",
      "ĠRoad work",
      "8 35",
      "G j",
      "U l",
      "a mp",
      "l Gj",
      "ĠP and",
      "ĠSkul l",
      "Ul lGj",
      "UllGj m",
      "b e",
      "e ze",
      "g E",
      "k ers",
      "p tain",
      "or ian",
      "ĠM andal",
      "ĠB i",
      "09 7",
      "ĠCa ptain",
      "ĠMar vel",
      "ĠCy ber",
      "ĠStri kers",
      "ĠStudi os",
      "ĠMandal orian",
      "p ic",
      "at ment",
      "ĠC ave",
      "ĠE pic",
      "un ct",
      "ĠTre atment",
      "ĠJ unct",
      "ĠJunct ion",
      "al i",
      "od s",
      "ĠGo ods",
      "0 46",
      "8 34",
      "in es",
      "ĠY ach",
      "ĠCarbon ite",
      "ĠYach t",
      "ĠRe mo",
      "ĠMa x",
      "ĠSm ash",
      "ill ance",
      "ve illance",
      "ĠSur veillance",
      "0 64",
      "A AS",
      "I ON",
      "L AAS",
      "ĠC LAAS",
      "ĠX ER",
      "ĠCoa st",
      "ĠXER ION",
      "I C",
      "N IC",
      "ĠRe cycle",
      "8 63",
      "e f",
      "g er",
      "u der",
      "on e",
      "tr uder",
      "ĠIn truder",
      "ĠRock ef",
      "ĠChas ing",
      "ĠRockef eller",
      "84 5",
      "b s",
      "ĠF le",
      "ĠO bs",
      "um b",
      "ator y",
      "erv atory",
      "ĠFle et",
      "ĠObs ervatory",
      "ar k",
      "ĠV an",
      "ĠStar ter",
      "ĠSh ark",
      "ph an",
      "ĠSte phan",
      "b M",
      "ĠP ug",
      "ĠCut e",
      "ĠPod rac",
      "ĠPodrac er",
      "P S",
      "P v",
      "Q PS",
      "V Pv",
      "ĠS au",
      "ĠS ite",
      "re n",
      "ĠSau cer",
      "L Z",
      "a ster",
      "w a",
      "ĠB eta",
      "ĠR am",
      "ĠG e",
      "ĠG ro",
      "ter ing",
      "um a",
      "ĠTra uma",
      "ĠBat tle",
      "ĠBat tering",
      "qo LZ",
      "i X",
      "i ker",
      "ow ler",
      "tr iker",
      "ĠSp in",
      "-S triker",
      "ĠPlan etary",
      "ĠPr owler",
      "e er",
      "ĠHo ok",
      "ĠRe ind",
      "ĠSp a",
      "ĠElf ie",
      "ĠCompac t",
      "ĠReind eer",
      "ĠTra m",
      "ĠIn v",
      "-w heel",
      "ĠLeg o",
      "-wheel er",
      "- h",
      "m as",
      "r id",
      "or th",
      "ĠS he",
      "ĠH ag",
      "ĠU ru",
      "ĠSh orth",
      "ĠBuck be",
      "ĠCat s",
      "ĠEm mas",
      "ĠArm y",
      "-h ai",
      "ĠShe ep",
      "ĠHag rid",
      "ĠUru k",
      "ĠShorth air",
      "ĠBuckbe ak",
      "c a",
      "d i",
      "d n",
      "m ill",
      "Ġ qu",
      "at tro",
      "ĠAu di",
      "ĠR C",
      "ĠH er",
      "ĠO per",
      "ĠIn n",
      "ĠSy dn",
      "ĠWind mill",
      "ĠGuard ed",
      "Ġqu attro",
      "ĠOper a",
      "ĠSydn ey",
      "0 75",
      "Ġ (",
      "ĠS le",
      "ol ation",
      "ĠO iler",
      "it cher",
      "ĠSn ake",
      "ĠSw itcher",
      "ĠIs olation",
      "ĠSur f",
      "ĠCarri age",
      "ĠBre eze",
      "ĠSle eper",
      "ĠBreeze way",
      "- C",
      "U P",
      "i al",
      "on trol",
      "ĠP ig",
      "ĠForest men",
      "bul ance",
      "Ġtr ain",
      "Ġn ose",
      "ĠAm bulance",
      "ĠHide out",
      "ĠRemo te",
      "-C ontrol",
      "-Control led",
      "f a",
      "h ali",
      "p e",
      "at ers",
      "ĠM cl",
      "ar en",
      "ĠRac ers",
      "ut o",
      "ĠPl uto",
      "of y",
      "ĠSk aters",
      "ĠK hali",
      "ĠSen na",
      "ĠGo ofy",
      "ĠBur j",
      "ĠMcl aren",
      "ĠKhali fa",
      "a e",
      "g ok",
      "h an",
      "j o",
      "o b",
      "u al",
      "u ke",
      "w alker",
      "ĠL uke",
      "ĠT ae",
      "al ent",
      "el ob",
      "ĠV alent",
      "ĠSh elob",
      "ĠMo use",
      "ĠRe cy",
      "ĠY od",
      "bo o",
      "ĠMan ual",
      "ĠAttack s",
      "ĠSky walker",
      "ĠTo gok",
      "ĠNa boo",
      "cl ing",
      "ĠVen ice",
      "ĠTae jo",
      "ĠRecy cling",
      "ĠYod a",
      "ĠTogok han",
      "F ly",
      "c Fly",
      "ĠM cFly",
      "ĠB and",
      "ro om",
      "ĠBr own",
      "ĠMart y",
      "ĠBand it",
      "an etary",
      "ĠR et",
      "re at",
      "un ter",
      "ul k",
      "ĠRace way",
      "ĠInter pl",
      "ĠRock y",
      "ak er",
      "ĠRet reat",
      "ĠInterpl anetary",
      "ĠV int",
      "ĠCompac tor",
      "ĠVint age",
      "C H",
      "E CH",
      "F T",
      "Q w",
      "l gE",
      "w en",
      "x lgE",
      "or e",
      "ĠT ECH",
      "ĠS ail",
      "ĠR on",
      "ĠSt ell",
      "ĠD umb",
      "ĠO wen",
      "as ley",
      "ĠCh ine",
      "ĠAl bus",
      "led ore",
      "ĠWe asley",
      "XV FT",
      "ĠPand as",
      "Qw xlgE",
      "ĠTECH NIC",
      "ĠStell ar",
      "ĠDumb ledore",
      "ĠChine se",
      "XVFT g",
      "QwxlgE A",
      "N W",
      "a z",
      "e ctr",
      "i st",
      "u ation",
      "ĠA ss",
      "ĠA NW",
      "ĠSt ron",
      "ĠStar ship",
      "ĠStar gu",
      "ĠSp ectr",
      "ĠX T",
      "gh old",
      "ĠRoad side",
      "cover y",
      "ĠEvac uation",
      "ist ance",
      "ĠAss istance",
      "ĠANW B",
      "ĠStron ghold",
      "ĠStargu ider",
      "ĠSpectr al",
      "P l",
      "t on",
      "or ld",
      "ĠSt op",
      "ĠW orld",
      "ĠMa p",
      "a uty",
      "f ly",
      "p ter",
      "t ter",
      "ĠCo pter",
      "ĠBu tter",
      "ĠBe auty",
      "ĠButter fly",
      "b ra",
      "h AS",
      "p y",
      "r hAS",
      "z rhAS",
      "or ter",
      "ĠC ur",
      "ĠP up",
      "se d",
      "ĠCr ater",
      "ĠCo bra",
      "ĠRe covery",
      "ĠTrain s",
      "ĠTransp orter",
      "ĠAn na",
      "ĠWag o",
      "ĠCentur ion",
      "ĠOl af",
      "ĠFork lift",
      "ĠPost al",
      "ĠCur sed",
      "ĠPup py",
      "o ter",
      "ĠA B",
      "ĠS ing",
      "ĠB ack",
      "ĠAn ak",
      "ĠSuper man",
      "ho e",
      "ĠSco oter",
      "ĠSing le",
      "ĠBack hoe",
      "ĠAnak in",
      "- O",
      "l ider",
      "ĠG lider",
      "ĠAir l",
      "-S t",
      "ĠAmeric a",
      "ĠFly ing",
      "-O ut",
      "G ug",
      "b age",
      "i C",
      "x iC",
      "z xiC",
      "Ġ u",
      "ĠGar bage",
      "Gug zxiC",
      "ĠL i",
      "ĠB B",
      "on izer",
      "ĠP art",
      "ĠI onizer",
      "ire ment",
      "ĠRe qu",
      "ĠHar ri",
      "ĠPart icle",
      "ĠRequ irement",
      "ĠHarri er",
      "J C",
      "ĠG un",
      "et ab",
      "ĠCarri er",
      "ĠWe etab",
      "ĠGun ship",
      "ĠWeetab ix",
      "o mer",
      "ĠS ally",
      "le te",
      "ing ton",
      "ĠThe ater",
      "ĠJ ack",
      "ell ington",
      "ĠSk ellington",
      "ĠDrag on",
      "ĠComp lete",
      "ĠChild ren",
      "ĠRep air",
      "ĠGro omer",
      "ĠChildren s",
      "N ak",
      "p Nak",
      "ĠSpeed way",
      "pNak p",
      "b or",
      "ĠFl ame",
      "ĠHar bor",
      "ĠDump er",
      "-T errain",
      "ĠLoad ing",
      "ĠSwe eper",
      "e yz",
      "h K",
      "ĠStack er",
      "P bM",
      "W PbM",
      "d m",
      "i end",
      "ĠC al",
      "ol side",
      "ad ise",
      "ĠAir craft",
      "ĠSk id",
      "ĠPar adise",
      "ĠFr iend",
      "ĠPo int",
      "ĠPo olside",
      "ĠSte er",
      "end ar",
      "ĠInv ader",
      "WPbM dm",
      "ĠCal endar",
      "ĠFriend s",
      "WPbMdm z",
      "- I",
      "ĠAT X",
      "-T E",
      "ĠCut ter",
      "ĠCoast al",
      "C opter",
      "g ler",
      "ĠO ct",
      "ĠAn gler",
      "ĠBoat side",
      "ĠOct an",
      "U V",
      "c r",
      "c ol",
      "g iv",
      "i es",
      "s giv",
      "in col",
      "or ial",
      "ĠM em",
      "ĠL incol",
      "ank sgiv",
      "ĠTh anksgiv",
      "ĠCent re",
      "are cr",
      "ĠSc arecr",
      "ĠSw amp",
      "ĠOr ion",
      "ĠHypersp ace",
      "ĠStephan ies",
      "ĠMem orial",
      "ĠLincol n",
      "ĠThanksgiv ing",
      "ĠScarecr ow",
      "ĠGr ab",
      "- K",
      "Ġ st",
      "Ġ lo",
      "ame le",
      "ĠB ir",
      "ĠCh amele",
      "-K art",
      "Ġst eam",
      "Ġlo comotive",
      "ĠBir d",
      "ĠChamele on",
      "b rio",
      "c ord",
      "l ic",
      "m i",
      "ĠH ulk",
      "ĠRe cord",
      "ĠCa brio",
      "ĠSe mi",
      "ub lic",
      "-T rac",
      "ĠBre aker",
      "ĠRep ublic",
      "-Trac tor",
      "C ar",
      "J K",
      "ĠM us",
      "ĠSpeed Car",
      "ĠPat rio",
      "ĠMus cle",
      "ĠPatrio t",
      "K Mw",
      "d ible",
      "u y",
      "x KMw",
      "z one",
      "ĠF ro",
      "ĠB el",
      "ĠD ance",
      "ĠG uy",
      "it al",
      "ĠPl ace",
      "ĠIn cre",
      "xKMw T",
      "ĠFro zone",
      "ĠBel le",
      "ĠIncre dible",
      "c tor",
      "d ro",
      "h room",
      "ĠC ol",
      "it ch",
      "ĠSh eri",
      "ĠSp y",
      "ĠBat hroom",
      "ĠJet port",
      "ĠCre eper",
      "ra k",
      "ĠFron e",
      "ĠHy dro",
      "-T rak",
      "ĠSte ve",
      "ĠValent ines",
      "ĠCol or",
      "ĠSheri ff",
      "G Pl",
      "I N",
      "V v",
      "g n",
      "g GPl",
      "ĠL uck",
      "th er",
      "ĠTr ike",
      "ĠCr is",
      "ĠSh unter",
      "ĠNew s",
      "ĠPan ther",
      "ĠEng ines",
      "IN gn",
      "ĠLuck y",
      "ĠCris is",
      "INgn iX",
      "F s",
      "b ac",
      "p t",
      "w bac",
      "ĠL ad",
      "ĠC pt",
      "id ow",
      "ĠW idow",
      "ĠSh unt",
      "-M an",
      "ĠChe wbac",
      "ĠBi plane",
      "-St ar",
      "ĠLad der",
      "ĠShunt i",
      "ĠChewbac ca",
      "P W",
      "e PW",
      "j l",
      "n ny",
      "ĠM ias",
      "ĠA qu",
      "ĠR amp",
      "ĠCr ash",
      "ĠBu nny",
      "am an",
      "ng ine",
      "-E ngine",
      "ĠCra ft",
      "ĠAqu aman",
      "B o",
      "G w",
      "ĠM ay",
      "ĠE aster",
      "-W heel",
      "ĠBe e",
      "ĠPlan et",
      "Bo x",
      "Gw u",
      "A g",
      "V K",
      "Y e",
      "Y pe",
      "a os",
      "j Ag",
      "k jAg",
      "Ġ con",
      "ĠB ed",
      "ĠG uardian",
      "ĠCh aos",
      "tral ight",
      "ĠUl tralight",
      "ĠTrans it",
      "Ye VK",
      "Ype YeVK",
      "Ġcon tainer",
      "B Box",
      "r ift",
      "or a",
      "ĠD air",
      "ĠG am",
      "he m",
      "ĠW itch",
      "ie f",
      "ĠAd rift",
      "sh al",
      "-S at",
      "om aster",
      "ĠMar shal",
      "ĠCarg omaster",
      "ĠSwe et",
      "ĠMay hem",
      "ĠDair y",
      "ĠGam ora",
      "A f",
      "C Y",
      "F Af",
      "F CY",
      "G v",
      "P Z",
      "m ion",
      "u FAf",
      "ĠR V",
      "on se",
      "ĠCa se",
      "ĠMa il",
      "ĠGr anger",
      "gy ro",
      "ĠZ X",
      "ĠAuto gyro",
      "ĠWh ale",
      "ĠResp onse",
      "ĠAm use",
      "ĠHer mion",
      "FCY Gv",
      "PZ uFAf",
      "ĠAmuse ment",
      "ĠHermion e",
      "PZuFAf i",
      "A C",
      "H AC",
      "h as",
      "m a",
      "ĠP ud",
      "ĠP has",
      "se y",
      "ĠD el",
      "ĠW HAC",
      "ĠFl ash",
      "ĠBe ar",
      "ke y",
      "ĠTur key",
      "iver y",
      "ĠMin nie",
      "ĠHer o",
      "ĠPud sey",
      "ĠPhas ma",
      "ĠDel ivery",
      "ĠWHAC K",
      "e ace",
      "e eper",
      "m ar",
      "z ard",
      "ĠN it",
      "ĠS al",
      "ĠP eace",
      "ĠD ir",
      "ĠDe mon",
      "ur sion",
      "ĠBl iz",
      "ĠExc ursion",
      "ĠAr mand",
      "ĠK eeper",
      "ĠSea plane",
      "ĠQ B",
      "ĠSub mar",
      "az ar",
      "ĠLi me",
      "ĠNit ro",
      "ĠSal azar",
      "ĠDir t",
      "ĠBliz zard",
      "ĠArmand o",
      "ĠSubmar ine",
      "W UV",
      "u J",
      "u el",
      "w it",
      "x on",
      "Ġ wit",
      "ĠF uel",
      "re ck",
      "ĠV i",
      "ĠO f",
      "ĠEx xon",
      "ĠRe y",
      "po iX",
      "poiX JC",
      "a ff",
      "f r",
      "o u",
      "o vel",
      "ĠM ick",
      "ĠA fr",
      "ĠS ou",
      "an ge",
      "an os",
      "ic an",
      "ĠSh ovel",
      "ĠFl ag",
      "mot ion",
      "ĠLa b",
      "ĠTh anos",
      "ĠOr ange",
      "ĠMick ey",
      "ĠAfr ican",
      "ĠSou th",
      "p ion",
      "y lo",
      "or pion",
      "ig ger",
      "ĠD in",
      "ĠD igger",
      "ĠStre ak",
      "ĠK ylo",
      "ĠSc orpion",
      "ĠMid night",
      "r at",
      "s ca",
      "ĠSt rat",
      "eri a",
      "ĠStephan ie",
      "ĠAirl iner",
      "sca pe",
      "h elicopter",
      "l on",
      "u sh",
      "Ġ helicopter",
      "ĠP ush",
      "le t",
      "ĠW reck",
      "ĠTra x",
      "ĠBul let",
      "-A lon",
      "ĠArm or",
      "ĠSco ut",
      "ĠWreck er",
      "-Alon g",
      "C r",
      "N o",
      "R W",
      "X X",
      "i ers",
      "r in",
      "u No",
      "ĠL XX",
      "ĠT ug",
      "ĠW alker",
      "un d",
      "ĠPl iers",
      "ĠCh ief",
      "ĠII I",
      "ĠDr iver",
      "ĠAm az",
      "ĠHulk bus",
      "ĠHydro plane",
      "Cr ater",
      "RW uNo",
      "rin ter",
      "ĠLXX XV",
      "ĠAmaz on",
      "RWuNo g",
      "I r",
      "X v",
      "c c",
      "f Xv",
      "i ed",
      "x gu",
      "ĠA ven",
      "ĠS ide",
      "ĠSp ider",
      "ĠBe ast",
      "ĠAll ied",
      "os aur",
      "ĠVen om",
      "xgu M",
      "ĠAven ger",
      "K h",
      "Q N",
      "Y bM",
      "i um",
      "i sp",
      "l ay",
      "ĠM K",
      "ĠA er",
      "ĠSt ad",
      "ĠD isp",
      "ĠRo bin",
      "ĠRe ven",
      "ĠBul l",
      "ĠAirl ine",
      "ĠStad ium",
      "ĠDisp lay",
      "ĠReven ge",
      "P V",
      "T T",
      "d re",
      "ĠM il",
      "ĠM PV",
      "ĠM TT",
      "ĠF ed",
      "th ol",
      "er ation",
      "ĠT ine",
      "ĠTr ade",
      "ig ator",
      "ĠE B",
      "is s",
      "ĠAn dre",
      "ĠAll igator",
      "ĠPo thol",
      "ĠChal et",
      "ĠPat cher",
      "ĠDes ig",
      "ĠSw iss",
      "ĠMil k",
      "ĠFed eration",
      "ĠPothol e",
      "b an",
      "i en",
      "r ban",
      "ĠU rban",
      "ĠUn it",
      "ĠAl ien",
      "ĠDete ctor",
      "ĠValent ine",
      "ĠAlien ator",
      "H K",
      "ĠT ig",
      "ĠH unter",
      "ol and",
      "ĠE scape",
      "ĠBo unt",
      "ĠLeg oland",
      "ĠEnd or",
      "ĠBed room",
      "ĠTig er",
      "ĠBount y",
      "B E",
      "Z BE",
      "b ag",
      "g ir",
      "y bag",
      "ĠSt age",
      "ed i",
      "ĠJ edi",
      "ĠBat gir",
      "ue ZBE",
      "ĠPand a",
      "ĠBi kes",
      "ĠAndre as",
      "ĠBatgir l",
      "G p",
      "P b",
      "h O",
      "in n",
      "or ren",
      "ĠF inn",
      "ĠT orren",
      "ĠHo sp",
      "ĠD avid",
      "ĠW ild",
      "ĠW ork",
      "is oner",
      "ĠSe ars",
      "ent ion",
      "ĠFerr y",
      "ĠPr isoner",
      "ĠWill is",
      "gE hO",
      "ĠInv ention",
      "ĠAer o",
      "Pb J",
      "ĠTorren t",
      "ĠHosp ital",
      "ĠWork shop",
      "U JC",
      "V s",
      "c ro",
      "h n",
      "k ing",
      "o hn",
      "r ives",
      "y Vs",
      "ĠA TR",
      "ĠC ele",
      "st ial",
      "ĠG andal",
      "ĠW u",
      "ĠMo to",
      "ĠBl ing",
      "ĠJ ohn",
      "ĠY ell",
      "ĠMa ster",
      "co ck",
      "ĠCl own",
      "ĠAr rives",
      "ĠWheel ie",
      "ĠFor ager",
      "eg ic",
      "ĠPro motion",
      "ĠPursu er",
      "ĠOr der",
      "ĠHan cock",
      "ĠGro und",
      "ĠLi fe",
      "ĠVi king",
      "ĠStrat egic",
      "UJC yVs",
      "cro ss",
      "ĠCele stial",
      "ĠGandal f",
      "ĠMoto cross",
      "ĠYell ow",
      "ĠPromotion al",
      "UJCyVs i",
      "- Pl",
      "H O",
      "Q M",
      "b ital",
      "y na",
      "ĠB ar",
      "ĠB aker",
      "ĠD yna",
      "ĠE ag",
      "ĠV ulk",
      "ĠO ver",
      "ĠTra il",
      "as ure",
      "ĠTrain er",
      "ĠTrack ing",
      "ĠOr bital",
      "ĠBur ger",
      "-Pl ane",
      "ĠBar on",
      "ĠBaker y",
      "ĠDyna mo",
      "ĠEag le",
      "ĠOver h",
      "M T",
      "N MT",
      "v z",
      "ĠBon e",
      "QN NMT",
      "QNNMT vz",
      "X T",
      "r ader",
      "z eria",
      "ĠF ix",
      "ĠN XT",
      "ĠCo ach",
      "ĠSe bul",
      "ĠK rader",
      "ĠPiz zeria",
      "ĠSurf ace",
      "-I t",
      "ĠSebul ba",
      "P R",
      "a id",
      "f il",
      "o al",
      "ĠF ash",
      "ĠR aid",
      "ĠP le",
      "ĠP elic",
      "ĠV PR",
      "tr ator",
      "ĠIn fil",
      "ĠK oal",
      "ĠStri ker",
      "ĠStudi o",
      "ĠDesig n",
      "ĠFash ion",
      "ĠPle asure",
      "ĠPelic an",
      "ĠInfil trator",
      "ĠKoal a",
      "E F",
      "t en",
      "ĠMain ten",
      "ĠSt aff",
      "ĠU NIC",
      "ĠCl one",
      "ĠWheel in",
      "ĠVe ctor",
      "ĠChas er",
      "ĠGold en",
      "-St ation",
      "ĠGuardian s",
      "ĠDin o",
      "ĠMainten ance",
      "ĠUNIC EF",
      "E f",
      "F H",
      "U Ef",
      "m n",
      "n zy",
      "r UEf",
      "t ali",
      "y FH",
      "y mn",
      "ĠR ay",
      "ĠG ymn",
      "ĠI tali",
      "ĠCh om",
      "ĠAir boat",
      "ell ite",
      "ĠSat ellite",
      "ub a",
      "ĠFre eze",
      "ĠFre nzy",
      "ett a",
      "ĠSc uba",
      "ĠCra zy",
      "ĠBerlin etta",
      "yFH rUEf",
      "ĠGymn ast",
      "ĠItali a",
      "ĠChom ly",
      "P ol",
      "l ick",
      "ĠT umb",
      "ĠS mo",
      "ĠS lick",
      "ĠG ir",
      "ĠAir plane",
      "ĠTuner X",
      "aff e",
      "Pol ybag",
      "ĠTumb ler",
      "ĠSmo kin",
      "ĠSlick ster",
      "ĠGir affe",
      "C N",
      "M I",
      "R MI",
      "Y CN",
      "g uard",
      "i ary",
      "o use",
      "x il",
      "ĠL igh",
      "th ouse",
      "ĠAu xil",
      "ĠS UV",
      "ĠR X",
      "ol a",
      "ĠG ond",
      "ĠW ave",
      "ĠCar t",
      "ĠSp rinter",
      "ĠPro be",
      "ĠLaunch er",
      "ĠSon ar",
      "-Sp rinter",
      "ĠDin osaur",
      "ĠLife guard",
      "YCN RMI",
      "ĠLigh thouse",
      "ĠAuxil iary",
      "ĠGond ola",
      "A T",
      "C qo",
      "X Z",
      "Y D",
      "a zer",
      "t ure",
      "u ff",
      "at osaur",
      "ĠA AT",
      "er al",
      "en eral",
      "ĠG eneral",
      "ac ell",
      "ĠV ul",
      "es mo",
      "ĠSh uff",
      "ur acell",
      "ĠBl azer",
      "ie vo",
      "ĠStarf ight",
      "ĠAp atosaur",
      "ĠGr ievo",
      "ĠGT O",
      "ĠSi esmo",
      "ĠRemo ver",
      "Cqo YD",
      "XZ CqoYD",
      "ĠVul ture",
      "ĠApatosaur us",
      "ĠGrievo us",
      "R i",
      "k Ri",
      "o v",
      "q M",
      "w al",
      "ĠN ov",
      "ĠT ail",
      "an one",
      "ĠD anone",
      "ĠE Z",
      "ĠTw o",
      "ĠLas er",
      "-Road ster",
      "ĠSail boat",
      "ĠChief s",
      "ĠSide wal",
      "kRi f",
      "ĠNov a",
      "ĠSidewal k",
      "R C",
      "d o",
      "g ic",
      "m olo",
      "t ide",
      "y ra",
      "ĠA RC",
      "ĠT yra",
      "ĠR ip",
      "he ele",
      "ĠCo ver",
      "is molo",
      "ĠSe ismolo",
      "-W heele",
      "ĠSc ud",
      "ĠOut do",
      "ĠVi per",
      "ĠTyra x",
      "ĠRip tide",
      "ĠCover ed",
      "ĠSeismolo gic",
      "-Wheele d",
      "ĠScud eria",
      "ĠOutdo or",
      "L i",
      "e or",
      "e al",
      "o ugh",
      "p ro",
      "Ġ on",
      "Ġ cer",
      "Ġ pro",
      "ĠSt ock",
      "le ph",
      "ĠE leph",
      "it or",
      "ĠPl ough",
      "ĠMet eor",
      "ĠMon itor",
      "Li fe",
      "Ġcer eal",
      "Ġpro motion",
      "ĠEleph ant",
      "ĠF un",
      "er ine",
      "ĠT actic",
      "ĠC ath",
      "ĠCr ab",
      "ĠBu nge",
      "ĠCor d",
      "ĠBon nie",
      "ĠTactic al",
      "ĠCath erine",
      "ĠBunge e",
      "A b",
      "S s",
      "X Ss",
      "b ike",
      "ue st",
      "ĠMotor bike",
      "ĠQ uest",
      "ĠStor e",
      "ĠMail box",
      "ĠStrat a",
      "Ab XSs",
      "Q X",
      "X k",
      "a bo",
      "h A",
      "w o",
      "Ġ ch",
      "at tle",
      "ĠM iner",
      "ĠA stro",
      "ĠN eed",
      "ĠT ip",
      "ĠS un",
      "ĠD ash",
      "tor y",
      "ĠSe attle",
      "ĠAT V",
      "ĠPol ybag",
      "ĠRun abo",
      "ief s",
      "ĠDesig ner",
      "QX n",
      "Ġch iefs",
      "ĠMiner al",
      "ĠNeed le",
      "ĠTip per",
      "ĠSun tory",
      "ĠDash er",
      "ĠRunabo ut",
      "- P",
      "Q u",
      "T F",
      "d ian",
      "h k",
      "o t",
      "o th",
      "y P",
      "ĠM erry",
      "ĠF et",
      "ĠR ight",
      "ac on",
      "tr y",
      "ul Qu",
      "ĠBo oth",
      "il ot",
      "ĠTrac er",
      "ĠIn dian",
      "ĠBe acon",
      "ĠSk ele",
      "ĠSup pl",
      "ĠCre am",
      "-Ro und",
      "ph one",
      "ĠTele phone",
      "-G o",
      "QN TF",
      "-P ilot",
      "hk QNTF",
      "ĠSkele ton",
      "ĠSuppl y",
      "m ol",
      "r int",
      "s ar",
      "ĠL ight",
      "ĠR ad",
      "ĠP ul",
      "ĠCo up",
      "tr a",
      "ĠDe mol",
      "ur er",
      "ur ers",
      "ĠSp rint",
      "ĠCh arg",
      "il ler",
      "ĠLand scape",
      "ĠAdvent urers",
      "ĠSk i",
      "ĠDr iller",
      "ĠUl tra",
      "ĠTo urer",
      "ĠDes k",
      "ĠRad ar",
      "ĠPul sar",
      "ĠCoup e",
      "ĠDemol ition",
      "ĠCharg er",
      "- L",
      "z ari",
      "in k",
      "ĠA zari",
      "ĠAl t",
      "ĠK itch",
      "ĠMag ic",
      "ĠSide car",
      "-L ink",
      "ĠKitch en",
      "l ane",
      "n el",
      "op lane",
      "ĠW ater",
      "bo ard",
      "ĠSk ate",
      "ĠTun nel",
      "ĠMail man",
      "ĠAer oplane",
      "board er",
      "ĠSkate boarder",
      "ĠTunnel ator",
      "c p",
      "cp z",
      "Y d",
      "d own",
      "k i",
      "w reck",
      "ĠC ow",
      "ĠP ort",
      "ĠD is",
      "ĠCo un",
      "ĠCl ive",
      "-S ki",
      "ĠTur tle",
      "ĠSen try",
      "ĠShip wreck",
      "ĠSav er",
      "ĠShow down",
      "ĠFish erman",
      "Yd X",
      "ĠDis covery",
      "ĠCoun try",
      "ĠShipwreck ed",
      "ĠF ill",
      "ĠP ack",
      "ĠD uck",
      "ĠBu ri",
      "ay ak",
      "ĠTre asure",
      "ĠBuild er",
      "ĠK ayak",
      "ĠAndre a"
    ]
  }
}