{
  "version": "1.0",
  "truncation": null,
  "padding": null,
  "added_tokens": [
    {
      "id": 0,
      "content": "[UNK]",
      "single_word": false,
      "lstrip": false,
      "rstrip": false,
      "normalized": false,
      "special": true
    },
    {
      "id": 1,
      "content": "[CLS]",
      "single_word": false,
      "lstrip": false,
      "rstrip": false,
      "normalized": false,
      "special": true
    },
    {
      "id": 2,
      "content": "[SEP]",
      "single_word": false,
      "lstrip": false,
      "rstrip": false,
      "normalized": false,
      "special": true
    },
    {
      "id": 3,
      "content": "[PAD]",
      "single_word": false,
      "lstrip": false,
      "rstrip": false,
      "normalized": false,
      "special": true
    },
    {
      "id": 4,
      "content": "[MASK]",
      "single_word": false,
      "lstrip": false,
      "rstrip": false,
      "normalized": false,
      "special": true
    }
  ],
  "normalizer": null,
  "pre_tokenizer": {
    "type": "Sequence",
    "pretokenizers": [
      {
        "type": "Split",
        "pattern": {
          "Regex": "(?i)[sdmt]|ll|ve|re|[^\\r\\n\\w]?+[a-zA-Z]+|\\d{1,3}|\\s?[^\\s\\w]++[\\r\\n]*|\\s*[\\r\\n]|\\s+(?!\\S)|\\s+"
        },
        "behavior": "Isolated",
        "invert": false
      },
      {
        "type": "ByteLevel",
        "add_prefix_space": false,
        "trim_offsets": true,
        "use_regex": false
      }
    ]
  },
  "post_processor": null,
  "decoder": null,
  "model": {
    "type": "BPE",
    "dropout": null,
    "unk_token": "[UNK]",
    "continuing_subword_prefix": null,
    "end_of_word_suffix": null,
    "fuse_unk": false,
    "byte_fallback": false,
    "ignore_merges": false,
    "vocab": {
      "[UNK]": 0,
      "[CLS]": 1,
      "[SEP]": 2,
      "[PAD]": 3,
      "[MASK]": 4,
      "!": 5,
      "%": 6,
      "'": 7,
      "(": 8,
      ")": 9,
      "-": 10,
      ".": 11,
      "0": 12,
      "1": 13,
      "2": 14,
      "3": 15,
      "4": 16,
      "5": 17,
      "6": 18,
      "7": 19,
      "8": 20,
      "9": 21,
      ":": 22,
      "A": 23,
      "B": 24,
      "C": 25,
      "D": 26,
      "E": 27,
      "F": 28,
      "G": 29,
      "H": 30,
      "I": 31,
      "J": 32,
      "K": 33,
      "L": 34,
      "M": 35,
      "N": 36,
      "O": 37,
      "P": 38,
      "Q": 39,
      "R": 40,
      "S": 41,
      "T": 42,
      "U": 43,
      "V": 44,
      "W": 45,
      "X": 46,
      "Y": 47,
      "Z": 48,
      "_": 49,
      "a": 50,
      "b": 51,
      "c": 52,
      "d": 53,
      "e": 54,
      "f": 55,
      "g": 56,
      "h": 57,
      "i": 58,
      "j": 59,
      "k": 60,
      "l": 61,
      "m": 62,
      "n": 63,
      "o": 64,
      "p": 65,
      "q": 66,
      "r": 67,
      "s": 68,
      "t": 69,
      "u": 70,
      "v": 71,
      "w": 72,
      "x": 73,
      "y": 74,
      "z": 75,
      "Ċ": 76,
      "Ġ": 77,
      "00": 78,
      "000": 79,
      "Ġ-": 80,
      "at": 81,
      ".d": 82,
      ".dat": 83,
      "mp": 84,
      "__": 85,
      ".mp": 86,
      ".mpd": 87,
      "30": 88,
      "10": 89,
      "20": 90,
      "in": 91,
      "or": 92,
      "ĠM": 93,
      "40": 94,
      "ĠA": 95,
      "70": 96,
      "ĠF": 97,
      "ĠL": 98,
      "ĠMa": 99,
      "th": 100,
      "15": 101,
      "60": 102,
      "me": 103,
      "ĠN": 104,
      "ĠAu": 105,
      "ame": 106,
      "LE": 107,
      "ĠMain": 108,
      "er": 109,
      "ON": 110,
      "TR": 111,
      "ILE": 112,
      "ĠFILE": 113,
      "ĠLTR": 114,
      "thor": 115,
      "ĠName": 116,
      "ĠAuthor": 117,
      "ĠLTRON": 118,
      "80": 119,
      "19": 120,
      "99": 121,
      "14": 122,
      "24": 123,
      "71": 124,
      "50": 125,
      "16": 126,
      "72": 127,
      "66": 128,
      "ĠT": 129,
      "ĠC": 130,
      "12": 131,
      "302": 132,
      "32": 133,
      "90": 134,
      "78": 135,
      "ĠS": 136,
      "ĠB": 137,
      "36": 138,
      "300": 139,
      "28": 140,
      "25": 141,
      "13": 142,
      "102": 143,
      "18": 144,
      "17": 145,
      "ra": 146,
      "98": 147,
      "48": 148,
      "ĠH": 149,
      "ĠR": 150,
      "65": 151,
      "38": 152,
      "42": 153,
      "707": 154,
      "100": 155,
      "on": 156,
      "56": 157,
      "ar": 158,
      "64": 159,
      "79": 160,
      "39": 161,
      "44": 162,
      "ck": 163,
      "420": 164,
      "500": 165,
      "76": 166,
      "120": 167,
      "11": 168,
      "75": 169,
      "35": 170,
      "an": 171,
      "88": 172,
      "re": 173,
      "ĠP": 174,
      "se": 175,
      "ol": 176,
      "74": 177,
      "278": 178,
      "34": 179,
      "866": 180,
      "26": 181,
      "st": 182,
      "ow": 183,
      "110": 184,
      "150": 185,
      "320": 186,
      "96": 187,
      "160": 188,
      "54": 189,
      "23": 190,
      "140": 191,
      "ĠSt": 192,
      "ĠHo": 193,
      "210": 194,
      "al": 195,
      "58": 196,
      "200": 197,
      "le": 198,
      "29": 199,
      "ri": 200,
      "43": 201,
      "ed": 202,
      "130": 203,
      "52": 204,
      "73": 205,
      "ru": 206,
      "999": 207,
      "ĠTra": 208,
      "ĠD": 209,
      "en": 210,
      "ĠG": 211,
      "et": 212,
      "101": 213,
      "08": 214,
      "68": 215,
      "303": 216,
      "ig": 217,
      "95": 218,
      "ing": 219,
      "22": 220,
      "310": 221,
      "el": 222,
      "ĠE": 223,
      "ĠU": 224,
      "180": 225,
      "ro": 226,
      "33": 227,
      "77": 228,
      "ĠHou": 229,
      "46": 230,
      "ter": 231,
      "ĠTow": 232,
      "ruck": 233,
      "655": 234,
      "ĠTruck": 235,
      "240": 236,
      "ĠHouse": 237,
      "ad": 238,
      "59": 239,
      "600": 240,
      "ĠV": 241,
      "366": 242,
      "he": 243,
      "362": 244,
      "371": 245,
      "170": 246,
      "306": 247,
      "190": 248,
      "800": 249,
      "ĠI": 250,
      "84": 251,
      "213": 252,
      "55": 253,
      "220": 254,
      "27": 255,
      "igh": 256,
      "280": 257,
      "ac": 258,
      "94": 259,
      "ic": 260,
      "112": 261,
      "614": 262,
      "ion": 263,
      "325": 264,
      "53": 265,
      "ge": 266,
      "370": 267,
      "301": 268,
      "ĠO": 269,
      "93": 270,
      "996": 271,
      "ĠRo": 272,
      "379": 273,
      "400": 274,
      "ran": 275,
      "ĠCo": 276,
      "ĠBri": 277,
      "ler": 278,
      "21": 279,
      "260": 280,
      "230": 281,
      "ĠBu": 282,
      "104": 283,
      "ster": 284,
      "ĠStar": 285,
      "421": 286,
      "op": 287,
      "259": 288,
      "250": 289,
      "69": 290,
      "ld": 291,
      "and": 292,
      "ĠEx": 293,
      "270": 294,
      "128": 295,
      "087": 296,
      "ct": 297,
      "um": 298,
      "83": 299,
      "57": 300,
      "all": 301,
      "242": 302,
      "it": 303,
      "ĠW": 304,
      "290": 305,
      "304": 306,
      "272": 307,
      "ĠCran": 308,
      "ĠCrane": 309,
      "es": 310,
      "144": 311,
      "243": 312,
      "340": 313,
      "sse": 314,
      "360": 315,
      "430": 316,
      "966": 317,
      "ĠTower": 318,
      "47": 319,
      "ff": 320,
      "107": 321,
      "960": 322,
      "992": 323,
      "ith": 324,
      "82": 325,
      "49": 326,
      "997": 327,
      "152": 328,
      "981": 329,
      "168": 330,
      "CS": 331,
      "ĠUCS": 332,
      "62": 333,
      "998": 334,
      "136": 335,
      "208": 336,
      "ĠDe": 337,
      "41": 338,
      "ĠVol": 339,
      "ĠSh": 340,
      "un": 341,
      "241": 342,
      "dge": 343,
      "ĠLo": 344,
      "819": 345,
      "olo": 346,
      "61": 347,
      "iv": 348,
      "sp": 349,
      "416": 350,
      "ĠMo": 351,
      "ighter": 352,
      "ĠBridge": 353,
      "51": 354,
      "382": 355,
      "63": 356,
      "ay": 357,
      "288": 358,
      "ation": 359,
      "ort": 360,
      "mo": 361,
      "176": 362,
      "198": 363,
      "407": 364,
      "330": 365,
      "440": 366,
      "ĠRac": 367,
      "ĠColo": 368,
      "sseum": 369,
      "ĠColosseum": 370,
      "380": 371,
      "09": 372,
      "with": 373,
      "ĠUn": 374,
      "390": 375,
      "ron": 376,
      "870": 377,
      "ĠCar": 378,
      "id": 379,
      "ile": 380,
      "017": 381,
      "la": 382,
      "604": 383,
      "923": 384,
      "89": 385,
      "che": 386,
      "31": 387,
      "ta": 388,
      "ced": 389,
      "ire": 390,
      "880": 391,
      "ĠBen": 392,
      "Ġwith": 393,
      "279": 394,
      "ĠRe": 395,
      "155": 396,
      "346": 397,
      "216": 398,
      "ini": 399,
      "258": 400,
      "383": 401,
      "ĠThe": 402,
      "900": 403,
      "ĠTre": 404,
      "750": 405,
      "way": 406,
      "480": 407,
      "as": 408,
      "is": 409,
      "45": 410,
      "bile": 411,
      "ul": 412,
      "eri": 413,
      "ĠSp": 414,
      "984": 415,
      "184": 416,
      "ĠCa": 417,
      "67": 418,
      "129": 419,
      "ut": 420,
      "052": 421,
      "321": 422,
      "roc": 423,
      "192": 424,
      "ĠCon": 425,
      "574": 426,
      "ĠBo": 427,
      "447": 428,
      "980": 429,
      "350": 430,
      "ĠOff": 431,
      "tron": 432,
      "ĠVoltron": 433,
      "322": 434,
      "av": 435,
      "ie": 436,
      "ers": 437,
      "427": 438,
      "367": 439,
      "37": 440,
      "195": 441,
      "ĠTrain": 442,
      "ĠTree": 443,
      "191": 444,
      "324": 445,
      "erra": 446,
      "erial": 447,
      "ĠTown": 448,
      "040": 449,
      "lan": 450,
      "ord": 451,
      "560": 452,
      "403": 453,
      "638": 454,
      "ĠJ": 455,
      "542": 456,
      "003": 457,
      "965": 458,
      "ĠFire": 459,
      "174": 460,
      "ĠCor": 461,
      "mperial": 462,
      "ĠImperial": 463,
      "700": 464,
      "ner": 465,
      "030": 466,
      "92": 467,
      "ower": 468,
      "81": 469,
      "ĠX": 470,
      "ur": 471,
      "520": 472,
      "gh": 473,
      "308": 474,
      "97": 475,
      "307": 476,
      "450": 477,
      "06": 478,
      "139": 479,
      "87": 480,
      "428": 481,
      "987": 482,
      "951": 483,
      "am": 484,
      "193": 485,
      "ch": 486,
      "368": 487,
      "opter": 488,
      "408": 489,
      "163": 490,
      "elic": 491,
      "ild": 492,
      "580": 493,
      "978": 494,
      "ĠPlan": 495,
      "elicopter": 496,
      "609": 497,
      "287": 498,
      "ĠCh": 499,
      "374": 500,
      "ĠHelicopter": 501,
      "85": 502,
      "ver": 503,
      "ĠIn": 504,
      "ĠBat": 505,
      "410": 506,
      "460": 507,
      "ĠMini": 508,
      "ĠTran": 509,
      "114": 510,
      "ĠBig": 511,
      "342": 512,
      "605": 513,
      "-w": 514,
      "224": 515,
      "019": 516,
      "196": 517,
      "ĠPower": 518,
      "179": 519,
      "939": 520,
      "245": 521,
      "ĠCom": 522,
      "ent": 523,
      "924": 524,
      "108": 525,
      "ĠHigh": 526,
      "122": 527,
      "911": 528,
      "235": 529,
      "ĠStarf": 530,
      "ĠBuild": 531,
      "404": 532,
      "ue": 533,
      "ader": 534,
      "eed": 535,
      "-wing": 536,
      "ĠStarfighter": 537,
      "001": 538,
      "ir": 539,
      "ĠAd": 540,
      "tain": 541,
      "378": 542,
      "940": 543,
      "ĠMer": 544,
      "cedes": 545,
      "ĠMercedes": 546,
      "570": 547,
      "ĠExc": 548,
      "ĠAdv": 549,
      "982": 550,
      "106": 551,
      "323": 552,
      "il": 553,
      "256": 554,
      "ine": 555,
      "990": 556,
      "ĠTransp": 557,
      "680": 558,
      "499": 559,
      "495": 560,
      "ĠY": 561,
      "490": 562,
      "720": 563,
      "ĠHighway": 564,
      "mobile": 565,
      "162": 566,
      "ited": 567,
      "07": 568,
      "ĠExp": 569,
      "010": 570,
      "132": 571,
      "ĠTransport": 572,
      "ĠMan": 573,
      "567": 574,
      "620": 575,
      "ator": 576,
      "488": 577,
      "ade": 578,
      "ĠSe": 579,
      "683": 580,
      "ĠStation": 581,
      "113": 582,
      "244": 583,
      "312": 584,
      "ice": 585,
      "248": 586,
      "589": 587,
      "lo": 588,
      "232": 589,
      "ĠAn": 590,
      "ĠSn": 591,
      "950": 592,
      "del": 593,
      "284": 594,
      "760": 595,
      "663": 596,
      "640": 597,
      "ive": 598,
      "yer": 599,
      "751": 600,
      "ĠUnited": 601,
      "sche": 602,
      "orsche": 603,
      "ĠPorsche": 604,
      "bo": 605,
      "393": 606,
      "ĠBatmobile": 607,
      "993": 608,
      "ĠCorner": 609,
      "119": 610,
      "246": 611,
      "470": 612,
      "329": 613,
      "433": 614,
      "ĠSnow": 615,
      "025": 616,
      "118": 617,
      "123": 618,
      "352": 619,
      "ard": 620,
      "530": 621,
      "766": 622,
      "985": 623,
      "151": 624,
      "ĠRol": 625,
      "156": 626,
      "616": 627,
      "124": 628,
      "up": 629,
      "643": 630,
      "-W": 631,
      "ĠFighter": 632,
      "759": 633,
      "186": 634,
      "ang": 635,
      "ĠRoad": 636,
      "105": 637,
      "994": 638,
      "608": 639,
      "296": 640,
      "ĠRacer": 641,
      "ĠBla": 642,
      "178": 643,
      "116": 644,
      "444": 645,
      "ĠFl": 646,
      "bb": 647,
      "ĠHobb": 648,
      "ĠHobby": 649,
      "070": 650,
      "rol": 651,
      "Ġand": 652,
      "ĠStat": 653,
      "errain": 654,
      "-Wing": 655,
      "ce": 656,
      "540": 657,
      "ĠII": 658,
      "264": 659,
      "147": 660,
      "em": 661,
      "03": 662,
      "ĠCoa": 663,
      "86": 664,
      "173": 665,
      "ctor": 666,
      "675": 667,
      "146": 668,
      "710": 669,
      "454": 670,
      "avator": 671,
      "ĠExcavator": 672,
      "ĠTerrain": 673,
      "550": 674,
      "336": 675,
      "der": 676,
      "752": 677,
      "iler": 678,
      "ĠAp": 679,
      "stro": 680,
      "464": 681,
      "148": 682,
      "ĠPi": 683,
      "ĠRace": 684,
      "ĠDestro": 685,
      "ĠDestroyer": 686,
      "660": 687,
      "698": 688,
      "au": 689,
      "ĠJet": 690,
      "309": 691,
      "ĠCra": 692,
      "489": 693,
      "624": 694,
      "ĠMar": 695,
      "610": 696,
      "134": 697,
      "bel": 698,
      "ĠRebel": 699,
      "043": 700,
      "445": 701,
      "449": 702,
      "761": 703,
      "ib": 704,
      "ĠTractor": 705,
      "02": 706,
      "ĠCru": 707,
      "ĠRoller": 708,
      "ĠCoaster": 709,
      "125": 710,
      "ons": 711,
      "ĠAroc": 712,
      "ĠBenz": 713,
      "ĠBlack": 714,
      "ĠArocs": 715,
      "417": 716,
      "of": 717,
      "958": 718,
      "ĠAir": 719,
      "ĠTrailer": 720,
      "'s": 721,
      "01": 722,
      "ĠTraff": 723,
      "ĠOld": 724,
      "chester": 725,
      "ĠPlane": 726,
      "ĠManchester": 727,
      "ĠTrafford": 728,
      "002": 729,
      "885": 730,
      "172": 731,
      "sh": 732,
      "816": 733,
      "heel": 734,
      "ok": 735,
      "ace": 736,
      "ts": 737,
      "389": 738,
      "co": 739,
      "ĠAut": 740,
      "121": 741,
      "ĠStre": 742,
      "ath": 743,
      "ĠHall": 744,
      "933": 745,
      "sters": 746,
      "Ġof": 747,
      "ĠDeath": 748,
      "930": 749,
      "412": 750,
      "406": 751,
      "648": 752,
      "484": 753,
      "510": 754,
      "057": 755,
      "iz": 756,
      "654": 757,
      "035": 758,
      "tle": 759,
      "158": 760,
      "254": 761,
      "989": 762,
      "ĠStreet": 763,
      "886": 764,
      "292": 765,
      "970": 766,
      "91": 767,
      "ust": 768,
      "328": 769,
      "ĠLand": 770,
      "126": 771,
      "154": 772,
      "253": 773,
      "ĠDu": 774,
      "875": 775,
      "012": 776,
      "road": 777,
      "ĠWheel": 778,
      "974": 779,
      "ple": 780,
      "ĠShut": 781,
      "ĠShuttle": 782,
      "cket": 783,
      "344": 784,
      "305": 785,
      "177": 786,
      "ĠBuilding": 787,
      "eeder": 788,
      "111": 789,
      "ank": 790,
      "ĠGre": 791,
      "ĠSpace": 792,
      "ĠPick": 793,
      "115": 794,
      "138": 795,
      "456": 796,
      "021": 797,
      "tre": 798,
      "159": 799,
      "treme": 800,
      "339": 801,
      "799": 802,
      "509": 803,
      "891": 804,
      "ĠBrick": 805,
      "ric": 806,
      "028": 807,
      "ss": 808,
      "tor": 809,
      "072": 810,
      "ag": 811,
      "197": 812,
      "914": 813,
      "ĠLog": 814,
      "601": 815,
      "wler": 816,
      "ĠRS": 817,
      "ĠCrawler": 818,
      "590": 819,
      "109": 820,
      "219": 821,
      "688": 822,
      "545": 823,
      "577": 824,
      "860": 825,
      "bin": 826,
      "255": 827,
      "576": 828,
      "164": 829,
      "443": 830,
      "ĠAr": 831,
      "448": 832,
      "376": 833,
      "656": 834,
      "967": 835,
      "ĠCool": 836,
      "-M": 837,
      "gade": 838,
      "135": 839,
      "142": 840,
      "086": 841,
      "669": 842,
      "661": 843,
      "474": 844,
      "925": 845,
      "ure": 846,
      "690": 847,
      "906": 848,
      "ĠMack": 849,
      "them": 850,
      "ĠAnthem": 851,
      "585": 852,
      "650": 853,
      "041": 854,
      "212": 855,
      "674": 856,
      "err": 857,
      "920": 858,
      "415": 859,
      "ĠOffroad": 860,
      "ĠInter": 861,
      "599": 862,
      "tic": 863,
      "ĠBe": 864,
      "394": 865,
      "986": 866,
      "872": 867,
      "297": 868,
      "ft": 869,
      "ell": 870,
      "823": 871,
      "094": 872,
      "ng": 873,
      "port": 874,
      "speeder": 875,
      "ĠSnowspeeder": 876,
      "166": 877,
      "432": 878,
      "020": 879,
      "ara": 880,
      "189": 881,
      "354": 882,
      "182": 883,
      "188": 884,
      "IE": 885,
      "ĠTIE": 886,
      "424": 887,
      "820": 888,
      "te": 889,
      "602": 890,
      "358": 891,
      "ĠBucket": 892,
      "808": 893,
      "238": 894,
      "225": 895,
      "umn": 896,
      "ĠLoader": 897,
      "ĠAutumn": 898,
      "fe": 899,
      "ugh": 900,
      "781": 901,
      "ond": 902,
      "ĠShop": 903,
      "iser": 904,
      "ĠCruiser": 905,
      "ĠFor": 906,
      "995": 907,
      "ĠRough": 908,
      "268": 909,
      "ity": 910,
      "809": 911,
      "392": 912,
      "ind": 913,
      "103": 914,
      "ian": 915,
      "754": 916,
      "ĠExtreme": 917,
      "678": 918,
      "859": 919,
      "ĠBrigade": 920,
      "840": 921,
      "496": 922,
      "483": 923,
      "ĠCafe": 924,
      "ĠAdvent": 925,
      "318": 926,
      "lock": 927,
      "234": 928,
      "976": 929,
      "bh": 930,
      "ĠLie": 931,
      "ĠGara": 932,
      "untain": 933,
      "bherr": 934,
      "ĠLiebherr": 935,
      "ĠGarage": 936,
      "956": 937,
      "ĠMet": 938,
      "ĠMust": 939,
      "ĠFord": 940,
      "ĠSk": 941,
      "ĠMustang": 942,
      "426": 943,
      "653": 944,
      "630": 945,
      "149": 946,
      "145": 947,
      "ide": 948,
      "948": 949,
      "qu": 950,
      "056": 951,
      "127": 952,
      "784": 953,
      "252": 954,
      "876": 955,
      "384": 956,
      "266": 957,
      "815": 958,
      "850": 959,
      "117": 960,
      "740": 961,
      "ally": 962,
      "ĠRa": 963,
      "811": 964,
      "395": 965,
      "199": 966,
      "lect": 967,
      "ĠSup": 968,
      "207": 969,
      "528": 970,
      "473": 971,
      "ater": 972,
      "204": 973,
      "ĠHar": 974,
      "ĠAdventure": 975,
      "913": 976,
      "165": 977,
      "236": 978,
      "695": 979,
      "359": 980,
      "ĠFlat": 981,
      "214": 982,
      "276": 983,
      "ke": 984,
      "05": 985,
      "926": 986,
      "681": 987,
      "217": 988,
      "007": 989,
      "ĠSm": 990,
      "472": 991,
      "732": 992,
      "169": 993,
      "167": 994,
      "459": 995,
      "265": 996,
      "228": 997,
      "ear": 998,
      "ĠFerra": 999,
      "ĠMobile": 1000,
      "ĠFerrari": 1001,
      "amb": 1002,
      "455": 1003,
      "odel": 1004,
      "ĠPar": 1005,
      "-Model": 1006,
      "372": 1007,
      "mand": 1008,
      "ĠRally": 1009,
      "597": 1010,
      "262": 1011,
      "758": 1012,
      "141": 1013,
      "ĠRes": 1014,
      "anced": 1015,
      "ĠAdvanced": 1016,
      "365": 1017,
      "ress": 1018,
      "082": 1019,
      "ĠState": 1020,
      "015": 1021,
      "973": 1022,
      "229": 1023,
      "386": 1024,
      "806": 1025,
      "137": 1026,
      "-S": 1027,
      "375": 1028,
      "485": 1029,
      "227": 1030,
      "763": 1031,
      "988": 1032,
      "lor": 1033,
      "ĠExplor": 1034,
      "ĠExplorer": 1035,
      "670": 1036,
      "157": 1037,
      "tainer": 1038,
      "175": 1039,
      "om": 1040,
      "ĠDump": 1041,
      "785": 1042,
      "479": 1043,
      "133": 1044,
      "stru": 1045,
      "ĠCommand": 1046,
      "struct": 1047,
      "201": 1048,
      "598": 1049,
      "979": 1050,
      "774": 1051,
      "143": 1052,
      "734": 1053,
      "ĠPa": 1054,
      "437": 1055,
      "883": 1056,
      "719": 1057,
      "884": 1058,
      "161": 1059,
      "sseng": 1060,
      "ĠPasseng": 1061,
      "ĠPassenger": 1062,
      "171": 1063,
      "tta": 1064,
      "ĠCen": 1065,
      "518": 1066,
      "ĠAT": 1067,
      "206": 1068,
      "423": 1069,
      "391": 1070,
      "ty": 1071,
      "361": 1072,
      "shop": 1073,
      "316": 1074,
      "mot": 1075,
      "ĠContainer": 1076,
      "267": 1077,
      "559": 1078,
      "ible": 1079,
      "418": 1080,
      "936": 1081,
      "285": 1082,
      "ĠSmall": 1083,
      "953": 1084,
      "031": 1085,
      "334": 1086,
      "ĠAl": 1087,
      "641": 1088,
      "187": 1089,
      "vo": 1090,
      "Ġ%": 1091,
      "ĠLion": 1092,
      "ĠBook": 1093,
      "ĠBookshop": 1094,
      "919": 1095,
      "233": 1096,
      "ivers": 1097,
      "ĠUnivers": 1098,
      "ĠUniversal": 1099,
      "867": 1100,
      "827": 1101,
      "194": 1102,
      "647": 1103,
      "ĠPro": 1104,
      "932": 1105,
      "ĠCre": 1106,
      "218": 1107,
      "852": 1108,
      "ĠMaul": 1109,
      "arth": 1110,
      "ĠDarth": 1111,
      "637": 1112,
      "226": 1113,
      "222": 1114,
      "ĠVolvo": 1115,
      "402": 1116,
      "ĠLions": 1117,
      "507": 1118,
      "239": 1119,
      "780": 1120,
      "356": 1121,
      "ve": 1122,
      "639": 1123,
      "606": 1124,
      "185": 1125,
      "554": 1126,
      "810": 1127,
      "927": 1128,
      "552": 1129,
      "385": 1130,
      "623": 1131,
      "AS": 1132,
      "282": 1133,
      "ĠGroc": 1134,
      "ĠGreen": 1135,
      "ĠGrocer": 1136,
      "036": 1137,
      "865": 1138,
      "742": 1139,
      "846": 1140,
      "ĠMed": 1141,
      "tible": 1142,
      "ĠSi": 1143,
      "ĠConver": 1144,
      "ĠConvertible": 1145,
      "319": 1146,
      "882": 1147,
      "273": 1148,
      "414": 1149,
      "ĠProp": 1150,
      "bed": 1151,
      "Ġin": 1152,
      "orgh": 1153,
      "705": 1154,
      "ĠLamb": 1155,
      "ĠGall": 1156,
      "ardo": 1157,
      "ĠFlatbed": 1158,
      "orghini": 1159,
      "ĠLamborghini": 1160,
      "ĠGallardo": 1161,
      "131": 1162,
      "737": 1163,
      "sons": 1164,
      "mpsons": 1165,
      "ĠSimpsons": 1166,
      "est": 1167,
      "ĠSet": 1168,
      "283": 1169,
      "825": 1170,
      "512": 1171,
      "788": 1172,
      "743": 1173,
      "153": 1174,
      "830": 1175,
      "612": 1176,
      "ĠGT": 1177,
      "523": 1178,
      "ĠBank": 1179,
      "311": 1180,
      "611": 1181,
      "814": 1182,
      "326": 1183,
      "ĠHot": 1184,
      "419": 1185,
      "ĠCent": 1186,
      ".ld": 1187,
      ".ldr": 1188,
      "422": 1189,
      "ĠMountain": 1190,
      "ĠMon": 1191,
      "615": 1192,
      "ect": 1193,
      "008": 1194,
      "ĠOffice": 1195,
      "ĠCombin": 1196,
      "ĠCombination": 1197,
      "778": 1198,
      "453": 1199,
      "961": 1200,
      "lectric": 1201,
      "373": 1202,
      "stau": 1203,
      "rant": 1204,
      "ĠRestau": 1205,
      "isian": 1206,
      "ĠExpress": 1207,
      "ĠSuper": 1208,
      "ĠParisian": 1209,
      "ĠCenter": 1210,
      "ĠRestaurant": 1211,
      "787": 1212,
      "ĠVe": 1213,
      "491": 1214,
      "313": 1215,
      "066": 1216,
      "nt": 1217,
      "755": 1218,
      "869": 1219,
      "702": 1220,
      "531": 1221,
      "060": 1222,
      "088": 1223,
      "544": 1224,
      "ĠBlock": 1225,
      "355": 1226,
      "469": 1227,
      "465": 1228,
      "991": 1229,
      "183": 1230,
      "492": 1231,
      "607": 1232,
      "ĠDet": 1233,
      "ight": 1234,
      "498": 1235,
      "438": 1236,
      "511": 1237,
      "281": 1238,
      "401": 1239,
      "ĠCla": 1240,
      "ĠSat": 1241,
      "952": 1242,
      "006": 1243,
      "ĠPet": 1244,
      "844": 1245,
      "975": 1246,
      "gw": 1247,
      "ĠLine": 1248,
      "ĠSqu": 1249,
      "arts": 1250,
      "ĠHogw": 1251,
      "ĠHogwarts": 1252,
      "090": 1253,
      "718": 1254,
      "699": 1255,
      "486": 1256,
      "635": 1257,
      "724": 1258,
      "ba": 1259,
      "comot": 1260,
      "comotive": 1261,
      "ĠK": 1262,
      "536": 1263,
      "364": 1264,
      "568": 1265,
      "urn": 1266,
      "ĠSaturn": 1267,
      "iner": 1268,
      "922": 1269,
      "per": 1270,
      "546": 1271,
      "333": 1272,
      "223": 1273,
      "269": 1274,
      "890": 1275,
      "ives": 1276,
      "ĠModel": 1277,
      "ectives": 1278,
      "ĠDetectives": 1279,
      "ĠPol": 1280,
      "659": 1281,
      "081": 1282,
      "971": 1283,
      "ĠGal": 1284,
      "904": 1285,
      "712": 1286,
      "aring": 1287,
      "646": 1288,
      "ĠRoaring": 1289,
      "ĠRoadsters": 1290,
      "493": 1291,
      "od": 1292,
      "ĠAirport": 1293,
      "501": 1294,
      "692": 1295,
      "-R": 1296,
      "-Ro": 1297,
      "215": 1298,
      "770": 1299,
      "627": 1300,
      "ase": 1301,
      "ĠPolice": 1302,
      "434": 1303,
      "271": 1304,
      "341": 1305,
      "237": 1306,
      "side": 1307,
      "cue": 1308,
      "ĠNAS": 1309,
      "ollo": 1310,
      "947": 1311,
      "ĠApollo": 1312,
      "ĠRescue": 1313,
      "ĠNASA": 1314,
      "079": 1315,
      "696": 1316,
      "693": 1317,
      "ĠBl": 1318,
      "Ġx": 1319,
      "363": 1320,
      "ĠTrack": 1321,
      "ĠLocomotive": 1322,
      "struction": 1323,
      "080": 1324,
      "839": 1325,
      "767": 1326,
      "331": 1327,
      "ĠApple": 1328,
      "ĠCity": 1329,
      "274": 1330,
      "-B": 1331,
      "211": 1332,
      "790": 1333,
      "stle": 1334,
      "ĠCastle": 1335,
      "277": 1336,
      "584": 1337,
      "181": 1338,
      "829": 1339,
      "us": 1340,
      "roliner": 1341,
      "ĠStatue": 1342,
      "ĠMetroliner": 1343,
      "676": 1344,
      "ĠRail": 1345,
      "929": 1346,
      "mith": 1347,
      "smith": 1348,
      "ĠMaers": 1349,
      "ĠBlacksmith": 1350,
      "ĠMaersk": 1351,
      "050": 1352,
      "261": 1353,
      "ĠRover": 1354,
      "411": 1355,
      "934": 1356,
      "662": 1357,
      "ĠBusters": 1358,
      "013": 1359,
      "983": 1360,
      "396": 1361,
      "888": 1362,
      "-E": 1363,
      "ĠTri": 1364,
      "657": 1365,
      "462": 1366,
      "813": 1367,
      "353": 1368,
      "628": 1369,
      "004": 1370,
      "202": 1371,
      "247": 1372,
      "694": 1373,
      "083": 1374,
      "ĠRun": 1375,
      "205": 1376,
      "332": 1377,
      "ĠRobo": 1378,
      "494": 1379,
      "ized": 1380,
      "ĠHau": 1381,
      "446": 1382,
      "ĠRunner": 1383,
      "ĠHauler": 1384,
      "738": 1385,
      "543": 1386,
      "ĠBlockade": 1387,
      "592": 1388,
      "val": 1389,
      "709": 1390,
      "522": 1391,
      "091": 1392,
      "ieval": 1393,
      "ĠMedieval": 1394,
      "828": 1395,
      "221": 1396,
      "664": 1397,
      "793": 1398,
      "249": 1399,
      "ach": 1400,
      "ĠBus": 1401,
      "ĠBlue": 1402,
      "633": 1403,
      "451": 1404,
      "038": 1405,
      "564": 1406,
      "672": 1407,
      "964": 1408,
      "736": 1409,
      "ift": 1410,
      "man": 1411,
      "209": 1412,
      "oper": 1413,
      "458": 1414,
      "349": 1415,
      "777": 1416,
      "772": 1417,
      "357": 1418,
      "452": 1419,
      "mpire": 1420,
      "sel": 1421,
      "ĠDie": 1422,
      "ĠEmpire": 1423,
      "ĠDiesel": 1424,
      "848": 1425,
      "946": 1426,
      "zer": 1427,
      "ĠLib": 1428,
      "erty": 1429,
      "ĠPickup": 1430,
      "ĠLiberty": 1431,
      "716": 1432,
      "-D": 1433,
      "642": 1434,
      "776": 1435,
      "289": 1436,
      "425": 1437,
      "858": 1438,
      "for": 1439,
      "ĠTriple": 1440,
      "298": 1441,
      "263": 1442,
      "291": 1443,
      "636": 1444,
      "ĠLe": 1445,
      "504": 1446,
      "338": 1447,
      "706": 1448,
      "782": 1449,
      "ho": 1450,
      "ated": 1451,
      "ĠLond": 1452,
      "689": 1453,
      "ulated": 1454,
      "ĠArtic": 1455,
      "ĠLondon": 1456,
      "ĠArticulated": 1457,
      "low": 1458,
      "ozer": 1459,
      "431": 1460,
      "005": 1461,
      "910": 1462,
      "796": 1463,
      "347": 1464,
      "478": 1465,
      "977": 1466,
      "667": 1467,
      "618": 1468,
      "275": 1469,
      "409": 1470,
      "ĠLa": 1471,
      "515": 1472,
      "818": 1473,
      "730": 1474,
      "ga": 1475,
      "928": 1476,
      "762": 1477,
      "864": 1478,
      "ĠHor": 1479,
      "405": 1480,
      "203": 1481,
      "ĠSea": 1482,
      "708": 1483,
      "294": 1484,
      "526": 1485,
      "877": 1486,
      "ven": 1487,
      "613": 1488,
      "798": 1489,
      "hic": 1490,
      "ĠVehic": 1491,
      "ĠVehicle": 1492,
      "457": 1493,
      "551": 1494,
      "ĠAll": 1495,
      "045": 1496,
      "899": 1497,
      "893": 1498,
      "ĠRig": 1499,
      "ĠTur": 1500,
      "768": 1501,
      "eav": 1502,
      "ĠHeav": 1503,
      "ĠHeavy": 1504,
      "764": 1505,
      "369": 1506,
      "836": 1507,
      "034": 1508,
      "645": 1509,
      "ĠMark": 1510,
      "026": 1511,
      "ĠRed": 1512,
      "071": 1513,
      "315": 1514,
      "317": 1515,
      "804": 1516,
      "587": 1517,
      "047": 1518,
      "547": 1519,
      "ĠEn": 1520,
      "imo": 1521,
      "ph": 1522,
      "enz": 1523,
      "ĠUnimo": 1524,
      "-Benz": 1525,
      "ĠUnimog": 1526,
      "812": 1527,
      "ike": 1528,
      "629": 1529,
      "018": 1530,
      "944": 1531,
      "348": 1532,
      "548": 1533,
      "ĠOce": 1534,
      "ĠOcean": 1535,
      "668": 1536,
      "729": 1537,
      "617": 1538,
      "vet": 1539,
      "293": 1540,
      "ĠMotor": 1541,
      "299": 1542,
      "377": 1543,
      "573": 1544,
      "619": 1545,
      "ral": 1546,
      "ĠHut": 1547,
      "ĠBeach": 1548,
      "337": 1549,
      "fen": 1550,
      "ĠDefen": 1551,
      "ider": 1552,
      "ĠDefender": 1553,
      "558": 1554,
      "ham": 1555,
      "ĠTh": 1556,
      "ĠCater": 1557,
      "251": 1558,
      "ĠHouses": 1559,
      "ĠSeven": 1560,
      "ĠCaterham": 1561,
      "345": 1562,
      "588": 1563,
      "ub": 1564,
      "ĠBase": 1565,
      "314": 1566,
      "517": 1567,
      "632": 1568,
      "orm": 1569,
      "968": 1570,
      "704": 1571,
      "397": 1572,
      "773": 1573,
      "cer": 1574,
      "ars": 1575,
      "715": 1576,
      "ĠAtta": 1577,
      "941": 1578,
      "ition": 1579,
      "ĠAttack": 1580,
      "634": 1581,
      "797": 1582,
      "-e": 1583,
      "516": 1584,
      "-electric": 1585,
      "231": 1586,
      "257": 1587,
      "ĠPo": 1588,
      "849": 1589,
      "age": 1590,
      "dition": 1591,
      "rind": 1592,
      "ĠGear": 1593,
      "ĠGrind": 1594,
      "ĠEdition": 1595,
      "ĠGrinders": 1596,
      "725": 1597,
      "957": 1598,
      "286": 1599,
      "04": 1600,
      "ĠMi": 1601,
      "879": 1602,
      "bine": 1603,
      "dul": 1604,
      "ĠFive": 1605,
      "503": 1606,
      "ĠModul": 1607,
      "ĠModulars": 1608,
      "779": 1609,
      "399": 1610,
      "826": 1611,
      "ment": 1612,
      "381": 1613,
      "972": 1614,
      "bre": 1615,
      "ĠFre": 1616,
      "ĠNe": 1617,
      "erbre": 1618,
      "728": 1619,
      "ĠGing": 1620,
      "erbread": 1621,
      "ĠGingerbread": 1622,
      "436": 1623,
      "gy": 1624,
      "555": 1625,
      "ĠBul": 1626,
      "521": 1627,
      "685": 1628,
      "ĠCrew": 1629,
      "388": 1630,
      "335": 1631,
      "802": 1632,
      "cep": 1633,
      "ĠIntercep": 1634,
      "EK": 1635,
      "ip": 1636,
      "ye": 1637,
      "own": 1638,
      "ĠCommander": 1639,
      "EG": 1640,
      "ĠLEG": 1641,
      "658": 1642,
      "562": 1643,
      "ĠLEGO": 1644,
      "398": 1645,
      "807": 1646,
      "487": 1647,
      "eing": 1648,
      "erion": 1649,
      "ĠBell": 1650,
      "rey": 1651,
      "ĠTrac": 1652,
      "ĠVC": 1653,
      "847": 1654,
      "ĠOsp": 1655,
      "ĠBoeing": 1656,
      "ĠXerion": 1657,
      "ĠClaas": 1658,
      "ĠOsprey": 1659,
      "024": 1660,
      "954": 1661,
      "792": 1662,
      "582": 1663,
      "actic": 1664,
      "izon": 1665,
      "ĠHorizon": 1666,
      "ĠInstruction": 1667,
      "ĠFreight": 1668,
      "ĠPri": 1669,
      "tin": 1670,
      "ĠAst": 1671,
      "ames": 1672,
      "505": 1673,
      "ĠTw": 1674,
      "ĠBond": 1675,
      "ĠDB": 1676,
      "ĠJames": 1677,
      "ĠMartin": 1678,
      "ĠGalactic": 1679,
      "ĠAstin": 1680,
      "942": 1681,
      "059": 1682,
      "756": 1683,
      "921": 1684,
      "ĠRSR": 1685,
      "868": 1686,
      "ĠVader": 1687,
      "are": 1688,
      "ĠSky": 1689,
      "ggy": 1690,
      "rs": 1691,
      "ĠZ": 1692,
      "ĠAme": 1693,
      "ĠBuggy": 1694,
      "ĠSpeed": 1695,
      "ĠAmeric": 1696,
      "461": 1697,
      "ĠTar": 1698,
      "733": 1699,
      "ĠGreat": 1700,
      "ĠTarga": 1701,
      "556": 1702,
      "586": 1703,
      "832": 1704,
      "821": 1705,
      "ĠHotel": 1706,
      "ĠTwin": 1707,
      "684": 1708,
      "477": 1709,
      "rag": 1710,
      "ĠDrag": 1711,
      "ĠCentral": 1712,
      "po": 1713,
      "ĠHol": 1714,
      "iday": 1715,
      "ĠMarket": 1716,
      "ĠHoliday": 1717,
      "857": 1718,
      "644": 1719,
      "073": 1720,
      "442": 1721,
      "cre": 1722,
      "969": 1723,
      "ate": 1724,
      "ĠTank": 1725,
      "ĠCroc": 1726,
      "odile": 1727,
      "ĠCrocodile": 1728,
      "677": 1729,
      "714": 1730,
      "009": 1731,
      "085": 1732,
      "949": 1733,
      "044": 1734,
      "935": 1735,
      "467": 1736,
      "959": 1737,
      "ai": 1738,
      "838": 1739,
      "ina": 1740,
      "666": 1741,
      "343": 1742,
      "ash": 1743,
      "468": 1744,
      "ĠLift": 1745,
      "ĠCabin": 1746,
      "039": 1747,
      "896": 1748,
      "-A": 1749,
      "ep": 1750,
      "519": 1751,
      "ĠGas": 1752,
      "016": 1753,
      "xer": 1754,
      "387": 1755,
      "ldozer": 1756,
      "ĠMixer": 1757,
      "ĠBulldozer": 1758,
      "894": 1759,
      "WD": 1760,
      "cra": 1761,
      "unch": 1762,
      "ĠLaunch": 1763,
      "craft": 1764,
      "571": 1765,
      "909": 1766,
      "ĠRobot": 1767,
      "803": 1768,
      "938": 1769,
      "731": 1770,
      "fro": 1771,
      "Ġfro": 1772,
      "ĠChal": 1773,
      "ĠRoadster": 1774,
      "Ġfrom": 1775,
      "506": 1776,
      "ks": 1777,
      "wag": 1778,
      "etle": 1779,
      "ĠVolks": 1780,
      "ĠBeetle": 1781,
      "wagen": 1782,
      "ĠVolkswagen": 1783,
      "625": 1784,
      "eam": 1785,
      "fal": 1786,
      "gar": 1787,
      "ĠTrafal": 1788,
      "ĠSquare": 1789,
      "ĠTrafalgar": 1790,
      "466": 1791,
      "099": 1792,
      "042": 1793,
      "902": 1794,
      "439": 1795,
      "054": 1796,
      "cy": 1797,
      "579": 1798,
      "898": 1799,
      "856": 1800,
      "ĠCro": 1801,
      "ĠGo": 1802,
      "682": 1803,
      "cher": 1804,
      "-ST": 1805,
      "563": 1806,
      "915": 1807,
      "327": 1808,
      "ĠRod": 1809,
      "502": 1810,
      "ls": 1811,
      "ĠFort": 1812,
      "429": 1813,
      "ĠSta": 1814,
      "594": 1815,
      "-AT": 1816,
      "525": 1817,
      "565": 1818,
      "795": 1819,
      "089": 1820,
      "im": 1821,
      "295": 1822,
      "Mw": 1823,
      "lus": 1824,
      "ĠExclus": 1825,
      "ĠSkul": 1826,
      "ĠExclusive": 1827,
      "686": 1828,
      "nge": 1829,
      "805": 1830,
      "901": 1831,
      "527": 1832,
      "ĠHarve": 1833,
      "ĠRailway": 1834,
      "ĠTurbo": 1835,
      "ĠHarvester": 1836,
      "za": 1837,
      "726": 1838,
      "593": 1839,
      "889": 1840,
      "ast": 1841,
      "ĠSolo": 1842,
      "ĠPat": 1843,
      "ley": 1844,
      "lenge": 1845,
      "ĠCotta": 1846,
      "ĠChallenge": 1847,
      "ĠCottage": 1848,
      "ging": 1849,
      "ĠRider": 1850,
      "745": 1851,
      "746": 1852,
      "eta": 1853,
      "ĠLogging": 1854,
      "652": 1855,
      "831": 1856,
      "-U": 1857,
      "City": 1858,
      "lt": 1859,
      "ĠSen": 1860,
      "481": 1861,
      "ĠUlt": 1862,
      "-Up": 1863,
      "011": 1864,
      "578": 1865,
      "581": 1866,
      "596": 1867,
      "841": 1868,
      "XX": 1869,
      "892": 1870,
      "ud": 1871,
      "ĠWag": 1872,
      "014": 1873,
      "744": 1874,
      "916": 1875,
      "ĠHover": 1876,
      "ĠCooper": 1877,
      "ĠHovercraft": 1878,
      "cle": 1879,
      "uri": 1880,
      "769": 1881,
      "687": 1882,
      "ĠCombine": 1883,
      "032": 1884,
      "048": 1885,
      "ite": 1886,
      "529": 1887,
      "plow": 1888,
      "482": 1889,
      "ill": 1890,
      "ĠSnowplow": 1891,
      "665": 1892,
      "441": 1893,
      "mu": 1894,
      "trol": 1895,
      "vel": 1896,
      "ĠFet": 1897,
      "ĠBoba": 1898,
      "508": 1899,
      "ĠNew": 1900,
      "tro": 1901,
      "ĠHours": 1902,
      "unt": 1903,
      "forcer": 1904,
      "ĠEnforcer": 1905,
      "084": 1906,
      "car": 1907,
      "861": 1908,
      "783": 1909,
      "ĠBike": 1910,
      "549": 1911,
      "ĠFett": 1912,
      "476": 1913,
      "514": 1914,
      "851": 1915,
      "ĠFat": 1916,
      "erv": 1917,
      "539": 1918,
      "878": 1919,
      "098": 1920,
      "Xf": 1921,
      "hXf": 1922,
      "ĠMetro": 1923,
      "ĠMotorized": 1924,
      "hXfMw": 1925,
      "078": 1926,
      "621": 1927,
      "887": 1928,
      "497": 1929,
      "435": 1930,
      "Ġth": 1931,
      "801": 1932,
      "691": 1933,
      "Ġthe": 1934,
      "945": 1935,
      "622": 1936,
      "ork": 1937,
      "862": 1938,
      "ĠEm": 1939,
      "626": 1940,
      "ĠCat": 1941,
      "ale": 1942,
      "871": 1943,
      "erman": 1944,
      "ene": 1945,
      "avid": 1946,
      "ĠLeg": 1947,
      "uard": 1948,
      "ĠTo": 1949,
      "ĠShell": 1950,
      "538": 1951,
      "475": 1952,
      "son": 1953,
      "ĠChe": 1954,
      "ĠCreat": 1955,
      "532": 1956,
      "955": 1957,
      "027": 1958,
      "063": 1959,
      "572": 1960,
      "ly": 1961,
      "789": 1962,
      "ĠGerman": 1963,
      "ĠAuto": 1964,
      "679": 1965,
      "gk": 1966,
      "603": 1967,
      "ĠChas": 1968,
      "ĠFork": 1969,
      "ĠTracked": 1970,
      "EKP": 1971,
      "gkEKP": 1972,
      "061": 1973,
      "553": 1974,
      "931": 1975,
      "ĠDro": 1976,
      "ĠGho": 1977,
      "ĠUp": 1978,
      "ĠDroid": 1979,
      "ĠGhost": 1980,
      "591": 1981,
      "917": 1982,
      "ĠCust": 1983,
      "asons": 1984,
      "ĠChang": 1985,
      "ĠSeasons": 1986,
      "ĠFormu": 1987,
      "ĠTanker": 1988,
      "ĠCustom": 1989,
      "ĠChanging": 1990,
      "ĠFormula": 1991,
      "urs": 1992,
      "413": 1993,
      "775": 1994,
      "753": 1995,
      "ail": 1996,
      "ĠCustomized": 1997,
      "ĠFron": 1998,
      "ĠWash": 1999,
      "ĠPatrol": 2000,
      "ber": 2001,
      "ĠDes": 2002,
      "723": 2003,
      "513": 2004,
      "537": 2005,
      "ĠBoy": 2006,
      "ĠFly": 2007,
      "ĠForest": 2008,
      "ĠHarley": 2009,
      "-David": 2010,
      "-Davidson": 2011,
      "077": 2012,
      "854": 2013,
      "ĠDri": 2014,
      "uty": 2015,
      "ĠWagon": 2016,
      "sation": 2017,
      "water": 2018,
      "ĠFall": 2019,
      "amel": 2020,
      "ĠCamel": 2021,
      "907": 2022,
      "ĠSop": 2023,
      "ĠHome": 2024,
      "ingwater": 2025,
      "ĠSensation": 2026,
      "ĠFallingwater": 2027,
      "ĠSopwith": 2028,
      "gn": 2029,
      "722": 2030,
      "471": 2031,
      "Rx": 2032,
      "bx": 2033,
      "ĠStunt": 2034,
      "Rxbx": 2035,
      "055": 2036,
      "541": 2037,
      "ble": 2038,
      "ĠShip": 2039,
      "ĠControl": 2040,
      "727": 2041,
      "ĠSy": 2042,
      "351": 2043,
      "575": 2044,
      "534": 2045,
      "943": 2046,
      "786": 2047,
      "651": 2048,
      "eller": 2049,
      "rand": 2050,
      "ĠDepo": 2051,
      "ĠDepot": 2052,
      "569": 2053,
      "os": 2054,
      "962": 2055,
      "ak": 2056,
      "oon": 2057,
      "908": 2058,
      "ĠSch": 2059,
      "ĠEye": 2060,
      "ĠSkulls": 2061,
      "ooner": 2062,
      "ĠSchooner": 2063,
      "535": 2064,
      "vrol": 2065,
      "ĠClock": 2066,
      "697": 2067,
      "ĠCorvet": 2068,
      "ĠChevrol": 2069,
      "ĠCorvette": 2070,
      "ĠChevrolet": 2071,
      "068": 2072,
      "843": 2073,
      "561": 2074,
      "912": 2075,
      "ĠQ": 2076,
      "under": 2077,
      "ĠThunder": 2078,
      "524": 2079,
      "905": 2080,
      "ĠEW": 2081,
      "853": 2082,
      "717": 2083,
      "ĠPurs": 2084,
      "ĠInterceptor": 2085,
      "ĠPursu": 2086,
      "822": 2087,
      "con": 2088,
      "dy": 2089,
      "ĠSc": 2090,
      "ĠCrush": 2091,
      "ĠDuba": 2092,
      "-Roader": 2093,
      "ĠDubai": 2094,
      "721": 2095,
      "ise": 2096,
      "ĠVac": 2097,
      "ĠBoat": 2098,
      "ĠBeachside": 2099,
      "ĠVacation": 2100,
      "069": 2101,
      "566": 2102,
      "af": 2103,
      "Ġaf": 2104,
      "ĠBon": 2105,
      "ĠGte": 2106,
      "ĠCorse": 2107,
      "076": 2108,
      "infor": 2109,
      "ĠServ": 2110,
      "olph": 2111,
      "als": 2112,
      "ĠDolph": 2113,
      "ĠElectric": 2114,
      "463": 2115,
      "ĠIron": 2116,
      "ĠAnim": 2117,
      "ĠRainfor": 2118,
      "ĠService": 2119,
      "ĠDolphin": 2120,
      "ĠAnimals": 2121,
      "ĠRainforest": 2122,
      "058": 2123,
      "sis": 2124,
      "yz": 2125,
      "ĠMind": 2126,
      "storm": 2127,
      "ĠStorm": 2128,
      "trooper": 2129,
      "ĠFront": 2130,
      "ĠMindstorm": 2131,
      "ĠStormtrooper": 2132,
      "ĠMindstorms": 2133,
      "ax": 2134,
      "ĠGalax": 2135,
      "ĠGalaxy": 2136,
      "748": 2137,
      "053": 2138,
      "mon": 2139,
      "557": 2140,
      "ĠConcre": 2141,
      "ĠPrivet": 2142,
      "ĠDrive": 2143,
      "ĠConcrete": 2144,
      "824": 2145,
      "ĠHill": 2146,
      "art": 2147,
      "ownt": 2148,
      "ĠDownt": 2149,
      "ĠHillside": 2150,
      "ĠDowntown": 2151,
      "029": 2152,
      "533": 2153,
      "765": 2154,
      "874": 2155,
      "ĠIs": 2156,
      "ĠEmme": 2157,
      "ĠPursuit": 2158,
      "ert": 2159,
      "713": 2160,
      "arch": 2161,
      "ĠYear": 2162,
      "ĠMonarch": 2163,
      "ĠDragster": 2164,
      "ĠMonarchs": 2165,
      "881": 2166,
      "741": 2167,
      "671": 2168,
      "ountain": 2169,
      "vi": 2170,
      "ĠFXX": 2171,
      "ĠFountain": 2172,
      "ĠTest": 2173,
      "ĠTrevi": 2174,
      "ĠDesert": 2175,
      "595": 2176,
      "bul": 2177,
      "ĠNa": 2178,
      "anza": 2179,
      "963": 2180,
      "ĠBonanza": 2181,
      "096": 2182,
      "855": 2183,
      "uv": 2184,
      "ĠLouv": 2185,
      "ĠLouvre": 2186,
      "817": 2187,
      "ĠSP": 2188,
      "ĠHa": 2189,
      "andler": 2190,
      "ze": 2191,
      "ĠStand": 2192,
      "583": 2193,
      "ĠEV": 2194,
      "ĠCross": 2195,
      "037": 2196,
      "to": 2197,
      "yal": 2198,
      "711": 2199,
      "rid": 2200,
      "ings": 2201,
      "ĠRoyal": 2202,
      "ury": 2203,
      "ĠFlyer": 2204,
      "ĠArch": 2205,
      "ĠCentury": 2206,
      "ĠKings": 2207,
      "ĠSkyway": 2208,
      "739": 2209,
      "794": 2210,
      "873": 2211,
      "ĠConstruction": 2212,
      "-Rotor": 2213,
      "oy": 2214,
      "mping": 2215,
      "ĠSw": 2216,
      "ĠWil": 2217,
      "ĠWho": 2218,
      "ĠWillow": 2219,
      "ĠWhomping": 2220,
      "049": 2221,
      "903": 2222,
      "897": 2223,
      "ĠGeta": 2224,
      "837": 2225,
      "ĠInv": 2226,
      "ĠYork": 2227,
      "ĠQu": 2228,
      "ĠGetaway": 2229,
      "095": 2230,
      "062": 2231,
      "ored": 2232,
      "onder": 2233,
      "ĠStor": 2234,
      "ĠPoe": 2235,
      "ĠLegored": 2236,
      "ĠFlyers": 2237,
      "ĠLegoredo": 2238,
      "771": 2239,
      "-City": 2240,
      "023": 2241,
      "022": 2242,
      "ĠMach": 2243,
      "cover": 2244,
      "ĠMachine": 2245,
      "ias": 2246,
      "liv": 2247,
      "nation": 2248,
      "ose": 2249,
      "orail": 2250,
      "ĠCy": 2251,
      "ĠHy": 2252,
      "stem": 2253,
      "ĠOliv": 2254,
      "ĠInternation": 2255,
      "ĠMonorail": 2256,
      "ĠSquad": 2257,
      "ĠChassis": 2258,
      "ĠSystem": 2259,
      "ĠOlivias": 2260,
      "ĠInternational": 2261,
      "-treme": 2262,
      "ĠTun": 2263,
      "ĠSower": 2264,
      "ĠStable": 2265,
      "749": 2266,
      "ech": 2267,
      "nigh": 2268,
      "ĠGra": 2269,
      "ctic": 2270,
      "ĠConstruct": 2271,
      "ĠBrickto": 2272,
      "ĠArctic": 2273,
      "-Mech": 2274,
      "ĠKnigh": 2275,
      "ĠEmmets": 2276,
      "ĠTuner": 2277,
      "ĠConstructo": 2278,
      "ĠBricktober": 2279,
      "ĠKnights": 2280,
      "842": 2281,
      "AL": 2282,
      "YM": 2283,
      "ĠWall": 2284,
      "ĠWind": 2285,
      "ĠWAL": 2286,
      "ĠChina": 2287,
      "izer": 2288,
      "ĠSolomon": 2289,
      "ĠStorage": 2290,
      "ĠWALLE": 2291,
      "673": 2292,
      "Ġt": 2293,
      "righ": 2294,
      "ĠElect": 2295,
      "ĠRocket": 2296,
      "ĠWh": 2297,
      "ĠWrigh": 2298,
      "ĠStandard": 2299,
      "ĠElectr": 2300,
      "ĠWright": 2301,
      "051": 2302,
      "ĠTeam": 2303,
      "ĠSand": 2304,
      "ĠBay": 2305,
      "ĠMarina": 2306,
      "ĠVehicles": 2307,
      "ĠSands": 2308,
      "735": 2309,
      "eper": 2310,
      "ĠSon": 2311,
      "835": 2312,
      "out": 2313,
      "Ġcar": 2314,
      "ance": 2315,
      "747": 2316,
      "ĠTrans": 2317,
      "937": 2318,
      "hin": 2319,
      "lift": 2320,
      "ĠSub": 2321,
      "ĠRise": 2322,
      "757": 2323,
      "ĠSphin": 2324,
      "ĠSupport": 2325,
      "ĠCrossing": 2326,
      "ĠSphinx": 2327,
      "-Sp": 2328,
      "ĠEnd": 2329,
      "649": 2330,
      "aran": 2331,
      "ĠFri": 2332,
      "ĠLas": 2333,
      "ĠGun": 2334,
      "ĠRoader": 2335,
      "amaran": 2336,
      "ĠCatamaran": 2337,
      "895": 2338,
      "tla": 2339,
      "ĠSav": 2340,
      "ĠHear": 2341,
      "ĠStud": 2342,
      "rik": 2343,
      "ĠSport": 2344,
      "ĠSpike": 2345,
      "ager": 2346,
      "tlake": 2347,
      "ĠHeartlake": 2348,
      "ĠStudi": 2349,
      "918": 2350,
      "mer": 2351,
      "ĠCl": 2352,
      "065": 2353,
      "kin": 2354,
      "oye": 2355,
      "ĠVil": 2356,
      "631": 2357,
      "ĠCarg": 2358,
      "ĠCars": 2359,
      "ĠBoom": 2360,
      "ĠSonic": 2361,
      "ĠSavoye": 2362,
      "ĠVilla": 2363,
      "046": 2364,
      "sage": 2365,
      "ĠMes": 2366,
      "ĠNight": 2367,
      "ĠSho": 2368,
      "ĠPropeller": 2369,
      "ĠIntercept": 2370,
      "ĠMessage": 2371,
      "074": 2372,
      "-T": 2373,
      "nie": 2374,
      "ĠSith": 2375,
      "ĠDozer": 2376,
      "ĠIce": 2377,
      "gas": 2378,
      "ĠMid": 2379,
      "iss": 2380,
      "ĠAlph": 2381,
      "ĠVegas": 2382,
      "uardian": 2383,
      "ĠAlpha": 2384,
      "033": 2385,
      "Iz": 2386,
      "Jm": 2387,
      "Yg": 2388,
      "703": 2389,
      "ĠFar": 2390,
      "ĠDo": 2391,
      "ĠGrand": 2392,
      "ĠComp": 2393,
      "ĠChase": 2394,
      "ĠLogo": 2395,
      "ĠPrix": 2396,
      "-Speed": 2397,
      "IzYg": 2398,
      "ĠFarm": 2399,
      "092": 2400,
      "gler": 2401,
      "Ġn": 2402,
      "ĠLoad": 2403,
      "ĠMarvel": 2404,
      "ĠStudios": 2405,
      "cin": 2406,
      "curi": 2407,
      "ĠCe": 2408,
      "ĠHQ": 2409,
      "recin": 2410,
      "ĠPrecin": 2411,
      "enced": 2412,
      "erienced": 2413,
      "ĠExperienced": 2414,
      "ĠSecuri": 2415,
      "ĠAirte": 2416,
      "ĠClaw": 2417,
      "cycle": 2418,
      "ĠPrecinct": 2419,
      "ĠSecurity": 2420,
      "ĠAirtech": 2421,
      "angh": 2422,
      "ĠVoy": 2423,
      "ĠDeep": 2424,
      "ĠShangh": 2425,
      "ures": 2426,
      "ĠCreatures": 2427,
      "ĠInvent": 2428,
      "ĠClub": 2429,
      "ĠVoyager": 2430,
      "ĠShanghai": 2431,
      "cis": 2432,
      "land": 2433,
      "ĠFran": 2434,
      "ĠSan": 2435,
      "ĠRacing": 2436,
      "bour": 2437,
      "ngine": 2438,
      "ĠHarbour": 2439,
      "ĠPatroller": 2440,
      "ĠScene": 2441,
      "ĠIsland": 2442,
      "cisco": 2443,
      "ĠFrancisco": 2444,
      "834": 2445,
      "067": 2446,
      "MW": 2447,
      "air": 2448,
      "atcher": 2449,
      "701": 2450,
      "erkin": 2451,
      "ĠBons": 2452,
      "ĠBMW": 2453,
      "ĠPan": 2454,
      "ĠPerkin": 2455,
      "old": 2456,
      "ĠGS": 2457,
      "ida": 2458,
      "ĠSpeeder": 2459,
      "persp": 2460,
      "ĠThatcher": 2461,
      "ĠNaida": 2462,
      "ĠHypersp": 2463,
      "ĠBonsai": 2464,
      "ĠPerkins": 2465,
      "ER": 2466,
      "ug": 2467,
      "791": 2468,
      "ĠGard": 2469,
      "ĠGarden": 2470,
      "eep": 2471,
      "ĠFast": 2472,
      "ĠRang": 2473,
      "ary": 2474,
      "ĠJeep": 2475,
      "ĠRanger": 2476,
      "097": 2477,
      "plan": 2478,
      "ĠRock": 2479,
      "ĠZR": 2480,
      "ĠGrader": 2481,
      "ĠWhite": 2482,
      "064": 2483,
      "863": 2484,
      "cons": 2485,
      "ĠFal": 2486,
      "ĠHan": 2487,
      "ĠPir": 2488,
      "ĠShow": 2489,
      "ĠFortress": 2490,
      "ĠFalcons": 2491,
      "ĠPirate": 2492,
      "093": 2493,
      "hol": 2494,
      "na": 2495,
      "zy": 2496,
      "ĠMari": 2497,
      "ĠSur": 2498,
      "arhol": 2499,
      "roe": 2500,
      "ĠWarhol": 2501,
      "ĠAndy": 2502,
      "ĠBlast": 2503,
      "ĠMonroe": 2504,
      "ĠRailroad": 2505,
      "lyn": 2506,
      "ĠMarilyn": 2507,
      "ĠWarhols": 2508,
      "833": 2509,
      "-G": 2510,
      "kes": 2511,
      "pper": 2512,
      "ĠSte": 2513,
      "ĠHopper": 2514,
      "845": 2515,
      "icag": 2516,
      "ĠChicag": 2517,
      "ĠPiz": 2518,
      "ĠCrusher": 2519,
      "ĠCement": 2520,
      "ĠChicago": 2521,
      "lf": 2522,
      "sst": 2523,
      "Ġrid": 2524,
      "ĠMiss": 2525,
      "ĠElf": 2526,
      "ĠOr": 2527,
      "box": 2528,
      "ĠCraze": 2529,
      "ĠCrosst": 2530,
      "ĠStack": 2531,
      "ĠShock": 2532,
      "ĠInventor": 2533,
      "Ġride": 2534,
      "ĠMission": 2535,
      "ĠCrosstown": 2536,
      "Dm": 2537,
      "SEK": 2538,
      "cDm": 2539,
      "ele": 2540,
      "oSEK": 2541,
      "ĠRene": 2542,
      "ĠPad": 2543,
      "ĠSteam": 2544,
      "ĠUnder": 2545,
      "oSEKcDm": 2546,
      "ĠRenegade": 2547,
      "ĠUndercover": 2548,
      "ĠPD": 2549,
      "etary": 2550,
      "iver": 2551,
      "boat": 2552,
      "-St": 2553,
      "-Guardian": 2554,
      "yo": 2555,
      "ĠAerial": 2556,
      "ĠFis": 2557,
      "ĠTok": 2558,
      "ĠRotor": 2559,
      "ĠBox": 2560,
      "ĠSnowmobile": 2561,
      "coast": 2562,
      "ĠIntercoast": 2563,
      "ĠResp": 2564,
      "ĠSeaport": 2565,
      "ĠFish": 2566,
      "ĠTokyo": 2567,
      "ĠIntercoastal": 2568,
      "SW": 2569,
      "cl": 2570,
      "cale": 2571,
      "iSW": 2572,
      "uW": 2573,
      "mper": 2574,
      "ory": 2575,
      "ernie": 2576,
      "ĠBang": 2577,
      "olbox": 2578,
      "ĠVernie": 2579,
      "ĠTheory": 2580,
      "ĠCamper": 2581,
      "tsuW": 2582,
      "-Scale": 2583,
      "ĠMonster": 2584,
      "ĠToolbox": 2585,
      "ĠCreative": 2586,
      "ĠMidi": 2587,
      "iSWtsuW": 2588,
      "ĠCargo": 2589,
      "ega": 2590,
      "gen": 2591,
      "ĠMr": 2592,
      "ĠMega": 2593,
      "ĠMagn": 2594,
      "etizer": 2595,
      "ĠEmer": 2596,
      "ĠCabo": 2597,
      "ĠCore": 2598,
      "ellor": 2599,
      "ĠPropellor": 2600,
      "ĠPost": 2601,
      "gency": 2602,
      "ĠMagnetizer": 2603,
      "ĠEmergency": 2604,
      "ĠCaboose": 2605,
      "Ew": 2606,
      "Mc": 2607,
      "gan": 2608,
      "iator": 2609,
      "uEw": 2610,
      "aning": 2611,
      "ĠPis": 2612,
      "ĠMediator": 2613,
      "ĠLeaning": 2614,
      "ĠTurbine": 2615,
      "ĠGungan": 2616,
      "uEwMc": 2617,
      "ĠPisa": 2618,
      "075": 2619,
      "gate": 2620,
      "ĠCut": 2621,
      "ĠHide": 2622,
      "ĠPl": 2623,
      "ĠLodge": 2624,
      "ĠChild": 2625,
      "ĠYard": 2626,
      "ĠLevel": 2627,
      "ĠLakes": 2628,
      "ĠNebul": 2629,
      "ĠHolidays": 2630,
      "ĠFrigate": 2631,
      "ĠLakeside": 2632,
      "ĠNebulon": 2633,
      "cat": 2634,
      "ĠFir": 2635,
      "ĠTele": 2636,
      "igale": 2637,
      "ĠMoon": 2638,
      "ĠDucat": 2639,
      "ĠCompac": 2640,
      "ĠPanigale": 2641,
      "ĠPizza": 2642,
      "ĠFirst": 2643,
      "ĠDucati": 2644,
      "bus": 2645,
      "ger": 2646,
      "ick": 2647,
      "ncher": 2648,
      "Ġlift": 2649,
      "ĠMic": 2650,
      "ĠWe": 2651,
      "ĠSecre": 2652,
      "ĠCruncher": 2653,
      "ĠWheels": 2654,
      "ĠFlatcar": 2655,
      "Ġtruck": 2656,
      "ĠMicro": 2657,
      "ĠSecret": 2658,
      "XV": 2659,
      "ĠMin": 2660,
      "ĠLun": 2661,
      "ĠRamb": 2662,
      "ĠCarri": 2663,
      "erry": 2664,
      "ĠYears": 2665,
      "ĠCycle": 2666,
      "ĠLunar": 2667,
      "ĠRambler": 2668,
      "handler": 2669,
      "ry": 2670,
      "vac": 2671,
      "ĠGuard": 2672,
      "ĠEvac": 2673,
      "-Duty": 2674,
      "ĠHaul": 2675,
      "ĠTelehandler": 2676,
      "Ġmo": 2677,
      "ĠSun": 2678,
      "ĠOut": 2679,
      "rangler": 2680,
      "ĠCozy": 2681,
      "ĠWrangler": 2682,
      "ship": 2683,
      "ĠLanding": 2684,
      "ĠStables": 2685,
      "ĠHyperspeed": 2686,
      "Ġmodel": 2687,
      "bon": 2688,
      "top": 2689,
      "orld": 2690,
      "ĠMap": 2691,
      "enon": 2692,
      "ĠWorld": 2693,
      "ĠLook": 2694,
      "ĠCarbon": 2695,
      "ĠApart": 2696,
      "ĠMountaintop": 2697,
      "ĠZenon": 2698,
      "ĠLookout": 2699,
      "ĠApartment": 2700,
      "row": 2701,
      "Ġat": 2702,
      "ĠLim": 2703,
      "ĠEngine": 2704,
      "ĠRoom": 2705,
      "ĠLock": 2706,
      "ĠSpeedboat": 2707,
      "ĠLimited": 2708,
      "end": 2709,
      "ĠRecon": 2710,
      "ĠJok": 2711,
      "ĠJoker": 2712,
      "yem": 2713,
      "orry": 2714,
      "ĠLorry": 2715,
      "ĠDun": 2716,
      "tauri": 2717,
      "ĠCentauri": 2718,
      "ĠHorse": 2719,
      "post": 2720,
      "ĠLaunching": 2721,
      "gnyem": 2722,
      "ĠSungnyem": 2723,
      "ĠOutpost": 2724,
      "ĠDune": 2725,
      "ĠSungnyemun": 2726,
      "ack": 2727,
      "lin": 2728,
      "erlin": 2729,
      "ĠBerlin": 2730,
      "rax": 2731,
      "ĠWom": 2732,
      "ĠWonder": 2733,
      "idman": 2734,
      "ĠSquidman": 2735,
      "ĠWoman": 2736,
      "Ġu": 2737,
      "ĠPod": 2738,
      "ĠBatman": 2739,
      "ĠQuad": 2740,
      "ĠQuick": 2741,
      "Ġmot": 2742,
      "ĠStrik": 2743,
      "ĠArm": 2744,
      "ĠCrushers": 2745,
      "BL": 2746,
      "Cb": 2747,
      "KD": 2748,
      "Lis": 2749,
      "ey": 2750,
      "wk": 2751,
      "ĠHandler": 2752,
      "ĠRiver": 2753,
      "ĠGold": 2754,
      "ĠOdy": 2755,
      "ssey": 2756,
      "ĠForge": 2757,
      "udKD": 2758,
      "ĠHawk": 2759,
      "ĠOrc": 2760,
      "ĠResponder": 2761,
      "CbudKD": 2762,
      "LisBL": 2763,
      "ĠOdyssey": 2764,
      "van": 2765,
      "yce": 2766,
      "ĠAm": 2767,
      "ĠLu": 2768,
      "ravan": 2769,
      "ĠCaravan": 2770,
      "ĠCherry": 2771,
      "ĠRolls": 2772,
      "-Royce": 2773,
      "ĠTranscon": 2774,
      "DF": 2775,
      "jDF": 2776,
      "ĠPit": 2777,
      "ĠGate": 2778,
      "ĠBur": 2779,
      "ĠPits": 2780,
      "bur": 2781,
      "trax": 2782,
      "Ġ'": 2783,
      "ĠBre": 2784,
      "ĠBrand": 2785,
      "ĠPand": 2786,
      "enbur": 2787,
      "ĠBattrax": 2788,
      "ĠRoll": 2789,
      "ĠCoast": 2790,
      "ĠPicker": 2791,
      "ods": 2792,
      "ĠGoods": 2793,
      "ĠSkull": 2794,
      "ĠBrandenbur": 2795,
      "ĠBrandenburg": 2796,
      "ĠDuty": 2797,
      "ulk": 2798,
      "ĠPark": 2799,
      "Ae": 2800,
      "FER": 2801,
      "Gj": 2802,
      "KAe": 2803,
      "Ul": 2804,
      "UKAe": 2805,
      "if": 2806,
      "iff": 2807,
      "lGj": 2808,
      "ĠMrs": 2809,
      "ĠSco": 2810,
      "rio": 2811,
      "ĠEiff": 2812,
      "opper": 2813,
      "ĠChopper": 2814,
      "ĠClaus": 2815,
      "uble": 2816,
      "-Tra": 2817,
      "ĠDouble": 2818,
      "UllGj": 2819,
      "UKAeFER": 2820,
      "ĠEiffel": 2821,
      "UllGjm": 2822,
      "be": 2823,
      "ef": 2824,
      "gE": 2825,
      "alk": 2826,
      "ction": 2827,
      "unction": 2828,
      "ĠJunction": 2829,
      "ĠRockef": 2830,
      "ĠMining": 2831,
      "ĠCarbonite": 2832,
      "ĠRockefeller": 2833,
      "gu": 2834,
      "rater": 2835,
      "use": 2836,
      "atment": 2837,
      "ĠMine": 2838,
      "ĠVen": 2839,
      "ĠRep": 2840,
      "ĠTreatment": 2841,
      "ĠSmash": 2842,
      "-Road": 2843,
      "ĠSwe": 2844,
      "dal": 2845,
      "orian": 2846,
      "ĠRid": 2847,
      "ĠTraum": 2848,
      "ĠMandal": 2849,
      "phan": 2850,
      "ĠMotorcycle": 2851,
      "ĠRiding": 2852,
      "ĠTrauma": 2853,
      "ĠMandalorian": 2854,
      "-Q": 2855,
      "PS": 2856,
      "Pv": 2857,
      "QPS": 2858,
      "VPv": 2859,
      "qo": 2860,
      "ark": 2861,
      "ĠShark": 2862,
      "lance": 2863,
      "illance": 2864,
      "ĠPier": 2865,
      "veillance": 2866,
      "ĠRobots": 2867,
      "ĠCyber": 2868,
      "plane": 2869,
      "ĠSurveillance": 2870,
      "ĠStrikers": 2871,
      "ake": 2872,
      "di": 2873,
      "tru": 2874,
      "work": 2875,
      "Ġqu": 2876,
      "attro": 2877,
      "ĠAudi": 2878,
      "ĠBeta": 2879,
      "ĠOiler": 2880,
      "ĠRecycle": 2881,
      "ĠSpin": 2882,
      "ĠIntru": 2883,
      "ĠSnake": 2884,
      "ĠRoadwork": 2885,
      "Ġquattro": 2886,
      "ĠIntruder": 2887,
      "IC": 2888,
      "NIC": 2889,
      "aster": 2890,
      "pic": 2891,
      "aters": 2892,
      "ĠFle": 2893,
      "ĠRam": 2894,
      "one": 2895,
      "ĠEpic": 2896,
      "tering": 2897,
      "ĠBattering": 2898,
      "ĠYach": 2899,
      "ĠSkaters": 2900,
      "riker": 2901,
      "ĠDoc": 2902,
      "-Striker": 2903,
      "ĠFleet": 2904,
      "ĠYacht": 2905,
      "ial": 2906,
      "ĠMax": 2907,
      "ĠHook": 2908,
      "ĠKart": 2909,
      "bulance": 2910,
      "ĠAmbulance": 2911,
      "alker": 2912,
      "eze": 2913,
      "hal": 2914,
      "mas": 2915,
      "orth": 2916,
      "men": 2917,
      "ĠSite": 2918,
      "ĠHer": 2919,
      "ĠHulk": 2920,
      "ĠStarter": 2921,
      "ĠShorth": 2922,
      "ĠInn": 2923,
      "ĠKhal": 2924,
      "ĠEmmas": 2925,
      "ĠCats": 2926,
      "ĠForestmen": 2927,
      "ĠStephan": 2928,
      "ĠHideout": 2929,
      "ĠGuarded": 2930,
      "ĠBurj": 2931,
      "ifa": 2932,
      "ĠShorthair": 2933,
      "ĠKhalifa": 2934,
      "-h": 2935,
      "ae": 2936,
      "bM": 2937,
      "bs": 2938,
      "eer": 2939,
      "gok": 2940,
      "han": 2941,
      "ix": 2942,
      "jo": 2943,
      "ĠTae": 2944,
      "ĠSau": 2945,
      "rain": 2946,
      "ĠHag": 2947,
      "ckbe": 2948,
      "ĠPig": 2949,
      "olation": 2950,
      "ruk": 2951,
      "ĠTram": 2952,
      "ĠUruk": 2953,
      "ĠObs": 2954,
      "ĠBuckbe": 2955,
      "ĠRacers": 2956,
      "ĠReind": 2957,
      "ĠChine": 2958,
      "atory": 2959,
      "ervatory": 2960,
      "ĠLego": 2961,
      "ĠTogok": 2962,
      "ĠChasing": 2963,
      "ĠIsolation": 2964,
      "Ġtrain": 2965,
      "Ġnose": 2966,
      "ĠElfie": 2967,
      "ĠArmy": 2968,
      "ĠPandas": 2969,
      "-hai": 2970,
      "ĠTaejo": 2971,
      "ĠSaucer": 2972,
      "ĠHagrid": 2973,
      "ĠObservatory": 2974,
      "ĠBuckbeak": 2975,
      "ĠReindeer": 2976,
      "ĠChinese": 2977,
      "ĠTogokhan": 2978,
      "ines": 2979,
      "inta": 2980,
      "ĠFX": 2981,
      "ĠShe": 2982,
      "ĠPug": 2983,
      "ĠProw": 2984,
      "ĠGro": 2985,
      "room": 2986,
      "ĠVan": 2987,
      "ĠVinta": 2988,
      "ĠMouse": 2989,
      "irement": 2990,
      "ĠRemo": 2991,
      "ĠRequ": 2992,
      "ĠSpa": 2993,
      "ĠPlanetary": 2994,
      "ĠInterplan": 2995,
      "ĠCute": 2996,
      "ĠCompact": 2997,
      "ĠSheep": 2998,
      "ĠProwler": 2999,
      "ĠVintage": 3000,
      "ĠRequirement": 3001,
      "ĠInterplanetary": 3002,
      "ca": 3003,
      "dor": 3004,
      "mill": 3005,
      "ob": 3006,
      "oter": 3007,
      "ptain": 3008,
      "ual": 3009,
      "ĠMcl": 3010,
      "ĠFla": 3011,
      "ĠSle": 3012,
      "ĠSail": 3013,
      "ĠRon": 3014,
      "aren": 3015,
      "ĠDum": 3016,
      "elob": 3017,
      "ĠShelob": 3018,
      "ĠRecy": 3019,
      "asley": 3020,
      "ĠCaptain": 3021,
      "-wheel": 3022,
      "ĠManual": 3023,
      "ĠAlbus": 3024,
      "ĠAttacks": 3025,
      "ĠSenna": 3026,
      "bledor": 3027,
      "ĠWindmill": 3028,
      "cling": 3029,
      "ĠWeasley": 3030,
      "ĠCarriage": 3031,
      "ĠScooter": 3032,
      "ĠMclaren": 3033,
      "ĠSleeper": 3034,
      "ĠDumbledor": 3035,
      "ĠRecycling": 3036,
      "-wheeler": 3037,
      "ĠDumbledore": 3038,
      "AAS": 3039,
      "FT": 3040,
      "ION": 3041,
      "LZ": 3042,
      "LAAS": 3043,
      "Qw": 3044,
      "auty": 3045,
      "fly": 3046,
      "lgE": 3047,
      "tter": 3048,
      "wa": 3049,
      "xlgE": 3050,
      "Ġ(": 3051,
      "ĠCLAAS": 3052,
      "ĠBand": 3053,
      "racer": 3054,
      "onizer": 3055,
      "arba": 3056,
      "ĠStell": 3057,
      "ĠGe": 3058,
      "ĠGarba": 3059,
      "ĠIonizer": 3060,
      "ĠButter": 3061,
      "unter": 3062,
      "ĠCave": 3063,
      "uto": 3064,
      "ĠXER": 3065,
      "boo": 3066,
      "ofy": 3067,
      "ticle": 3068,
      "ĠBeauty": 3069,
      "ĠParticle": 3070,
      "ĠGoofy": 3071,
      "ĠNaboo": 3072,
      "ĠSurf": 3073,
      "ĠPluto": 3074,
      "XVFT": 3075,
      "ĠPodracer": 3076,
      "qoLZ": 3077,
      "QwxlgE": 3078,
      "ĠBandit": 3079,
      "ĠStellar": 3080,
      "ĠGarbage": 3081,
      "ĠButterfly": 3082,
      "ĠXERION": 3083,
      "XVFTg": 3084,
      "QwxlgEA": 3085,
      "dn": 3086,
      "iX": 3087,
      "ĠAB": 3088,
      "ĠSing": 3089,
      "ĠRet": 3090,
      "reat": 3091,
      "ĠStop": 3092,
      "ĠOper": 3093,
      "ĠStarship": 3094,
      "ĠXT": 3095,
      "ĠForklift": 3096,
      "ĠFlying": 3097,
      "ĠSydn": 3098,
      "covery": 3099,
      "ĠRocky": 3100,
      "ĠSingle": 3101,
      "ĠRetreat": 3102,
      "ĠOpera": 3103,
      "ĠSydney": 3104,
      "cc": 3105,
      "CH": 3106,
      "ECH": 3107,
      "pter": 3108,
      "wen": 3109,
      "ĠTECH": 3110,
      "alent": 3111,
      "ĠValent": 3112,
      "ĠOwen": 3113,
      "ĠCopter": 3114,
      "lane": 3115,
      "ĠBreeze": 3116,
      "ĠVenice": 3117,
      "ĠTECHNIC": 3118,
      "ĠBreezeway": 3119,
      "NW": 3120,
      "dise": 3121,
      "ist": 3122,
      "lider": 3123,
      "uation": 3124,
      "orter": 3125,
      "ĠAss": 3126,
      "ĠANW": 3127,
      "ĠCrater": 3128,
      "ĠRC": 3129,
      "ĠPara": 3130,
      "olside": 3131,
      "rier": 3132,
      "ĠGlider": 3133,
      "ĠOla": 3134,
      "itcher": 3135,
      "ĠTransporter": 3136,
      "ĠAnna": 3137,
      "ĠRoadside": 3138,
      "ĠRaceway": 3139,
      "ĠHarrier": 3140,
      "ĠSuperman": 3141,
      "ĠPoolside": 3142,
      "ĠSwitcher": 3143,
      "ĠEvacuation": 3144,
      "istance": 3145,
      "ĠAssistance": 3146,
      "ĠANWB": 3147,
      "ĠParadise": 3148,
      "ĠOlaf": 3149,
      "bra": 3150,
      "col": 3151,
      "hAS": 3152,
      "rhAS": 3153,
      "ton": 3154,
      "walker": 3155,
      "zrhAS": 3156,
      "incol": 3157,
      "orial": 3158,
      "ĠMem": 3159,
      "ĠLincol": 3160,
      "ĠCur": 3161,
      "sed": 3162,
      "ĠStron": 3163,
      "ĠCobra": 3164,
      "ĠStargu": 3165,
      "ĠRecovery": 3166,
      "ĠSpect": 3167,
      "ĠTrains": 3168,
      "ghold": 3169,
      "ĠYod": 3170,
      "ĠFlower": 3171,
      "ĠCenturi": 3172,
      "ĠSkywalker": 3173,
      "ĠSpeedway": 3174,
      "ĠWago": 3175,
      "ĠPostal": 3176,
      "ĠCutter": 3177,
      "ĠLuke": 3178,
      "ĠCoastal": 3179,
      "ĠMemorial": 3180,
      "ĠLincoln": 3181,
      "ĠCursed": 3182,
      "ĠStronghold": 3183,
      "ĠStarguider": 3184,
      "ĠSpectral": 3185,
      "ĠYoda": 3186,
      "ĠCenturion": 3187,
      "-C": 3188,
      "Fly": 3189,
      "JC": 3190,
      "No": 3191,
      "Nak": 3192,
      "RW": 3193,
      "UP": 3194,
      "bix": 3195,
      "cFly": 3196,
      "pNak": 3197,
      "rown": 3198,
      "uqu": 3199,
      "uNo": 3200,
      "int": 3201,
      "ĠMcFly": 3202,
      "ĠLXX": 3203,
      "ĠCal": 3204,
      "ĠBrown": 3205,
      "ontrol": 3206,
      "led": 3207,
      "ĠBouqu": 3208,
      "ĠIII": 3209,
      "ĠMarty": 3210,
      "ĠAirl": 3211,
      "ĠATX": 3212,
      "etabix": 3213,
      "ĠFriend": 3214,
      "ĠLoading": 3215,
      "ĠCompactor": 3216,
      "ĠWeetabix": 3217,
      "endar": 3218,
      "ĠHulkbus": 3219,
      "ĠRemote": 3220,
      "-Control": 3221,
      "RWuNo": 3222,
      "pNakp": 3223,
      "ĠLXXXV": 3224,
      "ĠCalendar": 3225,
      "ĠBouquet": 3226,
      "ĠFriends": 3227,
      "-Controlled": 3228,
      "RWuNog": 3229,
      "-O": 3230,
      "Gug": 3231,
      "UV": 3232,
      "iC": 3233,
      "pe": 3234,
      "py": 3235,
      "xiC": 3236,
      "zxiC": 3237,
      "ĠTr": 3238,
      "ĠSally": 3239,
      "ĠBB": 3240,
      "ĠBack": 3241,
      "ĠPup": 3242,
      "ington": 3243,
      "ĠOct": 3244,
      "ĠJack": 3245,
      "ellington": 3246,
      "ĠSkellington": 3247,
      "hoe": 3248,
      "ĠGunship": 3249,
      "ĠStacker": 3250,
      "ĠCarrier": 3251,
      "-Out": 3252,
      "GugzxiC": 3253,
      "ĠBackhoe": 3254,
      "ĠPuppy": 3255,
      "ĠOctan": 3256,
      "az": 3257,
      "ĠLi": 3258,
      "ĠCol": 3259,
      "ĠTheater": 3260,
      "ĠFlame": 3261,
      "ĠDumper": 3262,
      "ĠCentre": 3263,
      "ĠColor": 3264,
      "JK": 3265,
      "PbM": 3266,
      "WPbM": 3267,
      "bor": 3268,
      "dm": 3269,
      "ĠLad": 3270,
      "ĠAngler": 3271,
      "ĠHarbor": 3272,
      "ĠPoint": 3273,
      "aker": 3274,
      "-Terrain": 3275,
      "ĠSweeper": 3276,
      "WPbMdm": 3277,
      "ĠLadder": 3278,
      "WPbMdmz": 3279,
      "-I": 3280,
      "Copter": 3281,
      "Fs": 3282,
      "PW": 3283,
      "brio": 3284,
      "ePW": 3285,
      "jl": 3286,
      "omer": 3287,
      "itch": 3288,
      "ĠShunt": 3289,
      "ĠSpy": 3290,
      "ĠCabrio": 3291,
      "ĠBattle": 3292,
      "ĠAircraft": 3293,
      "-Engine": 3294,
      "ĠDragon": 3295,
      "ĠBoatside": 3296,
      "ĠInvader": 3297,
      "ĠGrab": 3298,
      "-Trak": 3299,
      "ĠGroomer": 3300,
      "ĠShunti": 3301,
      "Bo": 3302,
      "dro": 3303,
      "hroom": 3304,
      "ies": 3305,
      "ĠMus": 3306,
      "amele": 3307,
      "ĠBi": 3308,
      "ĠChamele": 3309,
      "ĠBathroom": 3310,
      "ĠAnak": 3311,
      "ĠHydro": 3312,
      "ĠStephanies": 3313,
      "Box": 3314,
      "ĠMuscle": 3315,
      "ĠChameleon": 3316,
      "ĠAnakin": 3317,
      "-K": 3318,
      "Car": 3319,
      "GP": 3320,
      "Vv": 3321,
      "aos": 3322,
      "crow": 3323,
      "eyz": 3324,
      "giv": 3325,
      "gGP": 3326,
      "hK": 3327,
      "lic": 3328,
      "mi": 3329,
      "ns": 3330,
      "sgiv": 3331,
      "ĠAqu": 3332,
      "rens": 3333,
      "lete": 3334,
      "ĠSheri": 3335,
      "ief": 3336,
      "aman": 3337,
      "ĠChaos": 3338,
      "ĠSemi": 3339,
      "ĠJetport": 3340,
      "ĠCrash": 3341,
      "anksgiv": 3342,
      "ĠRamp": 3343,
      "omaster": 3344,
      "ĠThanksgiv": 3345,
      "ublic": 3346,
      "ĠMias": 3347,
      "arecrow": 3348,
      "ĠSpeedCar": 3349,
      "ĠPatrio": 3350,
      "ĠFrone": 3351,
      "ĠScarecrow": 3352,
      "ĠWhale": 3353,
      "ĠCargomaster": 3354,
      "ĠComplete": 3355,
      "-Star": 3356,
      "ĠChildrens": 3357,
      "-Tractor": 3358,
      "ĠRepair": 3359,
      "ĠRepublic": 3360,
      "-Kart": 3361,
      "gGPl": 3362,
      "ĠAquaman": 3363,
      "ĠSheriff": 3364,
      "ĠThanksgiving": 3365,
      "ĠPatriot": 3366,
      "BBox": 3367,
      "CY": 3368,
      "FCY": 3369,
      "Gv": 3370,
      "KMw": 3371,
      "bac": 3372,
      "dible": 3373,
      "gic": 3374,
      "wbac": 3375,
      "xKMw": 3376,
      "zone": 3377,
      "ĠFro": 3378,
      "ĠBel": 3379,
      "cky": 3380,
      "ĠPud": 3381,
      "sey": 3382,
      "rion": 3383,
      "rift": 3384,
      "ĠDair": 3385,
      "ĠOrion": 3386,
      "ital": 3387,
      "ĠShunter": 3388,
      "ĠIncre": 3389,
      "ĠAdrift": 3390,
      "ĠBear": 3391,
      "ĠChewbac": 3392,
      "ĠHyperspace": 3393,
      "ĠLucky": 3394,
      "FCYGv": 3395,
      "xKMwT": 3396,
      "ĠFrozone": 3397,
      "ĠBelle": 3398,
      "ĠPudsey": 3399,
      "ĠDairy": 3400,
      "ĠIncredible": 3401,
      "ĠChewbacca": 3402,
      "Gw": 3403,
      "amp": 3404,
      "mar": 3405,
      "nn": 3406,
      "uy": 3407,
      "Ġcon": 3408,
      "ĠMay": 3409,
      "ĠBed": 3410,
      "ĠDel": 3411,
      "ĠDance": 3412,
      "ĠGuy": 3413,
      "ĠBunn": 3414,
      "ĠWid": 3415,
      "ĠWitch": 3416,
      "ĠDemon": 3417,
      "-Man": 3418,
      "ĠBee": 3419,
      "ĠCreeper": 3420,
      "ĠZX": 3421,
      "ĠAmerica": 3422,
      "ĠSwamp": 3423,
      "ĠSubmar": 3424,
      "ĠSteve": 3425,
      "ivery": 3426,
      "ĠHero": 3427,
      "Gwu": 3428,
      "Ġcontainer": 3429,
      "ĠDelivery": 3430,
      "ĠBunny": 3431,
      "ĠWidow": 3432,
      "ĠSubmarine": 3433,
      "Af": 3434,
      "FAf": 3435,
      "PZ": 3436,
      "fric": 3437,
      "ou": 3438,
      "uel": 3439,
      "uFAf": 3440,
      "xon": 3441,
      "ora": 3442,
      "ĠAfric": 3443,
      "ĠFuel": 3444,
      "ĠCri": 3445,
      "ĠSou": 3446,
      "ĠBir": 3447,
      "onse": 3448,
      "ckey": 3449,
      "ĠGam": 3450,
      "ĠEng": 3451,
      "hem": 3452,
      "ĠExxon": 3453,
      "ĠCase": 3454,
      "ĠExcurs": 3455,
      "-Wheel": 3456,
      "key": 3457,
      "ĠLab": 3458,
      "ĠTurkey": 3459,
      "ĠMickey": 3460,
      "gyro": 3461,
      "ĠNews": 3462,
      "ĠAutogyro": 3463,
      "ĠTransit": 3464,
      "ĠResponse": 3465,
      "ĠSweet": 3466,
      "ĠFlag": 3467,
      "ĠMayhem": 3468,
      "PZuFAf": 3469,
      "ĠAfrican": 3470,
      "ĠCrisis": 3471,
      "ĠSouth": 3472,
      "ĠBird": 3473,
      "ĠGamora": 3474,
      "ĠEngines": 3475,
      "ĠExcursion": 3476,
      "PZuFAfi": 3477,
      "eace": 3478,
      "eeper": 3479,
      "ium": 3480,
      "mion": 3481,
      "night": 3482,
      "Ġst": 3483,
      "Ġlo": 3484,
      "ĠAmu": 3485,
      "ĠNit": 3486,
      "ĠRV": 3487,
      "ĠPeace": 3488,
      "sement": 3489,
      "ĠStad": 3490,
      "let": 3491,
      "ĠTrax": 3492,
      "ĠDir": 3493,
      "ĠGran": 3494,
      "ĠEaster": 3495,
      "ĠOf": 3496,
      "ĠPlanet": 3497,
      "ĠChief": 3498,
      "ĠCraft": 3499,
      "ĠStreak": 3500,
      "ĠBeast": 3501,
      "ĠKeeper": 3502,
      "ĠTrike": 3503,
      "ĠSeaplane": 3504,
      "ĠBullet": 3505,
      "ĠMidnight": 3506,
      "ĠPlace": 3507,
      "ĠHermion": 3508,
      "Ġsteam": 3509,
      "Ġlocomotive": 3510,
      "ĠAmusement": 3511,
      "ĠNitro": 3512,
      "ĠStadium": 3513,
      "ĠDirt": 3514,
      "ĠGranger": 3515,
      "ĠHermione": 3516,
      "IN": 3517,
      "WUV": 3518,
      "cord": 3519,
      "uJ": 3520,
      "zard": 3521,
      "ĠMail": 3522,
      "ther": 3523,
      "ĠTug": 3524,
      "ĠBip": 3525,
      "ĠRecord": 3526,
      "eria": 3527,
      "ĠMarsh": 3528,
      "izzard": 3529,
      "ĠSkid": 3530,
      "ĠBlizzard": 3531,
      "ĠDriver": 3532,
      "gniX": 3533,
      "ĠQB": 3534,
      "ĠEmmet": 3535,
      "-TE": 3536,
      "ĠPanther": 3537,
      "ĠSteer": 3538,
      "ĠMinnie": 3539,
      "ĠBreaker": 3540,
      "ĠValentines": 3541,
      "ĠAirliner": 3542,
      "ĠLime": 3543,
      "INgniX": 3544,
      "ĠBiplane": 3545,
      "ĠMarshal": 3546,
      "Xv": 3547,
      "fXv": 3548,
      "wit": 3549,
      "Ġwit": 3550,
      "reck": 3551,
      "edi": 3552,
      "ĠDin": 3553,
      "ĠDig": 3554,
      "ĠGuardian": 3555,
      "igator": 3556,
      "ĠRey": 3557,
      "ĠJedi": 3558,
      "-Sat": 3559,
      "ĠAlligator": 3560,
      "poiX": 3561,
      "ĠShovel": 3562,
      "ĠArmor": 3563,
      "ĠFlash": 3564,
      "ĠDigger": 3565,
      "poiXJC": 3566,
      "-P": 3567,
      "Ir": 3568,
      "ban": 3569,
      "has": 3570,
      "ied": 3571,
      "lon": 3572,
      "ma": 3573,
      "pt": 3574,
      "rban": 3575,
      "ush": 3576,
      "xgu": 3577,
      "ylo": 3578,
      "ĠMil": 3579,
      "ĠAven": 3580,
      "ĠTig": 3581,
      "ĠTine": 3582,
      "ĠCpt": 3583,
      "ĠSal": 3584,
      "ĠRen": 3585,
      "anos": 3586,
      "ĠPhas": 3587,
      "ĠPush": 3588,
      "ĠUrban": 3589,
      "ĠVi": 3590,
      "und": 3591,
      "ĠArmand": 3592,
      "ĠKylo": 3593,
      "ĠAllied": 3594,
      "ĠThanos": 3595,
      "ĠBull": 3596,
      "-Alon": 3597,
      "ĠStephanie": 3598,
      "ĠValentine": 3599,
      "azar": 3600,
      "ĠHydroplane": 3601,
      "xguM": 3602,
      "ĠMilk": 3603,
      "ĠAvenger": 3604,
      "ĠTiger": 3605,
      "ĠSalazar": 3606,
      "ĠPhasma": 3607,
      "ĠArmando": 3608,
      "-Along": 3609,
      "Ag": 3610,
      "Crater": 3611,
      "QN": 3612,
      "VK": 3613,
      "Ye": 3614,
      "Ype": 3615,
      "bag": 3616,
      "iers": 3617,
      "jAg": 3618,
      "kjAg": 3619,
      "rin": 3620,
      "sca": 3621,
      "ybag": 3622,
      "ĠMK": 3623,
      "ĠAer": 3624,
      "ĠSide": 3625,
      "ĠStr": 3626,
      "ĠEB": 3627,
      "ĠYell": 3628,
      "motion": 3629,
      "ralight": 3630,
      "ĠChalet": 3631,
      "ĠUltralight": 3632,
      "ĠSwiss": 3633,
      "ĠPliers": 3634,
      "YeVK": 3635,
      "YpeYeVK": 3636,
      "rinter": 3637,
      "scape": 3638,
      "ĠYellow": 3639,
      "UJC": 3640,
      "Vs": 3641,
      "dre": 3642,
      "ector": 3643,
      "ien": 3644,
      "yVs": 3645,
      "ĠHunter": 3646,
      "ĠOran": 3647,
      "ĠWreck": 3648,
      "unty": 3649,
      "ĠUnit": 3650,
      "ĠSpider": 3651,
      "ĠBounty": 3652,
      "ĠAndre": 3653,
      "ĠWheelie": 3654,
      "ĠAlien": 3655,
      "ĠDetector": 3656,
      "ĠBling": 3657,
      "ĠOrder": 3658,
      "ĠVenom": 3659,
      "ĠBedroom": 3660,
      "-Plane": 3661,
      "UJCyVs": 3662,
      "ĠOrange": 3663,
      "ĠWrecker": 3664,
      "ĠAlienator": 3665,
      "UJCyVsi": 3666,
      "AC": 3667,
      "HK": 3668,
      "HO": 3669,
      "HAC": 3670,
      "Kh": 3671,
      "PV": 3672,
      "QM": 3673,
      "XT": 3674,
      "YbM": 3675,
      "ab": 3676,
      "de": 3677,
      "gir": 3678,
      "hO": 3679,
      "isp": 3680,
      "lay": 3681,
      "ĠMPV": 3682,
      "ĠFerry": 3683,
      "ĠNXT": 3684,
      "oland": 3685,
      "ĠStage": 3686,
      "ĠHosp": 3687,
      "ĠDavid": 3688,
      "ĠDisp": 3689,
      "ĠOver": 3690,
      "ĠWill": 3691,
      "ĠWHAC": 3692,
      "ĠBatgir": 3693,
      "ĠTracking": 3694,
      "ĠLegoland": 3695,
      "ĠDesig": 3696,
      "ĠEndor": 3697,
      "ĠAmaz": 3698,
      "ĠBurger": 3699,
      "ĠPanda": 3700,
      "ĠScout": 3701,
      "gEhO": 3702,
      "ĠGround": 3703,
      "ĠAirline": 3704,
      "ĠAero": 3705,
      "ĠAndreas": 3706,
      "ĠHospital": 3707,
      "ĠDisplay": 3708,
      "ĠOverh": 3709,
      "ĠWHACK": 3710,
      "ĠBatgirl": 3711,
      "ĠAmazon": 3712,
      "BE": 3713,
      "Gp": 3714,
      "Pb": 3715,
      "TT": 3716,
      "ZBE": 3717,
      "hn": 3718,
      "mn": 3719,
      "ohn": 3720,
      "ves": 3721,
      "yna": 3722,
      "ymn": 3723,
      "zeria": 3724,
      "orre": 3725,
      "ĠMTT": 3726,
      "ĠATR": 3727,
      "ĠFed": 3728,
      "thol": 3729,
      "eration": 3730,
      "ĠTorre": 3731,
      "ĠSUV": 3732,
      "ĠBar": 3733,
      "alf": 3734,
      "rives": 3735,
      "ĠTrade": 3736,
      "ĠDyna": 3737,
      "ĠGand": 3738,
      "ĠGymn": 3739,
      "ĠEag": 3740,
      "ĠEscape": 3741,
      "ĠRobin": 3742,
      "asure": 3743,
      "ĠTrainer": 3744,
      "ĠJohn": 3745,
      "ueZBE": 3746,
      "ĠSears": 3747,
      "ĠSebul": 3748,
      "cock": 3749,
      "ĠArrives": 3750,
      "ĠPothol": 3751,
      "ategic": 3752,
      "ĠPatcher": 3753,
      "ĠPursuer": 3754,
      "ĠHancock": 3755,
      "ĠPizzeria": 3756,
      "ĠStriker": 3757,
      "ĠDino": 3758,
      "ĠStrategic": 3759,
      "ĠWillis": 3760,
      "PbJ": 3761,
      "ĠFederation": 3762,
      "ĠTorrent": 3763,
      "ĠBaron": 3764,
      "ĠDynamo": 3765,
      "ĠGandalf": 3766,
      "ĠGymnast": 3767,
      "ĠEagle": 3768,
      "ĠSebulba": 3769,
      "ĠPothole": 3770,
      "Ef": 3771,
      "FH": 3772,
      "MT": 3773,
      "NMT": 3774,
      "UEf": 3775,
      "bital": 3776,
      "king": 3777,
      "lick": 3778,
      "rUEf": 3779,
      "vz": 3780,
      "yFH": 3781,
      "inn": 3782,
      "ĠFinn": 3783,
      "ĠSmo": 3784,
      "ĠSlick": 3785,
      "rader": 3786,
      "ĠPle": 3787,
      "ĠPelic": 3788,
      "stial": 3789,
      "lestial": 3790,
      "ĠTrail": 3791,
      "ĠVulk": 3792,
      "ĠCoach": 3793,
      "ĠWork": 3794,
      "ĠWalker": 3795,
      "ĠReven": 3796,
      "ĠChom": 3797,
      "ĠCrazy": 3798,
      "ĠAirplane": 3799,
      "ĠForager": 3800,
      "ĠKrader": 3801,
      "ĠPrison": 3802,
      "ĠChaser": 3803,
      "ĠCelestial": 3804,
      "ĠInvention": 3805,
      "ĠOrbital": 3806,
      "-Station": 3807,
      "ĠLife": 3808,
      "ĠBikes": 3809,
      "ĠViking": 3810,
      "QNNMT": 3811,
      "yFHrUEf": 3812,
      "ĠSmokin": 3813,
      "ĠSlickster": 3814,
      "ĠPleasure": 3815,
      "ĠPelican": 3816,
      "ĠWorkshop": 3817,
      "ĠRevenge": 3818,
      "ĠChomly": 3819,
      "ĠPrisoner": 3820,
      "QNNMTvz": 3821,
      "Cqo": 3822,
      "EF": 3823,
      "Pol": 3824,
      "Rif": 3825,
      "XZ": 3826,
      "YD": 3827,
      "cro": 3828,
      "fil": 3829,
      "helicopter": 3830,
      "kRif": 3831,
      "oal": 3832,
      "ouse": 3833,
      "pion": 3834,
      "qM": 3835,
      "rator": 3836,
      "trator": 3837,
      "uba": 3838,
      "Ġhelicopter": 3839,
      "orpion": 3840,
      "ĠFix": 3841,
      "ĠLigh": 3842,
      "thouse": 3843,
      "ĠClow": 3844,
      "ĠBaker": 3845,
      "ĠRX": 3846,
      "ĠUNIC": 3847,
      "ĠWav": 3848,
      "ĠWild": 3849,
      "ĠMoto": 3850,
      "ĠInfil": 3851,
      "ĠStarfight": 3852,
      "ĠWheelin": 3853,
      "ĠProbe": 3854,
      "ĠPromotion": 3855,
      "ĠKoal": 3856,
      "ĠLauncher": 3857,
      "ĠScuba": 3858,
      "ĠScorpion": 3859,
      "ĠBone": 3860,
      "-Sprinter": 3861,
      "ĠClone": 3862,
      "-It": 3863,
      "ĠChiefs": 3864,
      "CqoYD": 3865,
      "Polybag": 3866,
      "XZCqoYD": 3867,
      "cross": 3868,
      "ĠLighthouse": 3869,
      "ĠClown": 3870,
      "ĠBakery": 3871,
      "ĠUNICEF": 3872,
      "ĠWave": 3873,
      "ĠMotocross": 3874,
      "ĠInfiltrator": 3875,
      "ĠPromotional": 3876,
      "ĠKoala": 3877,
      "AT": 3878,
      "bler": 3879,
      "ira": 3880,
      "iary": 3881,
      "ten": 3882,
      "xil": 3883,
      "ĠAAT": 3884,
      "ĠFash": 3885,
      "ĠMag": 3886,
      "ĠMaster": 3887,
      "ĠAuxil": 3888,
      "ĠMainten": 3889,
      "ĠTum": 3890,
      "ĠTail": 3891,
      "anone": 3892,
      "rus": 3893,
      "ĠDanone": 3894,
      "ĠGira": 3895,
      "etta": 3896,
      "ĠEZ": 3897,
      "ĠWu": 3898,
      "ffe": 3899,
      "ĠAirboat": 3900,
      "ellite": 3901,
      "ĠSatellite": 3902,
      "ĠTwo": 3903,
      "ĠTunerX": 3904,
      "ĠSonar": 3905,
      "ĠStudio": 3906,
      "ĠBerlinetta": 3907,
      "-Roadster": 3908,
      "ĠRemover": 3909,
      "ĠDesign": 3910,
      "ĠFashion": 3911,
      "ĠAuxiliary": 3912,
      "ĠMaintenance": 3913,
      "ĠTumbler": 3914,
      "ĠGiraffe": 3915,
      "PR": 3916,
      "evo": 3917,
      "ia": 3918,
      "molo": 3919,
      "nzy": 3920,
      "tal": 3921,
      "ture": 3922,
      "walk": 3923,
      "yrax": 3924,
      "atos": 3925,
      "ĠMiner": 3926,
      "eral": 3927,
      "ĠTyrax": 3928,
      "ĠRay": 3929,
      "rievo": 3930,
      "eneral": 3931,
      "ĠGrievo": 3932,
      "ĠGeneral": 3933,
      "ĠVul": 3934,
      "ĠVPR": 3935,
      "heele": 3936,
      "ĠItal": 3937,
      "ĠCover": 3938,
      "ĠCart": 3939,
      "ismolo": 3940,
      "uest": 3941,
      "ĠSeismolo": 3942,
      "-Wheele": 3943,
      "ĠBlazer": 3944,
      "ĠApatos": 3945,
      "aurus": 3946,
      "ĠRaid": 3947,
      "ĠVector": 3948,
      "ĠFreeze": 3949,
      "ĠFrenzy": 3950,
      "ĠStaff": 3951,
      "uderia": 3952,
      "ĠQuest": 3953,
      "ĠScuderia": 3954,
      "ĠLaser": 3955,
      "ĠGolden": 3956,
      "ĠSailboat": 3957,
      "ĠGuardians": 3958,
      "ĠSidewalk": 3959,
      "ĠMineral": 3960,
      "ĠGrievous": 3961,
      "ĠVulture": 3962,
      "ĠItalia": 3963,
      "ĠCovered": 3964,
      "ĠSeismologic": 3965,
      "-Wheeled": 3966,
      "ĠApatosaurus": 3967,
      "CN": 3968,
      "Li": 3969,
      "MI": 3970,
      "RC": 3971,
      "RMI": 3972,
      "YCN": 3973,
      "aur": 3974,
      "eal": 3975,
      "guard": 3976,
      "pro": 3977,
      "Ġcer": 3978,
      "Ġpro": 3979,
      "ĠARC": 3980,
      "ola": 3981,
      "lephan": 3982,
      "ĠGond": 3983,
      "ĠElephan": 3984,
      "esmo": 3985,
      "ĠSprinter": 3986,
      "ĠSiesmo": 3987,
      "ĠGTO": 3988,
      "ĠPolybag": 3989,
      "osaur": 3990,
      "ĠStore": 3991,
      "ĠSurface": 3992,
      "ĠDinosaur": 3993,
      "ĠViper": 3994,
      "ĠLifeguard": 3995,
      "Life": 3996,
      "YCNRMI": 3997,
      "Ġcereal": 3998,
      "Ġpromotion": 3999,
      "ĠGondola": 4000,
      "ĠElephant": 4001,
      "cp": 4002,
      "Ab": 4003,
      "Qu": 4004,
      "Ss": 4005,
      "TF": 4006,
      "XSs": 4007,
      "cell": 4008,
      "do": 4009,
      "eg": 4010,
      "eor": 4011,
      "hk": 4012,
      "ller": 4013,
      "mol": 4014,
      "ov": 4015,
      "ply": 4016,
      "tide": 4017,
      "ura": 4018,
      "uff": 4019,
      "yP": 4020,
      "zar": 4021,
      "Ġch": 4022,
      "ĠAzar": 4023,
      "ĠMagic": 4024,
      "ĠNov": 4025,
      "ĠTip": 4026,
      "ĠTactic": 4027,
      "ĠRip": 4028,
      "ĠPlo": 4029,
      "ĠTracer": 4030,
      "acon": 4031,
      "itor": 4032,
      "ĠDemol": 4033,
      "ĠShuff": 4034,
      "ulQu": 4035,
      "tory": 4036,
      "ĠBeacon": 4037,
      "ĠMeteor": 4038,
      "ĠSupply": 4039,
      "ĠATV": 4040,
      "ĠMonitor": 4041,
      "ĠKitch": 4042,
      "ĠDriller": 4043,
      "ĠSuntory": 4044,
      "ĠOutdo": 4045,
      "iefs": 4046,
      "ĠMailbox": 4047,
      "QNTF": 4048,
      "ĠDesigner": 4049,
      "cpz": 4050,
      "AbXSs": 4051,
      "hkQNTF": 4052,
      "uracell": 4053,
      "Ġchiefs": 4054,
      "ĠAzari": 4055,
      "ĠNova": 4056,
      "ĠTipper": 4057,
      "ĠTactical": 4058,
      "ĠRiptide": 4059,
      "ĠPlough": 4060,
      "ĠDemolition": 4061,
      "ĠKitchen": 4062,
      "ĠOutdoor": 4063,
      "-L": 4064,
      "QX": 4065,
      "Xk": 4066,
      "abo": 4067,
      "dian": 4068,
      "hA": 4069,
      "oth": 4070,
      "ock": 4071,
      "rint": 4072,
      "sar": 4073,
      "wo": 4074,
      "wreck": 4075,
      "ata": 4076,
      "ink": 4077,
      "ĠAstro": 4078,
      "ĠFun": 4079,
      "erine": 4080,
      "ĠCath": 4081,
      "ĠRad": 4082,
      "ĠRight": 4083,
      "arger": 4084,
      "ĠPul": 4085,
      "ĠStock": 4086,
      "ĠDis": 4087,
      "ĠDash": 4088,
      "ĠSprint": 4089,
      "ĠBooth": 4090,
      "ĠCharger": 4091,
      "ĠIndian": 4092,
      "ĠMerry": 4093,
      "ĠCrab": 4094,
      "ĠLandscape": 4095,
      "ĠSki": 4096,
      "ĠAlt": 4097,
      "-Round": 4098,
      "ĠRunabo": 4099,
      "phone": 4100,
      "ĠShipwreck": 4101,
      "-Go": 4102,
      "ĠFisherman": 4103,
      "ĠTelephone": 4104,
      "ĠSidecar": 4105,
      "ĠStrata": 4106,
      "-Link": 4107,
      "QXn": 4108,
      "ĠCatherine": 4109,
      "ĠRadar": 4110,
      "ĠPulsar": 4111,
      "ĠDiscovery": 4112,
      "ĠDasher": 4113,
      "ĠRunabout": 4114,
      "ĠShipwrecked": 4115,
      "bc": 4116,
      "bike": 4117,
      "gun": 4118,
      "ki": 4119,
      "ot": 4120,
      "Ġon": 4121,
      "attle": 4122,
      "ĠLight": 4123,
      "ĠNeed": 4124,
      "ĠCow": 4125,
      "ĠCord": 4126,
      "ckage": 4127,
      "ĠPort": 4128,
      "ĠCoup": 4129,
      "ĠBunge": 4130,
      "oplane": 4131,
      "urers": 4132,
      "ilot": 4133,
      "ĠSeattle": 4134,
      "board": 4135,
      "ĠWheelgun": 4136,
      "ĠAdventurers": 4137,
      "ĠSkate": 4138,
      "ĠSkele": 4139,
      "-Ski": 4140,
      "ĠPackage": 4141,
      "ĠCream": 4142,
      "ĠMotorbike": 4143,
      "ĠUltra": 4144,
      "ĠBonnie": 4145,
      "ĠSaver": 4146,
      "Boxed": 4147,
      "-Pilot": 4148,
      "ĠAeroplane": 4149
    },
    "merges": [
      "0 0",
      "00 0",
      "Ġ -",
      "a t",
      ". d",
      ".d at",
      "m p",
      "_ _",
      ". mp",
      ".mp d",
      "3 0",
      "1 0",
      "2 0",
      "i n",
      "o r",
      "Ġ M",
      "4 0",
      "Ġ A",
      "7 0",
      "Ġ F",
      "Ġ L",
      "ĠM a",
      "t h",
      "1 5",
      "6 0",
      "m e",
      "Ġ N",
      "ĠA u",
      "a me",
      "L E",
      "ĠMa in",
      "e r",
      "O N",
      "T R",
      "I LE",
      "ĠF ILE",
      "ĠL TR",
      "th or",
      "ĠN ame",
      "ĠAu thor",
      "ĠLTR ON",
      "8 0",
      "1 9",
      "9 9",
      "1 4",
      "2 4",
      "7 1",
      "5 0",
      "1 6",
      "7 2",
      "6 6",
      "Ġ T",
      "Ġ C",
      "1 2",
      "30 2",
      "3 2",
      "9 0",
      "7 8",
      "Ġ S",
      "Ġ B",
      "3 6",
      "3 00",
      "2 8",
      "2 5",
      "1 3",
      "10 2",
      "1 8",
      "1 7",
      "r a",
      "9 8",
      "4 8",
      "Ġ H",
      "Ġ R",
      "6 5",
      "3 8",
      "4 2",
      "70 7",
      "1 00",
      "o n",
      "5 6",
      "a r",
      "6 4",
      "7 9",
      "3 9",
      "4 4",
      "c k",
      "4 20",
      "5 00",
      "7 6",
      "1 20",
      "1 1",
      "7 5",
      "3 5",
      "a n",
      "8 8",
      "r e",
      "Ġ P",
      "s e",
      "o l",
      "7 4",
      "2 78",
      "3 4",
      "8 66",
      "2 6",
      "s t",
      "o w",
      "1 10",
      "15 0",
      "3 20",
      "9 6",
      "1 60",
      "5 4",
      "2 3",
      "1 40",
      "ĠS t",
      "ĠH o",
      "2 10",
      "a l",
      "5 8",
      "2 00",
      "l e",
      "2 9",
      "r i",
      "4 3",
      "e d",
      "1 30",
      "5 2",
      "7 3",
      "r u",
      "99 9",
      "ĠT ra",
      "Ġ D",
      "e n",
      "Ġ G",
      "e t",
      "10 1",
      "0 8",
      "6 8",
      "30 3",
      "i g",
      "9 5",
      "in g",
      "2 2",
      "3 10",
      "e l",
      "Ġ E",
      "Ġ U",
      "1 80",
      "r o",
      "3 3",
      "7 7",
      "ĠHo u",
      "4 6",
      "t er",
      "ĠT ow",
      "ru ck",
      "65 5",
      "ĠT ruck",
      "2 40",
      "ĠHou se",
      "a d",
      "5 9",
      "6 00",
      "Ġ V",
      "3 66",
      "h e",
      "36 2",
      "3 71",
      "1 70",
      "30 6",
      "19 0",
      "8 00",
      "Ġ I",
      "8 4",
      "2 13",
      "5 5",
      "2 20",
      "2 7",
      "ig h",
      "2 80",
      "a c",
      "9 4",
      "i c",
      "1 12",
      "6 14",
      "i on",
      "32 5",
      "5 3",
      "g e",
      "3 70",
      "30 1",
      "Ġ O",
      "9 3",
      "99 6",
      "ĠR o",
      "3 79",
      "4 00",
      "ra n",
      "ĠC o",
      "ĠB ri",
      "l er",
      "2 1",
      "2 60",
      "2 30",
      "ĠB u",
      "10 4",
      "st er",
      "ĠSt ar",
      "42 1",
      "o p",
      "25 9",
      "2 50",
      "6 9",
      "l d",
      "an d",
      "ĠE x",
      "2 70",
      "12 8",
      "08 7",
      "c t",
      "u m",
      "8 3",
      "5 7",
      "al l",
      "24 2",
      "i t",
      "Ġ W",
      "2 90",
      "30 4",
      "2 72",
      "ĠC ran",
      "ĠCran e",
      "e s",
      "14 4",
      "24 3",
      "3 40",
      "s se",
      "3 60",
      "4 30",
      "9 66",
      "ĠTow er",
      "4 7",
      "f f",
      "10 7",
      "9 60",
      "99 2",
      "i th",
      "8 2",
      "4 9",
      "99 7",
      "15 2",
      "98 1",
      "16 8",
      "C S",
      "ĠU CS",
      "6 2",
      "99 8",
      "1 36",
      "20 8",
      "ĠD e",
      "4 1",
      "ĠV ol",
      "ĠS h",
      "u n",
      "24 1",
      "d ge",
      "ĠL o",
      "8 19",
      "ol o",
      "6 1",
      "i v",
      "s p",
      "4 16",
      "ĠM o",
      "igh ter",
      "ĠBri dge",
      "5 1",
      "38 2",
      "6 3",
      "a y",
      "28 8",
      "at ion",
      "or t",
      "m o",
      "17 6",
      "19 8",
      "40 7",
      "3 30",
      "4 40",
      "ĠR ac",
      "ĠC olo",
      "sse um",
      "ĠColo sseum",
      "3 80",
      "0 9",
      "w ith",
      "ĠU n",
      "3 90",
      "r on",
      "8 70",
      "ĠC ar",
      "i d",
      "i le",
      "0 17",
      "l a",
      "60 4",
      "9 23",
      "8 9",
      "c he",
      "3 1",
      "t a",
      "c ed",
      "i re",
      "8 80",
      "ĠB en",
      "Ġ with",
      "2 79",
      "ĠR e",
      "15 5",
      "34 6",
      "2 16",
      "in i",
      "25 8",
      "38 3",
      "ĠT he",
      "9 00",
      "ĠT re",
      "7 50",
      "w ay",
      "4 80",
      "a s",
      "i s",
      "4 5",
      "b ile",
      "u l",
      "er i",
      "ĠS p",
      "98 4",
      "18 4",
      "ĠC a",
      "6 7",
      "12 9",
      "u t",
      "0 52",
      "32 1",
      "ro c",
      "19 2",
      "ĠC on",
      "5 74",
      "ĠB o",
      "44 7",
      "9 80",
      "3 50",
      "ĠO ff",
      "t ron",
      "ĠVol tron",
      "32 2",
      "a v",
      "i e",
      "er s",
      "42 7",
      "36 7",
      "3 7",
      "19 5",
      "ĠTra in",
      "ĠTre e",
      "19 1",
      "3 24",
      "er ra",
      "eri al",
      "ĠTow n",
      "0 40",
      "l an",
      "or d",
      "5 60",
      "40 3",
      "6 38",
      "Ġ J",
      "5 42",
      "00 3",
      "9 65",
      "ĠF ire",
      "17 4",
      "ĠC or",
      "mp erial",
      "ĠI mperial",
      "7 00",
      "n er",
      "0 30",
      "9 2",
      "ow er",
      "8 1",
      "Ġ X",
      "u r",
      "5 20",
      "g h",
      "30 8",
      "9 7",
      "30 7",
      "4 50",
      "0 6",
      "13 9",
      "8 7",
      "4 28",
      "98 7",
      "95 1",
      "a m",
      "19 3",
      "c h",
      "36 8",
      "op ter",
      "40 8",
      "16 3",
      "el ic",
      "i ld",
      "5 80",
      "9 78",
      "ĠP lan",
      "elic opter",
      "60 9",
      "28 7",
      "ĠC h",
      "3 74",
      "ĠH elicopter",
      "8 5",
      "v er",
      "ĠI n",
      "ĠB at",
      "4 10",
      "4 60",
      "ĠM ini",
      "ĠTra n",
      "1 14",
      "ĠB ig",
      "3 42",
      "60 5",
      "- w",
      "2 24",
      "0 19",
      "19 6",
      "ĠP ower",
      "17 9",
      "9 39",
      "24 5",
      "ĠCo m",
      "en t",
      "9 24",
      "10 8",
      "ĠH igh",
      "12 2",
      "9 11",
      "2 35",
      "ĠStar f",
      "ĠBu ild",
      "40 4",
      "u e",
      "ad er",
      "e ed",
      "-w ing",
      "ĠStarf ighter",
      "00 1",
      "i r",
      "ĠA d",
      "ta in",
      "3 78",
      "9 40",
      "ĠM er",
      "ced es",
      "ĠMer cedes",
      "5 70",
      "ĠEx c",
      "ĠAd v",
      "98 2",
      "10 6",
      "32 3",
      "i l",
      "25 6",
      "in e",
      "99 0",
      "ĠTran sp",
      "6 80",
      "4 99",
      "4 95",
      "Ġ Y",
      "4 90",
      "7 20",
      "ĠHigh way",
      "mo bile",
      "16 2",
      "it ed",
      "0 7",
      "ĠEx p",
      "0 10",
      "1 32",
      "ĠTransp ort",
      "ĠMa n",
      "56 7",
      "6 20",
      "at or",
      "48 8",
      "ad e",
      "ĠS e",
      "68 3",
      "ĠSt ation",
      "1 13",
      "24 4",
      "3 12",
      "ic e",
      "24 8",
      "58 9",
      "l o",
      "2 32",
      "ĠA n",
      "ĠS n",
      "9 50",
      "d el",
      "28 4",
      "7 60",
      "66 3",
      "6 40",
      "iv e",
      "y er",
      "75 1",
      "ĠUn ited",
      "s che",
      "or sche",
      "ĠP orsche",
      "b o",
      "39 3",
      "ĠBat mobile",
      "99 3",
      "ĠCor ner",
      "1 19",
      "24 6",
      "4 70",
      "32 9",
      "43 3",
      "ĠSn ow",
      "0 25",
      "1 18",
      "12 3",
      "35 2",
      "ar d",
      "5 30",
      "7 66",
      "98 5",
      "15 1",
      "ĠR ol",
      "15 6",
      "6 16",
      "1 24",
      "u p",
      "64 3",
      "- W",
      "ĠF ighter",
      "75 9",
      "18 6",
      "an g",
      "ĠRo ad",
      "10 5",
      "99 4",
      "60 8",
      "2 96",
      "ĠRac er",
      "ĠB la",
      "1 78",
      "1 16",
      "44 4",
      "ĠF l",
      "b b",
      "ĠHo bb",
      "ĠHobb y",
      "0 70",
      "r ol",
      "Ġ and",
      "ĠSt at",
      "erra in",
      "-W ing",
      "c e",
      "5 40",
      "ĠI I",
      "2 64",
      "14 7",
      "e m",
      "0 3",
      "ĠCo a",
      "8 6",
      "17 3",
      "ct or",
      "6 75",
      "14 6",
      "7 10",
      "4 54",
      "av ator",
      "ĠExc avator",
      "ĠT errain",
      "5 50",
      "3 36",
      "d er",
      "75 2",
      "i ler",
      "ĠA p",
      "st ro",
      "4 64",
      "14 8",
      "ĠP i",
      "ĠRac e",
      "ĠDe stro",
      "ĠDestro yer",
      "6 60",
      "6 98",
      "a u",
      "ĠJ et",
      "30 9",
      "ĠC ra",
      "48 9",
      "6 24",
      "ĠMa r",
      "6 10",
      "13 4",
      "b el",
      "ĠRe bel",
      "0 43",
      "44 5",
      "44 9",
      "76 1",
      "i b",
      "ĠTra ctor",
      "0 2",
      "ĠC ru",
      "ĠRol ler",
      "ĠCoa ster",
      "12 5",
      "on s",
      "ĠA roc",
      "ĠBen z",
      "ĠBla ck",
      "ĠAroc s",
      "4 17",
      "o f",
      "9 58",
      "ĠA ir",
      "ĠTra iler",
      "' s",
      "0 1",
      "ĠTra ff",
      "ĠO ld",
      "che ster",
      "ĠPlan e",
      "ĠMan chester",
      "ĠTraff ord",
      "00 2",
      "88 5",
      "1 72",
      "s h",
      "8 16",
      "he el",
      "o k",
      "ac e",
      "t s",
      "38 9",
      "c o",
      "ĠAu t",
      "12 1",
      "ĠSt re",
      "at h",
      "ĠH all",
      "9 33",
      "ster s",
      "Ġ of",
      "ĠDe ath",
      "9 30",
      "4 12",
      "40 6",
      "6 48",
      "48 4",
      "5 10",
      "0 57",
      "i z",
      "65 4",
      "0 35",
      "t le",
      "15 8",
      "25 4",
      "98 9",
      "ĠStre et",
      "88 6",
      "29 2",
      "9 70",
      "9 1",
      "u st",
      "32 8",
      "ĠL and",
      "12 6",
      "15 4",
      "25 3",
      "ĠD u",
      "8 75",
      "0 12",
      "ro ad",
      "ĠW heel",
      "9 74",
      "p le",
      "ĠSh ut",
      "ĠShut tle",
      "ck et",
      "3 44",
      "30 5",
      "17 7",
      "ĠBuild ing",
      "eed er",
      "11 1",
      "an k",
      "ĠG re",
      "ĠSp ace",
      "ĠPi ck",
      "1 15",
      "13 8",
      "4 56",
      "0 21",
      "t re",
      "15 9",
      "tre me",
      "3 39",
      "7 99",
      "50 9",
      "89 1",
      "ĠBri ck",
      "ri c",
      "0 28",
      "s s",
      "t or",
      "0 72",
      "a g",
      "19 7",
      "9 14",
      "ĠLo g",
      "60 1",
      "w ler",
      "ĠR S",
      "ĠCra wler",
      "5 90",
      "10 9",
      "2 19",
      "6 88",
      "54 5",
      "5 77",
      "8 60",
      "b in",
      "25 5",
      "5 76",
      "16 4",
      "44 3",
      "ĠA r",
      "4 48",
      "3 76",
      "65 6",
      "96 7",
      "ĠCo ol",
      "- M",
      "g ade",
      "13 5",
      "14 2",
      "08 6",
      "66 9",
      "66 1",
      "4 74",
      "9 25",
      "u re",
      "6 90",
      "90 6",
      "ĠMa ck",
      "th em",
      "ĠAn them",
      "58 5",
      "6 50",
      "0 41",
      "2 12",
      "6 74",
      "er r",
      "9 20",
      "4 15",
      "ĠOff road",
      "ĠIn ter",
      "5 99",
      "t ic",
      "ĠB e",
      "39 4",
      "98 6",
      "8 72",
      "29 7",
      "f t",
      "el l",
      "8 23",
      "0 94",
      "n g",
      "p ort",
      "sp eeder",
      "ĠSnow speeder",
      "16 6",
      "4 32",
      "0 20",
      "a ra",
      "18 9",
      "35 4",
      "18 2",
      "18 8",
      "I E",
      "ĠT IE",
      "4 24",
      "8 20",
      "t e",
      "60 2",
      "35 8",
      "ĠBu cket",
      "80 8",
      "2 38",
      "2 25",
      "um n",
      "ĠLo ader",
      "ĠAut umn",
      "f e",
      "u gh",
      "78 1",
      "on d",
      "ĠSh op",
      "is er",
      "ĠCru iser",
      "ĠF or",
      "99 5",
      "ĠRo ugh",
      "26 8",
      "it y",
      "80 9",
      "39 2",
      "in d",
      "10 3",
      "i an",
      "75 4",
      "ĠEx treme",
      "6 78",
      "8 59",
      "ĠBri gade",
      "8 40",
      "4 96",
      "48 3",
      "ĠCa fe",
      "ĠAdv ent",
      "3 18",
      "lo ck",
      "2 34",
      "9 76",
      "b h",
      "ĠL ie",
      "ĠG ara",
      "un tain",
      "bh err",
      "ĠLie bherr",
      "ĠGara ge",
      "9 56",
      "ĠM et",
      "ĠM ust",
      "ĠF ord",
      "ĠS k",
      "ĠMust ang",
      "42 6",
      "65 3",
      "6 30",
      "14 9",
      "14 5",
      "id e",
      "9 48",
      "q u",
      "0 56",
      "12 7",
      "78 4",
      "25 2",
      "8 76",
      "38 4",
      "2 66",
      "8 15",
      "8 50",
      "1 17",
      "7 40",
      "all y",
      "ĠR a",
      "8 11",
      "39 5",
      "19 9",
      "le ct",
      "ĠS up",
      "20 7",
      "5 28",
      "4 73",
      "at er",
      "20 4",
      "ĠH ar",
      "ĠAdvent ure",
      "9 13",
      "16 5",
      "2 36",
      "6 95",
      "35 9",
      "ĠFl at",
      "2 14",
      "2 76",
      "k e",
      "0 5",
      "9 26",
      "68 1",
      "2 17",
      "00 7",
      "ĠS m",
      "4 72",
      "7 32",
      "16 9",
      "16 7",
      "4 59",
      "2 65",
      "2 28",
      "e ar",
      "ĠF erra",
      "ĠMo bile",
      "ĠFerra ri",
      "am b",
      "4 55",
      "o del",
      "ĠP ar",
      "-M odel",
      "3 72",
      "m and",
      "ĠR ally",
      "59 7",
      "26 2",
      "75 8",
      "14 1",
      "ĠR es",
      "an ced",
      "ĠAdv anced",
      "36 5",
      "re ss",
      "08 2",
      "ĠStat e",
      "0 15",
      "9 73",
      "2 29",
      "38 6",
      "80 6",
      "13 7",
      "- S",
      "3 75",
      "48 5",
      "22 7",
      "76 3",
      "98 8",
      "l or",
      "ĠExp lor",
      "ĠExplor er",
      "6 70",
      "15 7",
      "tain er",
      "17 5",
      "o m",
      "ĠDu mp",
      "78 5",
      "4 79",
      "13 3",
      "st ru",
      "ĠCom mand",
      "stru ct",
      "20 1",
      "5 98",
      "9 79",
      "7 74",
      "14 3",
      "7 34",
      "ĠP a",
      "43 7",
      "88 3",
      "7 19",
      "88 4",
      "16 1",
      "sse ng",
      "ĠPa sseng",
      "ĠPasseng er",
      "1 71",
      "t ta",
      "ĠC en",
      "5 18",
      "ĠA T",
      "20 6",
      "42 3",
      "39 1",
      "t y",
      "36 1",
      "sh op",
      "3 16",
      "mo t",
      "ĠCon tainer",
      "26 7",
      "5 59",
      "ib le",
      "4 18",
      "9 36",
      "28 5",
      "ĠSm all",
      "95 3",
      "0 31",
      "3 34",
      "ĠA l",
      "64 1",
      "18 7",
      "v o",
      "Ġ %",
      "ĠL ion",
      "ĠBo ok",
      "ĠBook shop",
      "9 19",
      "23 3",
      "iv ers",
      "ĠUn ivers",
      "ĠUnivers al",
      "8 67",
      "8 27",
      "19 4",
      "64 7",
      "ĠP ro",
      "9 32",
      "ĠC re",
      "2 18",
      "8 52",
      "ĠMa ul",
      "ar th",
      "ĠD arth",
      "63 7",
      "2 26",
      "22 2",
      "ĠVol vo",
      "40 2",
      "ĠLion s",
      "50 7",
      "2 39",
      "7 80",
      "3 56",
      "v e",
      "6 39",
      "60 6",
      "18 5",
      "5 54",
      "8 10",
      "9 27",
      "5 52",
      "38 5",
      "6 23",
      "A S",
      "28 2",
      "ĠG roc",
      "ĠGre en",
      "ĠGroc er",
      "0 36",
      "8 65",
      "7 42",
      "8 46",
      "ĠM ed",
      "t ible",
      "ĠS i",
      "ĠCon ver",
      "ĠConver tible",
      "3 19",
      "88 2",
      "2 73",
      "4 14",
      "ĠPro p",
      "b ed",
      "Ġ in",
      "or gh",
      "70 5",
      "ĠL amb",
      "ĠG all",
      "ard o",
      "ĠFlat bed",
      "orgh ini",
      "ĠLamb orghini",
      "ĠGall ardo",
      "13 1",
      "73 7",
      "s ons",
      "mp sons",
      "ĠSi mpsons",
      "e st",
      "ĠS et",
      "28 3",
      "8 25",
      "5 12",
      "78 8",
      "74 3",
      "15 3",
      "8 30",
      "6 12",
      "ĠG T",
      "5 23",
      "ĠB ank",
      "3 11",
      "6 11",
      "8 14",
      "32 6",
      "ĠHo t",
      "4 19",
      "ĠC ent",
      ". ld",
      ".ld r",
      "42 2",
      "ĠMo untain",
      "ĠM on",
      "6 15",
      "e ct",
      "00 8",
      "ĠOff ice",
      "ĠCom bin",
      "ĠCombin ation",
      "7 78",
      "4 53",
      "96 1",
      "lect ric",
      "3 73",
      "st au",
      "ran t",
      "ĠRe stau",
      "is ian",
      "ĠExp ress",
      "ĠSup er",
      "ĠPar isian",
      "ĠCen ter",
      "ĠRestau rant",
      "78 7",
      "ĠV e",
      "49 1",
      "3 13",
      "0 66",
      "n t",
      "75 5",
      "8 69",
      "70 2",
      "53 1",
      "0 60",
      "0 88",
      "5 44",
      "ĠB lock",
      "35 5",
      "46 9",
      "4 65",
      "99 1",
      "18 3",
      "49 2",
      "60 7",
      "ĠD et",
      "igh t",
      "4 98",
      "4 38",
      "5 11",
      "28 1",
      "40 1",
      "ĠC la",
      "ĠS at",
      "9 52",
      "00 6",
      "ĠP et",
      "8 44",
      "9 75",
      "g w",
      "ĠL ine",
      "ĠS qu",
      "ar ts",
      "ĠHo gw",
      "ĠHogw arts",
      "0 90",
      "71 8",
      "6 99",
      "48 6",
      "6 35",
      "7 24",
      "b a",
      "co mot",
      "comot ive",
      "Ġ K",
      "5 36",
      "36 4",
      "56 8",
      "ur n",
      "ĠSat urn",
      "in er",
      "9 22",
      "p er",
      "54 6",
      "33 3",
      "2 23",
      "26 9",
      "8 90",
      "iv es",
      "ĠMo del",
      "ect ives",
      "ĠDet ectives",
      "ĠP ol",
      "65 9",
      "08 1",
      "9 71",
      "ĠG al",
      "90 4",
      "71 2",
      "ar ing",
      "64 6",
      "ĠRo aring",
      "ĠRoad sters",
      "4 93",
      "o d",
      "ĠAir port",
      "50 1",
      "69 2",
      "- R",
      "-R o",
      "2 15",
      "7 70",
      "6 27",
      "a se",
      "ĠPol ice",
      "4 34",
      "2 71",
      "34 1",
      "23 7",
      "s ide",
      "c ue",
      "ĠN AS",
      "ol lo",
      "94 7",
      "ĠAp ollo",
      "ĠRes cue",
      "ĠNAS A",
      "0 79",
      "6 96",
      "6 93",
      "ĠB l",
      "Ġ x",
      "36 3",
      "ĠTra ck",
      "ĠLo comotive",
      "struct ion",
      "0 80",
      "8 39",
      "76 7",
      "33 1",
      "ĠAp ple",
      "ĠC ity",
      "2 74",
      "- B",
      "2 11",
      "7 90",
      "st le",
      "ĠCa stle",
      "2 77",
      "58 4",
      "18 1",
      "8 29",
      "u s",
      "rol iner",
      "ĠStat ue",
      "ĠMet roliner",
      "6 76",
      "ĠRa il",
      "9 29",
      "m ith",
      "s mith",
      "ĠMa ers",
      "ĠBlack smith",
      "ĠMaers k",
      "0 50",
      "26 1",
      "ĠRo ver",
      "4 11",
      "9 34",
      "66 2",
      "ĠBu sters",
      "0 13",
      "98 3",
      "39 6",
      "88 8",
      "- E",
      "ĠT ri",
      "65 7",
      "46 2",
      "8 13",
      "35 3",
      "6 28",
      "00 4",
      "20 2",
      "24 7",
      "6 94",
      "08 3",
      "ĠR un",
      "20 5",
      "3 32",
      "ĠRo bo",
      "4 94",
      "iz ed",
      "ĠH au",
      "44 6",
      "ĠRun ner",
      "ĠHau ler",
      "7 38",
      "54 3",
      "ĠBlock ade",
      "59 2",
      "v al",
      "70 9",
      "52 2",
      "09 1",
      "ie val",
      "ĠMed ieval",
      "8 28",
      "22 1",
      "66 4",
      "79 3",
      "24 9",
      "ac h",
      "ĠBu s",
      "ĠBl ue",
      "6 33",
      "4 51",
      "0 38",
      "56 4",
      "6 72",
      "9 64",
      "7 36",
      "i ft",
      "m an",
      "20 9",
      "op er",
      "4 58",
      "34 9",
      "77 7",
      "7 72",
      "35 7",
      "4 52",
      "mp ire",
      "se l",
      "ĠD ie",
      "ĠE mpire",
      "ĠDie sel",
      "8 48",
      "9 46",
      "z er",
      "ĠL ib",
      "er ty",
      "ĠPick up",
      "ĠLib erty",
      "71 6",
      "- D",
      "6 42",
      "7 76",
      "28 9",
      "4 25",
      "8 58",
      "f or",
      "ĠTri ple",
      "2 98",
      "26 3",
      "29 1",
      "6 36",
      "ĠL e",
      "50 4",
      "3 38",
      "70 6",
      "78 2",
      "h o",
      "at ed",
      "ĠL ond",
      "68 9",
      "ul ated",
      "ĠAr tic",
      "ĠLond on",
      "ĠArtic ulated",
      "l ow",
      "o zer",
      "43 1",
      "00 5",
      "9 10",
      "79 6",
      "34 7",
      "4 78",
      "9 77",
      "66 7",
      "6 18",
      "2 75",
      "40 9",
      "ĠL a",
      "5 15",
      "8 18",
      "7 30",
      "g a",
      "9 28",
      "76 2",
      "8 64",
      "ĠH or",
      "40 5",
      "20 3",
      "ĠSe a",
      "70 8",
      "29 4",
      "5 26",
      "8 77",
      "v en",
      "6 13",
      "7 98",
      "h ic",
      "ĠVe hic",
      "ĠVehic le",
      "4 57",
      "55 1",
      "ĠAl l",
      "0 45",
      "8 99",
      "8 93",
      "ĠR ig",
      "ĠT ur",
      "76 8",
      "e av",
      "ĠH eav",
      "ĠHeav y",
      "7 64",
      "36 9",
      "8 36",
      "0 34",
      "64 5",
      "ĠMar k",
      "0 26",
      "ĠR ed",
      "0 71",
      "3 15",
      "3 17",
      "80 4",
      "58 7",
      "0 47",
      "54 7",
      "ĠE n",
      "i mo",
      "p h",
      "en z",
      "ĠUn imo",
      "-B enz",
      "ĠUnimo g",
      "8 12",
      "i ke",
      "6 29",
      "0 18",
      "9 44",
      "3 48",
      "5 48",
      "ĠO ce",
      "ĠOce an",
      "66 8",
      "72 9",
      "6 17",
      "v et",
      "29 3",
      "ĠMo tor",
      "2 99",
      "3 77",
      "5 73",
      "6 19",
      "ra l",
      "ĠH ut",
      "ĠBe ach",
      "33 7",
      "f en",
      "ĠDe fen",
      "id er",
      "ĠDefen der",
      "5 58",
      "h am",
      "ĠT h",
      "ĠC ater",
      "25 1",
      "ĠHouse s",
      "ĠSe ven",
      "ĠCater ham",
      "34 5",
      "5 88",
      "u b",
      "ĠB ase",
      "3 14",
      "5 17",
      "6 32",
      "or m",
      "96 8",
      "70 4",
      "39 7",
      "7 73",
      "c er",
      "ar s",
      "7 15",
      "ĠA tta",
      "94 1",
      "it ion",
      "ĠAtta ck",
      "6 34",
      "79 7",
      "- e",
      "5 16",
      "-e lectric",
      "23 1",
      "25 7",
      "ĠP o",
      "84 9",
      "a ge",
      "d ition",
      "r ind",
      "ĠG ear",
      "ĠG rind",
      "ĠE dition",
      "ĠGrind ers",
      "72 5",
      "95 7",
      "28 6",
      "0 4",
      "ĠM i",
      "8 79",
      "b ine",
      "d ul",
      "ĠF ive",
      "50 3",
      "ĠMo dul",
      "ĠModul ars",
      "7 79",
      "3 99",
      "8 26",
      "me nt",
      "38 1",
      "9 72",
      "b re",
      "ĠF re",
      "ĠN e",
      "er bre",
      "72 8",
      "ĠG ing",
      "erbre ad",
      "ĠGing erbread",
      "4 36",
      "g y",
      "55 5",
      "ĠBu l",
      "52 1",
      "68 5",
      "ĠCre w",
      "38 8",
      "3 35",
      "80 2",
      "ce p",
      "ĠInter cep",
      "E K",
      "i p",
      "y e",
      "ow n",
      "ĠCommand er",
      "E G",
      "ĠL EG",
      "65 8",
      "56 2",
      "ĠLEG O",
      "3 98",
      "80 7",
      "48 7",
      "e ing",
      "er ion",
      "ĠB ell",
      "re y",
      "ĠTra c",
      "ĠV C",
      "84 7",
      "ĠO sp",
      "ĠBo eing",
      "ĠX erion",
      "ĠCla as",
      "ĠOsp rey",
      "0 24",
      "9 54",
      "79 2",
      "58 2",
      "ac tic",
      "iz on",
      "ĠHor izon",
      "ĠIn struction",
      "ĠFre ight",
      "ĠP ri",
      "t in",
      "ĠA st",
      "ame s",
      "50 5",
      "ĠT w",
      "ĠB ond",
      "ĠD B",
      "ĠJ ames",
      "ĠMar tin",
      "ĠGal actic",
      "ĠAst in",
      "9 42",
      "0 59",
      "7 56",
      "9 21",
      "ĠRS R",
      "8 68",
      "ĠV ader",
      "ar e",
      "ĠSk y",
      "g gy",
      "r s",
      "Ġ Z",
      "ĠA me",
      "ĠBu ggy",
      "ĠSp eed",
      "ĠAme ric",
      "46 1",
      "ĠT ar",
      "73 3",
      "ĠGre at",
      "ĠTar ga",
      "5 56",
      "58 6",
      "8 32",
      "8 21",
      "ĠHot el",
      "ĠTw in",
      "68 4",
      "4 77",
      "ra g",
      "ĠD rag",
      "ĠCent ral",
      "p o",
      "ĠH ol",
      "id ay",
      "ĠMark et",
      "ĠHol iday",
      "8 57",
      "64 4",
      "0 73",
      "4 42",
      "c re",
      "96 9",
      "at e",
      "ĠT ank",
      "ĠC roc",
      "od ile",
      "ĠCroc odile",
      "6 77",
      "7 14",
      "00 9",
      "08 5",
      "94 9",
      "0 44",
      "9 35",
      "46 7",
      "95 9",
      "a i",
      "8 38",
      "in a",
      "66 6",
      "34 3",
      "as h",
      "4 68",
      "ĠL ift",
      "ĠCa bin",
      "0 39",
      "8 96",
      "- A",
      "e p",
      "5 19",
      "ĠG as",
      "0 16",
      "x er",
      "38 7",
      "ld ozer",
      "ĠMi xer",
      "ĠBul ldozer",
      "8 94",
      "W D",
      "c ra",
      "un ch",
      "ĠLa unch",
      "cra ft",
      "5 71",
      "90 9",
      "ĠRobo t",
      "80 3",
      "9 38",
      "73 1",
      "f ro",
      "Ġ fro",
      "ĠCh al",
      "ĠRoad ster",
      "Ġfro m",
      "50 6",
      "k s",
      "w ag",
      "et le",
      "ĠVol ks",
      "ĠBe etle",
      "wag en",
      "ĠVolks wagen",
      "6 25",
      "e am",
      "f al",
      "g ar",
      "ĠTra fal",
      "ĠSqu are",
      "ĠTrafal gar",
      "4 66",
      "0 99",
      "0 42",
      "90 2",
      "4 39",
      "0 54",
      "c y",
      "5 79",
      "8 98",
      "8 56",
      "ĠC ro",
      "ĠG o",
      "68 2",
      "ch er",
      "-S T",
      "56 3",
      "9 15",
      "32 7",
      "ĠRo d",
      "50 2",
      "l s",
      "ĠF ort",
      "42 9",
      "ĠSt a",
      "59 4",
      "-A T",
      "5 25",
      "5 65",
      "79 5",
      "08 9",
      "i m",
      "29 5",
      "M w",
      "l us",
      "ĠExc lus",
      "ĠSk ul",
      "ĠExclus ive",
      "68 6",
      "n ge",
      "80 5",
      "90 1",
      "52 7",
      "ĠHar ve",
      "ĠRail way",
      "ĠTur bo",
      "ĠHarve ster",
      "z a",
      "72 6",
      "59 3",
      "88 9",
      "a st",
      "ĠS olo",
      "ĠP at",
      "le y",
      "le nge",
      "ĠCo tta",
      "ĠChal lenge",
      "ĠCotta ge",
      "g ing",
      "ĠR ider",
      "74 5",
      "74 6",
      "et a",
      "ĠLog ging",
      "65 2",
      "83 1",
      "- U",
      "C ity",
      "l t",
      "ĠS en",
      "48 1",
      "ĠU lt",
      "-U p",
      "0 11",
      "5 78",
      "58 1",
      "5 96",
      "84 1",
      "X X",
      "89 2",
      "u d",
      "ĠW ag",
      "0 14",
      "7 44",
      "9 16",
      "ĠHo ver",
      "ĠCo oper",
      "ĠHover craft",
      "c le",
      "u ri",
      "76 9",
      "68 7",
      "ĠCom bine",
      "0 32",
      "0 48",
      "it e",
      "5 29",
      "p low",
      "48 2",
      "il l",
      "ĠSnow plow",
      "66 5",
      "44 1",
      "m u",
      "t rol",
      "v el",
      "ĠF et",
      "ĠBo ba",
      "50 8",
      "ĠNe w",
      "t ro",
      "ĠHou rs",
      "un t",
      "for cer",
      "ĠEn forcer",
      "08 4",
      "c ar",
      "8 61",
      "78 3",
      "ĠB ike",
      "54 9",
      "ĠFet t",
      "4 76",
      "5 14",
      "8 51",
      "ĠF at",
      "er v",
      "5 39",
      "8 78",
      "0 98",
      "X f",
      "h Xf",
      "ĠMet ro",
      "ĠMotor ized",
      "hXf Mw",
      "0 78",
      "6 21",
      "88 7",
      "49 7",
      "4 35",
      "Ġ th",
      "80 1",
      "69 1",
      "Ġth e",
      "94 5",
      "6 22",
      "or k",
      "8 62",
      "ĠE m",
      "6 26",
      "ĠC at",
      "al e",
      "8 71",
      "er man",
      "en e",
      "av id",
      "ĠLe g",
      "u ard",
      "ĠT o",
      "ĠSh ell",
      "5 38",
      "4 75",
      "s on",
      "ĠC he",
      "ĠCre at",
      "5 32",
      "95 5",
      "0 27",
      "0 63",
      "5 72",
      "l y",
      "78 9",
      "ĠG erman",
      "ĠAut o",
      "6 79",
      "g k",
      "60 3",
      "ĠCh as",
      "ĠFor k",
      "ĠTrack ed",
      "EK P",
      "gk EKP",
      "0 61",
      "55 3",
      "93 1",
      "ĠD ro",
      "ĠG ho",
      "ĠU p",
      "ĠDro id",
      "ĠGho st",
      "59 1",
      "9 17",
      "ĠC ust",
      "as ons",
      "ĠCh ang",
      "ĠSe asons",
      "ĠFor mu",
      "ĠTank er",
      "ĠCust om",
      "ĠChang ing",
      "ĠFormu la",
      "ur s",
      "4 13",
      "7 75",
      "75 3",
      "a il",
      "ĠCustom ized",
      "ĠF ron",
      "ĠW ash",
      "ĠPat rol",
      "b er",
      "ĠD es",
      "72 3",
      "5 13",
      "53 7",
      "ĠBo y",
      "ĠFl y",
      "ĠFor est",
      "ĠHar ley",
      "-D avid",
      "-David son",
      "0 77",
      "8 54",
      "ĠD ri",
      "ut y",
      "ĠWag on",
      "s ation",
      "w ater",
      "ĠF all",
      "ame l",
      "ĠC amel",
      "90 7",
      "ĠS op",
      "ĠHo me",
      "ing water",
      "ĠSen sation",
      "ĠFall ingwater",
      "ĠSop with",
      "g n",
      "72 2",
      "4 71",
      "R x",
      "b x",
      "ĠSt unt",
      "Rx bx",
      "0 55",
      "54 1",
      "b le",
      "ĠSh ip",
      "ĠCon trol",
      "72 7",
      "ĠS y",
      "35 1",
      "5 75",
      "5 34",
      "9 43",
      "78 6",
      "65 1",
      "el ler",
      "ran d",
      "ĠDe po",
      "ĠDepo t",
      "56 9",
      "o s",
      "96 2",
      "a k",
      "o on",
      "90 8",
      "ĠS ch",
      "ĠE ye",
      "ĠSkul ls",
      "oon er",
      "ĠSch ooner",
      "5 35",
      "v rol",
      "ĠC lock",
      "69 7",
      "ĠCor vet",
      "ĠChe vrol",
      "ĠCorvet te",
      "ĠChevrol et",
      "0 68",
      "8 43",
      "56 1",
      "9 12",
      "Ġ Q",
      "un der",
      "ĠTh under",
      "5 24",
      "90 5",
      "ĠE W",
      "8 53",
      "71 7",
      "ĠP urs",
      "ĠIntercep tor",
      "ĠPurs u",
      "8 22",
      "c on",
      "d y",
      "ĠS c",
      "ĠCru sh",
      "ĠDu ba",
      "-Ro ader",
      "ĠDuba i",
      "72 1",
      "i se",
      "ĠV ac",
      "ĠBo at",
      "ĠBeach side",
      "ĠVac ation",
      "0 69",
      "5 66",
      "a f",
      "Ġ af",
      "ĠB on",
      "ĠG te",
      "ĠCor se",
      "0 76",
      "in for",
      "ĠS erv",
      "ol ph",
      "al s",
      "ĠD olph",
      "ĠE lectric",
      "46 3",
      "ĠI ron",
      "ĠAn im",
      "ĠRa infor",
      "ĠServ ice",
      "ĠDolph in",
      "ĠAnim als",
      "ĠRainfor est",
      "0 58",
      "s is",
      "y z",
      "ĠM ind",
      "st orm",
      "ĠSt orm",
      "tro oper",
      "ĠFron t",
      "ĠMind storm",
      "ĠStorm trooper",
      "ĠMindstorm s",
      "a x",
      "ĠGal ax",
      "ĠGalax y",
      "7 48",
      "0 53",
      "m on",
      "55 7",
      "ĠCon cre",
      "ĠPri vet",
      "ĠDri ve",
      "ĠConcre te",
      "8 24",
      "ĠH ill",
      "ar t",
      "ow nt",
      "ĠD ownt",
      "ĠHill side",
      "ĠDownt own",
      "0 29",
      "5 33",
      "7 65",
      "8 74",
      "ĠI s",
      "ĠEm me",
      "ĠPursu it",
      "er t",
      "71 3",
      "ar ch",
      "ĠY ear",
      "ĠMon arch",
      "ĠDrag ster",
      "ĠMonarch s",
      "88 1",
      "74 1",
      "6 71",
      "o untain",
      "v i",
      "ĠF XX",
      "ĠF ountain",
      "ĠT est",
      "ĠTre vi",
      "ĠDes ert",
      "5 95",
      "b ul",
      "ĠN a",
      "an za",
      "96 3",
      "ĠBon anza",
      "0 96",
      "8 55",
      "u v",
      "ĠLo uv",
      "ĠLouv re",
      "8 17",
      "ĠS P",
      "ĠH a",
      "and ler",
      "z e",
      "ĠSt and",
      "58 3",
      "ĠE V",
      "ĠCro ss",
      "0 37",
      "t o",
      "y al",
      "71 1",
      "ri d",
      "ing s",
      "ĠRo yal",
      "ur y",
      "ĠFl yer",
      "ĠAr ch",
      "ĠCent ury",
      "ĠK ings",
      "ĠSky way",
      "7 39",
      "79 4",
      "8 73",
      "ĠCon struction",
      "-Ro tor",
      "o y",
      "mp ing",
      "ĠS w",
      "ĠW il",
      "ĠW ho",
      "ĠWil low",
      "ĠWho mping",
      "0 49",
      "90 3",
      "89 7",
      "ĠG eta",
      "83 7",
      "ĠIn v",
      "ĠY ork",
      "ĠQ u",
      "ĠGeta way",
      "0 95",
      "0 62",
      "or ed",
      "on der",
      "ĠSt or",
      "ĠPo e",
      "ĠLeg ored",
      "ĠFly ers",
      "ĠLegored o",
      "7 71",
      "- City",
      "0 23",
      "0 22",
      "ĠMa ch",
      "co ver",
      "ĠMach ine",
      "i as",
      "l iv",
      "n ation",
      "o se",
      "or ail",
      "ĠC y",
      "ĠH y",
      "st em",
      "ĠO liv",
      "ĠInter nation",
      "ĠMon orail",
      "ĠSqu ad",
      "ĠChas sis",
      "ĠSy stem",
      "ĠOliv ias",
      "ĠInternation al",
      "- treme",
      "ĠT un",
      "ĠS ower",
      "ĠSta ble",
      "74 9",
      "e ch",
      "n igh",
      "ĠG ra",
      "ct ic",
      "ĠCon struct",
      "ĠBrick to",
      "ĠAr ctic",
      "-M ech",
      "ĠK nigh",
      "ĠEmme ts",
      "ĠTun er",
      "ĠConstruct o",
      "ĠBrickto ber",
      "ĠKnigh ts",
      "8 42",
      "A L",
      "Y M",
      "ĠW all",
      "ĠW ind",
      "ĠW AL",
      "ĠCh ina",
      "iz er",
      "ĠSolo mon",
      "ĠStor age",
      "ĠWAL LE",
      "6 73",
      "Ġ t",
      "ri gh",
      "ĠE lect",
      "ĠRo cket",
      "ĠW h",
      "ĠW righ",
      "ĠStand ard",
      "ĠElect r",
      "ĠWrigh t",
      "0 51",
      "ĠT eam",
      "ĠS and",
      "ĠB ay",
      "ĠMar ina",
      "ĠVehicle s",
      "ĠSand s",
      "7 35",
      "e per",
      "ĠS on",
      "8 35",
      "o ut",
      "Ġ car",
      "an ce",
      "74 7",
      "ĠTran s",
      "93 7",
      "h in",
      "l ift",
      "ĠS ub",
      "ĠR ise",
      "75 7",
      "ĠSp hin",
      "ĠSup port",
      "ĠCross ing",
      "ĠSphin x",
      "-S p",
      "ĠEn d",
      "64 9",
      "a ran",
      "ĠF ri",
      "ĠL as",
      "ĠG un",
      "ĠRo ader",
      "am aran",
      "ĠCat amaran",
      "8 95",
      "t la",
      "ĠS av",
      "ĠH ear",
      "ĠSt ud",
      "ri k",
      "ĠSp ort",
      "ĠSp ike",
      "ag er",
      "tla ke",
      "ĠHear tlake",
      "ĠStud i",
      "9 18",
      "me r",
      "ĠC l",
      "0 65",
      "k in",
      "o ye",
      "ĠV il",
      "63 1",
      "ĠCar g",
      "ĠCar s",
      "ĠBo om",
      "ĠSon ic",
      "ĠSav oye",
      "ĠVil la",
      "0 46",
      "s age",
      "ĠM es",
      "ĠN ight",
      "ĠSh o",
      "ĠProp eller",
      "ĠIntercep t",
      "ĠMes sage",
      "0 74",
      "- T",
      "n ie",
      "ĠS ith",
      "ĠD ozer",
      "ĠI ce",
      "g as",
      "ĠM id",
      "is s",
      "ĠAl ph",
      "ĠVe gas",
      "uard ian",
      "ĠAlph a",
      "0 33",
      "I z",
      "J m",
      "Y g",
      "70 3",
      "ĠF ar",
      "ĠD o",
      "ĠG rand",
      "ĠCo mp",
      "ĠCh ase",
      "ĠLog o",
      "ĠPri x",
      "-Sp eed",
      "Iz Yg",
      "ĠFar m",
      "09 2",
      "g ler",
      "Ġ n",
      "ĠLo ad",
      "ĠMar vel",
      "ĠStudi os",
      "c in",
      "c uri",
      "ĠC e",
      "ĠH Q",
      "re cin",
      "ĠP recin",
      "en ced",
      "eri enced",
      "ĠExp erienced",
      "ĠSe curi",
      "ĠAir te",
      "ĠCla w",
      "cy cle",
      "ĠPrecin ct",
      "ĠSecuri ty",
      "ĠAirte ch",
      "an gh",
      "ĠV oy",
      "ĠDe ep",
      "ĠSh angh",
      "ure s",
      "ĠCreat ures",
      "ĠInv ent",
      "ĠCl ub",
      "ĠVoy ager",
      "ĠShangh ai",
      "c is",
      "l and",
      "ĠF ran",
      "ĠS an",
      "ĠRac ing",
      "bo ur",
      "ng ine",
      "ĠHar bour",
      "ĠPatrol ler",
      "ĠSc ene",
      "ĠIs land",
      "cis co",
      "ĠFran cisco",
      "8 34",
      "0 67",
      "M W",
      "a ir",
      "at cher",
      "70 1",
      "er kin",
      "ĠB ons",
      "ĠB MW",
      "ĠP an",
      "ĠP erkin",
      "ol d",
      "ĠG S",
      "id a",
      "ĠSp eeder",
      "per sp",
      "ĠTh atcher",
      "ĠNa ida",
      "ĠHy persp",
      "ĠBons ai",
      "ĠPerkin s",
      "E R",
      "u g",
      "79 1",
      "ĠG ard",
      "ĠGard en",
      "e ep",
      "ĠF ast",
      "ĠR ang",
      "ar y",
      "ĠJ eep",
      "ĠRang er",
      "09 7",
      "p lan",
      "ĠRo ck",
      "ĠZ R",
      "ĠGra der",
      "ĠWh ite",
      "0 64",
      "8 63",
      "c ons",
      "ĠF al",
      "ĠH an",
      "ĠP ir",
      "ĠSh ow",
      "ĠFort ress",
      "ĠFal cons",
      "ĠPir ate",
      "0 93",
      "h ol",
      "n a",
      "z y",
      "ĠMa ri",
      "ĠS ur",
      "ar hol",
      "ro e",
      "ĠW arhol",
      "ĠAn dy",
      "ĠBla st",
      "ĠMon roe",
      "ĠRail road",
      "ly n",
      "ĠMari lyn",
      "ĠWarhol s",
      "8 33",
      "- G",
      "k es",
      "p per",
      "ĠSt e",
      "ĠHo pper",
      "84 5",
      "ic ag",
      "ĠCh icag",
      "ĠPi z",
      "ĠCrush er",
      "ĠCe ment",
      "ĠChicag o",
      "l f",
      "s st",
      "Ġ rid",
      "ĠM iss",
      "ĠE lf",
      "ĠO r",
      "bo x",
      "ĠCra ze",
      "ĠCro sst",
      "ĠSta ck",
      "ĠSho ck",
      "ĠInvent or",
      "Ġrid e",
      "ĠMiss ion",
      "ĠCrosst own",
      "D m",
      "S EK",
      "c Dm",
      "e le",
      "o SEK",
      "ĠR ene",
      "ĠP ad",
      "ĠSt eam",
      "ĠUn der",
      "oSEK cDm",
      "ĠRene gade",
      "ĠUnder cover",
      "ĠP D",
      "et ary",
      "iv er",
      "bo at",
      "-S t",
      "-G uardian",
      "y o",
      "ĠA erial",
      "ĠF is",
      "ĠT ok",
      "ĠRo tor",
      "ĠBo x",
      "ĠSnow mobile",
      "co ast",
      "ĠInter coast",
      "ĠRes p",
      "ĠSea port",
      "ĠFis h",
      "ĠTok yo",
      "ĠIntercoast al",
      "S W",
      "c l",
      "c ale",
      "i SW",
      "u W",
      "mp er",
      "or y",
      "er nie",
      "ĠB ang",
      "ol box",
      "ĠV ernie",
      "ĠThe ory",
      "ĠCa mper",
      "ts uW",
      "-S cale",
      "ĠMon ster",
      "ĠTo olbox",
      "ĠCreat ive",
      "ĠMid i",
      "iSW tsuW",
      "ĠCarg o",
      "e ga",
      "g en",
      "ĠM r",
      "ĠM ega",
      "ĠMa gn",
      "et izer",
      "ĠE mer",
      "ĠCa bo",
      "ĠCor e",
      "ell or",
      "ĠProp ellor",
      "ĠPo st",
      "gen cy",
      "ĠMagn etizer",
      "ĠEmer gency",
      "ĠCabo ose",
      "E w",
      "M c",
      "g an",
      "i ator",
      "u Ew",
      "an ing",
      "ĠP is",
      "ĠMed iator",
      "ĠLe aning",
      "ĠTur bine",
      "ĠGun gan",
      "uEw Mc",
      "ĠPis a",
      "0 75",
      "g ate",
      "ĠC ut",
      "ĠH ide",
      "ĠP l",
      "ĠLo dge",
      "ĠCh ild",
      "ĠY ard",
      "ĠLe vel",
      "ĠLa kes",
      "ĠNe bul",
      "ĠHoliday s",
      "ĠFri gate",
      "ĠLakes ide",
      "ĠNebul on",
      "c at",
      "ĠF ir",
      "ĠT ele",
      "ig ale",
      "ĠMo on",
      "ĠDu cat",
      "ĠComp ac",
      "ĠPan igale",
      "ĠPiz za",
      "ĠFir st",
      "ĠDucat i",
      "b us",
      "g er",
      "i ck",
      "n cher",
      "Ġ lift",
      "ĠM ic",
      "ĠW e",
      "ĠSe cre",
      "ĠCru ncher",
      "ĠWheel s",
      "ĠFlat car",
      "Ġt ruck",
      "ĠMic ro",
      "ĠSecre t",
      "X V",
      "ĠM in",
      "ĠL un",
      "ĠR amb",
      "ĠCar ri",
      "err y",
      "ĠYear s",
      "ĠCy cle",
      "ĠLun ar",
      "ĠRamb ler",
      "h andler",
      "r y",
      "v ac",
      "ĠG uard",
      "ĠE vac",
      "-D uty",
      "ĠHa ul",
      "ĠTele handler",
      "Ġ mo",
      "ĠS un",
      "ĠO ut",
      "ran gler",
      "ĠCo zy",
      "ĠW rangler",
      "sh ip",
      "ĠLand ing",
      "ĠStable s",
      "ĠHypersp eed",
      "Ġmo del",
      "b on",
      "t op",
      "or ld",
      "ĠMa p",
      "en on",
      "ĠW orld",
      "ĠLo ok",
      "ĠCar bon",
      "ĠAp art",
      "ĠMountain top",
      "ĠZ enon",
      "ĠLook out",
      "ĠApart ment",
      "r ow",
      "Ġ at",
      "ĠL im",
      "ĠE ngine",
      "ĠRo om",
      "ĠLo ck",
      "ĠSpeed boat",
      "ĠLim ited",
      "en d",
      "ĠRe con",
      "ĠJ ok",
      "ĠJok er",
      "y em",
      "or ry",
      "ĠL orry",
      "ĠD un",
      "ta uri",
      "ĠCen tauri",
      "ĠHor se",
      "po st",
      "ĠLaunch ing",
      "gn yem",
      "ĠSun gnyem",
      "ĠOut post",
      "ĠDun e",
      "ĠSungnyem un",
      "a ck",
      "l in",
      "er lin",
      "ĠB erlin",
      "ra x",
      "ĠW om",
      "ĠW onder",
      "id man",
      "ĠSqu idman",
      "ĠWom an",
      "Ġ u",
      "ĠP od",
      "ĠBat man",
      "ĠQu ad",
      "ĠQu ick",
      "Ġ mot",
      "ĠSt rik",
      "ĠAr m",
      "ĠCrush ers",
      "B L",
      "C b",
      "K D",
      "L is",
      "e y",
      "w k",
      "ĠH andler",
      "ĠR iver",
      "ĠG old",
      "ĠO dy",
      "sse y",
      "ĠFor ge",
      "ud KD",
      "ĠHa wk",
      "ĠOr c",
      "ĠResp onder",
      "Cb udKD",
      "Lis BL",
      "ĠOdy ssey",
      "v an",
      "y ce",
      "ĠA m",
      "ĠL u",
      "ra van",
      "ĠCa ravan",
      "ĠCh erry",
      "ĠRol ls",
      "-Ro yce",
      "ĠTrans con",
      "D F",
      "j DF",
      "ĠP it",
      "ĠG ate",
      "ĠBu r",
      "ĠPit s",
      "b ur",
      "t rax",
      "Ġ '",
      "ĠB re",
      "ĠB rand",
      "ĠP and",
      "en bur",
      "ĠBat trax",
      "ĠRol l",
      "ĠCoa st",
      "ĠPick er",
      "od s",
      "ĠGo ods",
      "ĠSkul l",
      "ĠBrand enbur",
      "ĠBrandenbur g",
      "ĠD uty",
      "ul k",
      "ĠPar k",
      "A e",
      "F ER",
      "G j",
      "K Ae",
      "U l",
      "U KAe",
      "i f",
      "i ff",
      "l Gj",
      "ĠM rs",
      "ĠS co",
      "ri o",
      "ĠE iff",
      "op per",
      "ĠCh opper",
      "ĠCla us",
      "ub le",
      "-T ra",
      "ĠDo uble",
      "Ul lGj",
      "UKAe FER",
      "ĠEiff el",
      "UllGj m",
      "b e",
      "e f",
      "g E",
      "al k",
      "ct ion",
      "un ction",
      "ĠJ unction",
      "ĠRock ef",
      "ĠMin ing",
      "ĠCarbon ite",
      "ĠRockef eller",
      "g u",
      "r ater",
      "u se",
      "at ment",
      "ĠM ine",
      "ĠV en",
      "ĠRe p",
      "ĠTre atment",
      "ĠSm ash",
      "-Ro ad",
      "ĠSw e",
      "d al",
      "or ian",
      "ĠR id",
      "ĠTra um",
      "ĠMan dal",
      "ph an",
      "ĠMotor cycle",
      "ĠRid ing",
      "ĠTraum a",
      "ĠMandal orian",
      "- Q",
      "P S",
      "P v",
      "Q PS",
      "V Pv",
      "q o",
      "ar k",
      "ĠSh ark",
      "lan ce",
      "il lance",
      "ĠPi er",
      "ve illance",
      "ĠRobo ts",
      "ĠCy ber",
      "plan e",
      "ĠSur veillance",
      "ĠStrik ers",
      "a ke",
      "d i",
      "t ru",
      "w ork",
      "Ġ qu",
      "at tro",
      "ĠAu di",
      "ĠB eta",
      "ĠO iler",
      "ĠRe cycle",
      "ĠSp in",
      "ĠIn tru",
      "ĠSn ake",
      "ĠRoad work",
      "Ġqu attro",
      "ĠIntru der",
      "I C",
      "N IC",
      "a ster",
      "p ic",
      "at ers",
      "ĠF le",
      "ĠR am",
      "on e",
      "ĠE pic",
      "ter ing",
      "ĠBat tering",
      "ĠY ach",
      "ĠSk aters",
      "rik er",
      "ĠDo c",
      "-St riker",
      "ĠFle et",
      "ĠYach t",
      "i al",
      "ĠMa x",
      "ĠHo ok",
      "ĠK art",
      "bul ance",
      "ĠAm bulance",
      "alk er",
      "e ze",
      "h al",
      "m as",
      "or th",
      "me n",
      "ĠS ite",
      "ĠH er",
      "ĠH ulk",
      "ĠStar ter",
      "ĠSh orth",
      "ĠIn n",
      "ĠK hal",
      "ĠEm mas",
      "ĠCat s",
      "ĠForest men",
      "ĠSte phan",
      "ĠHide out",
      "ĠGuard ed",
      "ĠBur j",
      "if a",
      "ĠShorth air",
      "ĠKhal ifa",
      "- h",
      "a e",
      "b M",
      "b s",
      "e er",
      "g ok",
      "h an",
      "i x",
      "j o",
      "ĠT ae",
      "ĠS au",
      "ra in",
      "ĠH ag",
      "ck be",
      "ĠP ig",
      "ol ation",
      "ru k",
      "ĠTra m",
      "ĠU ruk",
      "ĠO bs",
      "ĠBu ckbe",
      "ĠRac ers",
      "ĠRe ind",
      "ĠCh ine",
      "ator y",
      "erv atory",
      "ĠLeg o",
      "ĠTo gok",
      "ĠChas ing",
      "ĠIs olation",
      "Ġt rain",
      "Ġn ose",
      "ĠElf ie",
      "ĠArm y",
      "ĠPand as",
      "-h ai",
      "ĠTae jo",
      "ĠSau cer",
      "ĠHag rid",
      "ĠObs ervatory",
      "ĠBuckbe ak",
      "ĠReind eer",
      "ĠChine se",
      "ĠTogok han",
      "in es",
      "in ta",
      "ĠF X",
      "ĠS he",
      "ĠP ug",
      "ĠP row",
      "ĠG ro",
      "ro om",
      "ĠV an",
      "ĠV inta",
      "ĠMo use",
      "ire ment",
      "ĠRe mo",
      "ĠRe qu",
      "ĠSp a",
      "ĠPlan etary",
      "ĠInter plan",
      "ĠCut e",
      "ĠCompac t",
      "ĠShe ep",
      "ĠProw ler",
      "ĠVinta ge",
      "ĠRequ irement",
      "ĠInterplan etary",
      "c a",
      "d or",
      "m ill",
      "o b",
      "o ter",
      "p tain",
      "u al",
      "ĠM cl",
      "ĠF la",
      "ĠS le",
      "ĠS ail",
      "ĠR on",
      "ar en",
      "ĠD um",
      "el ob",
      "ĠSh elob",
      "ĠRe cy",
      "as ley",
      "ĠCa ptain",
      "-w heel",
      "ĠMan ual",
      "ĠAl bus",
      "ĠAttack s",
      "ĠSen na",
      "ble dor",
      "ĠWind mill",
      "cl ing",
      "ĠWe asley",
      "ĠCarri age",
      "ĠSco oter",
      "ĠMcl aren",
      "ĠSle eper",
      "ĠDum bledor",
      "ĠRecy cling",
      "-wheel er",
      "ĠDumbledor e",
      "A AS",
      "F T",
      "I ON",
      "L Z",
      "L AAS",
      "Q w",
      "a uty",
      "f ly",
      "l gE",
      "t ter",
      "w a",
      "x lgE",
      "Ġ (",
      "ĠC LAAS",
      "ĠB and",
      "ra cer",
      "on izer",
      "ar ba",
      "ĠSt ell",
      "ĠG e",
      "ĠG arba",
      "ĠI onizer",
      "ĠBu tter",
      "un ter",
      "ĠCa ve",
      "ut o",
      "ĠX ER",
      "bo o",
      "of y",
      "tic le",
      "ĠBe auty",
      "ĠPar ticle",
      "ĠGo ofy",
      "ĠNa boo",
      "ĠSur f",
      "ĠPl uto",
      "XV FT",
      "ĠPod racer",
      "qo LZ",
      "Qw xlgE",
      "ĠBand it",
      "ĠStell ar",
      "ĠGarba ge",
      "ĠButter fly",
      "ĠXER ION",
      "XVFT g",
      "QwxlgE A",
      "d n",
      "i X",
      "ĠA B",
      "ĠS ing",
      "ĠR et",
      "re at",
      "ĠSt op",
      "ĠO per",
      "ĠStar ship",
      "ĠX T",
      "ĠFork lift",
      "ĠFly ing",
      "ĠSy dn",
      "cover y",
      "ĠRock y",
      "ĠSing le",
      "ĠRet reat",
      "ĠOper a",
      "ĠSydn ey",
      "c c",
      "C H",
      "E CH",
      "p ter",
      "w en",
      "ĠT ECH",
      "al ent",
      "ĠV alent",
      "ĠO wen",
      "ĠCo pter",
      "lan e",
      "ĠBre eze",
      "ĠVen ice",
      "ĠTECH NIC",
      "ĠBreeze way",
      "N W",
      "d ise",
      "i st",
      "l ider",
      "u ation",
      "or ter",
      "ĠA ss",
      "ĠA NW",
      "ĠC rater",
      "ĠR C",
      "ĠP ara",
      "ol side",
      "ri er",
      "ĠG lider",
      "ĠO la",
      "it cher",
      "ĠTransp orter",
      "ĠAn na",
      "ĠRoad side",
      "ĠRace way",
      "ĠHar rier",
      "ĠSuper man",
      "ĠPo olside",
      "ĠSw itcher",
      "ĠEvac uation",
      "ist ance",
      "ĠAss istance",
      "ĠANW B",
      "ĠPara dise",
      "ĠOla f",
      "b ra",
      "c ol",
      "h AS",
      "r hAS",
      "t on",
      "w alker",
      "z rhAS",
      "in col",
      "or ial",
      "ĠM em",
      "ĠL incol",
      "ĠC ur",
      "se d",
      "ĠSt ron",
      "ĠCo bra",
      "ĠStar gu",
      "ĠRe covery",
      "ĠSp ect",
      "ĠTrain s",
      "gh old",
      "ĠY od",
      "ĠFl ower",
      "ĠCent uri",
      "ĠSky walker",
      "ĠSpeed way",
      "ĠWag o",
      "ĠPost al",
      "ĠCut ter",
      "ĠLu ke",
      "ĠCoast al",
      "ĠMem orial",
      "ĠLincol n",
      "ĠCur sed",
      "ĠStron ghold",
      "ĠStargu ider",
      "ĠSpect ral",
      "ĠYod a",
      "ĠCenturi on",
      "- C",
      "F ly",
      "J C",
      "N o",
      "N ak",
      "R W",
      "U P",
      "b ix",
      "c Fly",
      "p Nak",
      "r own",
      "u qu",
      "u No",
      "in t",
      "ĠM cFly",
      "ĠL XX",
      "ĠC al",
      "ĠB rown",
      "on trol",
      "le d",
      "ĠBo uqu",
      "ĠII I",
      "ĠMar ty",
      "ĠAir l",
      "ĠAT X",
      "eta bix",
      "ĠFri end",
      "ĠLoad ing",
      "ĠCompac tor",
      "ĠWe etabix",
      "end ar",
      "ĠHulk bus",
      "ĠRemo te",
      "-C ontrol",
      "RW uNo",
      "pNak p",
      "ĠLXX XV",
      "ĠCal endar",
      "ĠBouqu et",
      "ĠFriend s",
      "-Control led",
      "RWuNo g",
      "- O",
      "G ug",
      "U V",
      "i C",
      "p e",
      "p y",
      "x iC",
      "z xiC",
      "ĠT r",
      "ĠS ally",
      "ĠB B",
      "ĠB ack",
      "ĠP up",
      "ing ton",
      "ĠO ct",
      "ĠJ ack",
      "ell ington",
      "ĠSk ellington",
      "ho e",
      "ĠGun ship",
      "ĠStack er",
      "ĠCarri er",
      "-O ut",
      "Gug zxiC",
      "ĠBack hoe",
      "ĠPup py",
      "ĠOct an",
      "a z",
      "ĠL i",
      "ĠC ol",
      "ĠThe ater",
      "ĠFl ame",
      "ĠDump er",
      "ĠCent re",
      "ĠCol or",
      "J K",
      "P bM",
      "W PbM",
      "b or",
      "d m",
      "ĠL ad",
      "ĠAn gler",
      "ĠHar bor",
      "ĠPo int",
      "ak er",
      "-T errain",
      "ĠSwe eper",
      "WPbM dm",
      "ĠLad der",
      "WPbMdm z",
      "- I",
      "C opter",
      "F s",
      "P W",
      "b rio",
      "e PW",
      "j l",
      "o mer",
      "it ch",
      "ĠSh unt",
      "ĠSp y",
      "ĠCa brio",
      "ĠBat tle",
      "ĠAir craft",
      "-E ngine",
      "ĠDrag on",
      "ĠBoat side",
      "ĠInv ader",
      "ĠGra b",
      "-Tra k",
      "ĠGro omer",
      "ĠShunt i",
      "B o",
      "d ro",
      "h room",
      "i es",
      "ĠM us",
      "ame le",
      "ĠB i",
      "ĠCh amele",
      "ĠBat hroom",
      "ĠAn ak",
      "ĠHy dro",
      "ĠStephan ies",
      "Bo x",
      "ĠMus cle",
      "ĠChamele on",
      "ĠAnak in",
      "- K",
      "C ar",
      "G P",
      "V v",
      "a os",
      "c row",
      "e yz",
      "g iv",
      "g GP",
      "h K",
      "l ic",
      "m i",
      "n s",
      "s giv",
      "ĠA qu",
      "re ns",
      "le te",
      "ĠSh eri",
      "ie f",
      "am an",
      "ĠCh aos",
      "ĠSe mi",
      "ĠJet port",
      "ĠCra sh",
      "ank sgiv",
      "ĠRa mp",
      "om aster",
      "ĠTh anksgiv",
      "ub lic",
      "ĠMi as",
      "are crow",
      "ĠSpeed Car",
      "ĠPat rio",
      "ĠFron e",
      "ĠSc arecrow",
      "ĠWh ale",
      "ĠCarg omaster",
      "ĠComp lete",
      "-St ar",
      "ĠChild rens",
      "-Tra ctor",
      "ĠRep air",
      "ĠRep ublic",
      "-K art",
      "gGP l",
      "ĠAqu aman",
      "ĠSheri ff",
      "ĠThanksgiv ing",
      "ĠPatrio t",
      "B Box",
      "C Y",
      "F CY",
      "G v",
      "K Mw",
      "b ac",
      "d ible",
      "g ic",
      "w bac",
      "x KMw",
      "z one",
      "ĠF ro",
      "ĠB el",
      "ck y",
      "ĠP ud",
      "se y",
      "ri on",
      "ri ft",
      "ĠD air",
      "ĠO rion",
      "it al",
      "ĠSh unter",
      "ĠIn cre",
      "ĠAd rift",
      "ĠBe ar",
      "ĠChe wbac",
      "ĠHypersp ace",
      "ĠLu cky",
      "FCY Gv",
      "xKMw T",
      "ĠFro zone",
      "ĠBel le",
      "ĠPud sey",
      "ĠDair y",
      "ĠIncre dible",
      "ĠChewbac ca",
      "G w",
      "a mp",
      "m ar",
      "n n",
      "u y",
      "Ġ con",
      "ĠMa y",
      "ĠB ed",
      "ĠD el",
      "ĠD ance",
      "ĠG uy",
      "ĠBu nn",
      "ĠW id",
      "ĠW itch",
      "ĠDe mon",
      "-M an",
      "ĠBe e",
      "ĠCre eper",
      "ĠZ X",
      "ĠAmeric a",
      "ĠSw amp",
      "ĠSub mar",
      "ĠSte ve",
      "iver y",
      "ĠHer o",
      "Gw u",
      "Ġcon tainer",
      "ĠDel ivery",
      "ĠBunn y",
      "ĠWid ow",
      "ĠSubmar ine",
      "A f",
      "F Af",
      "P Z",
      "f ric",
      "o u",
      "u el",
      "u FAf",
      "x on",
      "or a",
      "ĠA fric",
      "ĠF uel",
      "ĠC ri",
      "ĠS ou",
      "ĠB ir",
      "on se",
      "ck ey",
      "ĠG am",
      "ĠE ng",
      "he m",
      "ĠEx xon",
      "ĠCa se",
      "ĠExc urs",
      "-W heel",
      "ke y",
      "ĠLa b",
      "ĠTur key",
      "ĠMi ckey",
      "gy ro",
      "ĠNew s",
      "ĠAuto gyro",
      "ĠTrans it",
      "ĠResp onse",
      "ĠSwe et",
      "ĠFla g",
      "ĠMay hem",
      "PZ uFAf",
      "ĠAfric an",
      "ĠCri sis",
      "ĠSou th",
      "ĠBir d",
      "ĠGam ora",
      "ĠEng ines",
      "ĠExcurs ion",
      "PZuFAf i",
      "e ace",
      "e eper",
      "i um",
      "m ion",
      "n ight",
      "Ġ st",
      "Ġ lo",
      "ĠA mu",
      "ĠN it",
      "ĠR V",
      "ĠP eace",
      "se ment",
      "ĠSt ad",
      "le t",
      "ĠTra x",
      "ĠD ir",
      "ĠG ran",
      "ĠE aster",
      "ĠO f",
      "ĠPlan et",
      "ĠCh ief",
      "ĠCra ft",
      "ĠStre ak",
      "ĠBe ast",
      "ĠK eeper",
      "ĠTri ke",
      "ĠSea plane",
      "ĠBul let",
      "ĠMid night",
      "ĠPl ace",
      "ĠHer mion",
      "Ġst eam",
      "Ġlo comotive",
      "ĠAmu sement",
      "ĠNit ro",
      "ĠStad ium",
      "ĠDir t",
      "ĠGran ger",
      "ĠHermion e",
      "I N",
      "W UV",
      "c ord",
      "u J",
      "z ard",
      "ĠMa il",
      "th er",
      "ĠT ug",
      "ĠB ip",
      "ĠRe cord",
      "eri a",
      "ĠMar sh",
      "iz zard",
      "ĠSk id",
      "ĠBl izzard",
      "ĠDri ver",
      "gn iX",
      "ĠQ B",
      "ĠEmme t",
      "-T E",
      "ĠPan ther",
      "ĠSte er",
      "ĠMin nie",
      "ĠBre aker",
      "ĠValent ines",
      "ĠAirl iner",
      "ĠLi me",
      "IN gniX",
      "ĠBip lane",
      "ĠMarsh al",
      "X v",
      "f Xv",
      "w it",
      "Ġ wit",
      "re ck",
      "ed i",
      "ĠD in",
      "ĠD ig",
      "ĠG uardian",
      "ig ator",
      "ĠRe y",
      "ĠJ edi",
      "-S at",
      "ĠAll igator",
      "po iX",
      "ĠSho vel",
      "ĠArm or",
      "ĠFla sh",
      "ĠDig ger",
      "poiX JC",
      "- P",
      "I r",
      "b an",
      "h as",
      "i ed",
      "l on",
      "m a",
      "p t",
      "r ban",
      "u sh",
      "x gu",
      "y lo",
      "ĠM il",
      "ĠA ven",
      "ĠT ig",
      "ĠT ine",
      "ĠC pt",
      "ĠS al",
      "ĠR en",
      "an os",
      "ĠP has",
      "ĠP ush",
      "ĠU rban",
      "ĠV i",
      "un d",
      "ĠAr mand",
      "ĠK ylo",
      "ĠAll ied",
      "ĠTh anos",
      "ĠBul l",
      "-A lon",
      "ĠStephan ie",
      "ĠValent ine",
      "az ar",
      "ĠHydro plane",
      "xgu M",
      "ĠMil k",
      "ĠAven ger",
      "ĠTig er",
      "ĠSal azar",
      "ĠPhas ma",
      "ĠArmand o",
      "-Alon g",
      "A g",
      "C rater",
      "Q N",
      "V K",
      "Y e",
      "Y pe",
      "b ag",
      "i ers",
      "j Ag",
      "k jAg",
      "r in",
      "s ca",
      "y bag",
      "ĠM K",
      "ĠA er",
      "ĠS ide",
      "ĠSt r",
      "ĠE B",
      "ĠY ell",
      "mot ion",
      "ral ight",
      "ĠChal et",
      "ĠUlt ralight",
      "ĠSw iss",
      "ĠPl iers",
      "Ye VK",
      "Ype YeVK",
      "rin ter",
      "sca pe",
      "ĠYell ow",
      "U JC",
      "V s",
      "d re",
      "e ctor",
      "i en",
      "y Vs",
      "ĠH unter",
      "ĠO ran",
      "ĠW reck",
      "un ty",
      "ĠUn it",
      "ĠSp ider",
      "ĠBo unty",
      "ĠAn dre",
      "ĠWheel ie",
      "ĠAl ien",
      "ĠDet ector",
      "ĠBl ing",
      "ĠOr der",
      "ĠVen om",
      "ĠBed room",
      "-P lane",
      "UJC yVs",
      "ĠOran ge",
      "ĠWreck er",
      "ĠAlien ator",
      "UJCyVs i",
      "A C",
      "H K",
      "H O",
      "H AC",
      "K h",
      "P V",
      "Q M",
      "X T",
      "Y bM",
      "a b",
      "d e",
      "g ir",
      "h O",
      "i sp",
      "l ay",
      "ĠM PV",
      "ĠF erry",
      "ĠN XT",
      "ol and",
      "ĠSt age",
      "ĠHo sp",
      "ĠD avid",
      "ĠD isp",
      "ĠO ver",
      "ĠW ill",
      "ĠW HAC",
      "ĠBat gir",
      "ĠTrack ing",
      "ĠLeg oland",
      "ĠDes ig",
      "ĠEnd or",
      "ĠAm az",
      "ĠBur ger",
      "ĠPand a",
      "ĠSco ut",
      "gE hO",
      "ĠGro und",
      "ĠAirl ine",
      "ĠAer o",
      "ĠAndre as",
      "ĠHosp ital",
      "ĠDisp lay",
      "ĠOver h",
      "ĠWHAC K",
      "ĠBatgir l",
      "ĠAmaz on",
      "B E",
      "G p",
      "P b",
      "T T",
      "Z BE",
      "h n",
      "m n",
      "o hn",
      "v es",
      "y na",
      "y mn",
      "z eria",
      "or re",
      "ĠM TT",
      "ĠA TR",
      "ĠF ed",
      "th ol",
      "er ation",
      "ĠT orre",
      "ĠS UV",
      "ĠB ar",
      "al f",
      "ri ves",
      "ĠTra de",
      "ĠD yna",
      "ĠG and",
      "ĠG ymn",
      "ĠE ag",
      "ĠE scape",
      "ĠRo bin",
      "as ure",
      "ĠTrain er",
      "ĠJ ohn",
      "ue ZBE",
      "ĠSe ars",
      "ĠSe bul",
      "co ck",
      "ĠAr rives",
      "ĠPo thol",
      "ate gic",
      "ĠPat cher",
      "ĠPursu er",
      "ĠHan cock",
      "ĠPiz zeria",
      "ĠStrik er",
      "ĠDin o",
      "ĠStr ategic",
      "ĠWill is",
      "Pb J",
      "ĠFed eration",
      "ĠTorre nt",
      "ĠBar on",
      "ĠDyna mo",
      "ĠGand alf",
      "ĠGymn ast",
      "ĠEag le",
      "ĠSebul ba",
      "ĠPothol e",
      "E f",
      "F H",
      "M T",
      "N MT",
      "U Ef",
      "b ital",
      "k ing",
      "l ick",
      "r UEf",
      "v z",
      "y FH",
      "in n",
      "ĠF inn",
      "ĠS mo",
      "ĠS lick",
      "ra der",
      "ĠP le",
      "ĠP elic",
      "st ial",
      "le stial",
      "ĠTra il",
      "ĠV ulk",
      "ĠCo ach",
      "ĠW ork",
      "ĠW alker",
      "ĠRe ven",
      "ĠCh om",
      "ĠCra zy",
      "ĠAir plane",
      "ĠFor ager",
      "ĠK rader",
      "ĠPri son",
      "ĠChas er",
      "ĠCe lestial",
      "ĠInvent ion",
      "ĠOr bital",
      "-St ation",
      "ĠLi fe",
      "ĠBi kes",
      "ĠVi king",
      "QN NMT",
      "yFH rUEf",
      "ĠSmo kin",
      "ĠSlick ster",
      "ĠPle asure",
      "ĠPelic an",
      "ĠWork shop",
      "ĠReven ge",
      "ĠChom ly",
      "ĠPrison er",
      "QNNMT vz",
      "C qo",
      "E F",
      "P ol",
      "R if",
      "X Z",
      "Y D",
      "c ro",
      "f il",
      "h elicopter",
      "k Rif",
      "o al",
      "o use",
      "p ion",
      "q M",
      "r ator",
      "t rator",
      "u ba",
      "Ġ helicopter",
      "or pion",
      "ĠF ix",
      "ĠL igh",
      "th ouse",
      "ĠC low",
      "ĠB aker",
      "ĠR X",
      "ĠU NIC",
      "ĠW av",
      "ĠW ild",
      "ĠMo to",
      "ĠIn fil",
      "ĠStarf ight",
      "ĠWheel in",
      "ĠPro be",
      "ĠPro motion",
      "ĠK oal",
      "ĠLaunch er",
      "ĠSc uba",
      "ĠSc orpion",
      "ĠBon e",
      "-Sp rinter",
      "ĠCl one",
      "-I t",
      "ĠChief s",
      "Cqo YD",
      "Pol ybag",
      "XZ CqoYD",
      "cro ss",
      "ĠLigh thouse",
      "ĠClow n",
      "ĠBaker y",
      "ĠUNIC EF",
      "ĠWav e",
      "ĠMoto cross",
      "ĠInfil trator",
      "ĠPromotion al",
      "ĠKoal a",
      "A T",
      "b ler",
      "i ra",
      "i ary",
      "t en",
      "x il",
      "ĠA AT",
      "ĠF ash",
      "ĠMa g",
      "ĠMa ster",
      "ĠAu xil",
      "ĠMain ten",
      "ĠT um",
      "ĠT ail",
      "an one",
      "ru s",
      "ĠD anone",
      "ĠG ira",
      "et ta",
      "ĠE Z",
      "ĠW u",
      "ff e",
      "ĠAir boat",
      "ell ite",
      "ĠSat ellite",
      "ĠTw o",
      "ĠTuner X",
      "ĠSon ar",
      "ĠStudi o",
      "ĠBerlin etta",
      "-Road ster",
      "ĠRemo ver",
      "ĠDesig n",
      "ĠFash ion",
      "ĠAuxil iary",
      "ĠMainten ance",
      "ĠTum bler",
      "ĠGira ffe",
      "P R",
      "e vo",
      "i a",
      "m olo",
      "n zy",
      "t al",
      "t ure",
      "w alk",
      "y rax",
      "at os",
      "ĠM iner",
      "er al",
      "ĠT yrax",
      "ĠR ay",
      "ri evo",
      "en eral",
      "ĠG rievo",
      "ĠG eneral",
      "ĠV ul",
      "ĠV PR",
      "he ele",
      "ĠI tal",
      "ĠCo ver",
      "ĠCar t",
      "is molo",
      "ue st",
      "ĠSe ismolo",
      "-W heele",
      "ĠBla zer",
      "ĠAp atos",
      "au rus",
      "ĠRa id",
      "ĠVe ctor",
      "ĠFre eze",
      "ĠFre nzy",
      "ĠSta ff",
      "ud eria",
      "ĠQ uest",
      "ĠSc uderia",
      "ĠLas er",
      "ĠGold en",
      "ĠSail boat",
      "ĠGuardian s",
      "ĠSide walk",
      "ĠMiner al",
      "ĠGrievo us",
      "ĠVul ture",
      "ĠItal ia",
      "ĠCover ed",
      "ĠSeismolo gic",
      "-Wheele d",
      "ĠApatos aurus",
      "C N",
      "L i",
      "M I",
      "R C",
      "R MI",
      "Y CN",
      "a ur",
      "e al",
      "g uard",
      "p ro",
      "Ġ cer",
      "Ġ pro",
      "ĠA RC",
      "ol a",
      "le phan",
      "ĠG ond",
      "ĠE lephan",
      "es mo",
      "ĠSp rinter",
      "ĠSi esmo",
      "ĠGT O",
      "ĠPol ybag",
      "os aur",
      "ĠStor e",
      "ĠSurf ace",
      "ĠDin osaur",
      "ĠVi per",
      "ĠLife guard",
      "Li fe",
      "YCN RMI",
      "Ġcer eal",
      "Ġpro motion",
      "ĠGond ola",
      "ĠElephan t",
      "c p",
      "A b",
      "Q u",
      "S s",
      "T F",
      "X Ss",
      "c ell",
      "d o",
      "e g",
      "e or",
      "h k",
      "l ler",
      "m ol",
      "o v",
      "p ly",
      "t ide",
      "u ra",
      "u ff",
      "y P",
      "z ar",
      "Ġ ch",
      "ĠA zar",
      "ĠMa gic",
      "ĠN ov",
      "ĠT ip",
      "ĠT actic",
      "ĠR ip",
      "ĠP lo",
      "ĠTra cer",
      "ac on",
      "it or",
      "ĠDe mol",
      "ĠSh uff",
      "ul Qu",
      "tor y",
      "ĠBe acon",
      "ĠMet eor",
      "ĠSup ply",
      "ĠAT V",
      "ĠMon itor",
      "ĠK itch",
      "ĠDri ller",
      "ĠSun tory",
      "ĠOut do",
      "ief s",
      "ĠMail box",
      "QN TF",
      "ĠDesig ner",
      "cp z",
      "Ab XSs",
      "hk QNTF",
      "ura cell",
      "Ġch iefs",
      "ĠAzar i",
      "ĠNov a",
      "ĠTip per",
      "ĠTactic al",
      "ĠRip tide",
      "ĠPlo ugh",
      "ĠDemol ition",
      "ĠKitch en",
      "ĠOutdo or",
      "- L",
      "Q X",
      "X k",
      "a bo",
      "d ian",
      "h A",
      "o th",
      "o ck",
      "r int",
      "s ar",
      "w o",
      "w reck",
      "at a",
      "in k",
      "ĠA stro",
      "ĠF un",
      "er ine",
      "ĠC ath",
      "ĠR ad",
      "ĠR ight",
      "ar ger",
      "ĠP ul",
      "ĠSt ock",
      "ĠD is",
      "ĠD ash",
      "ĠSp rint",
      "ĠBo oth",
      "ĠCh arger",
      "ĠIn dian",
      "ĠMer ry",
      "ĠCra b",
      "ĠLand scape",
      "ĠSk i",
      "ĠAl t",
      "-Ro und",
      "ĠRun abo",
      "ph one",
      "ĠShip wreck",
      "-G o",
      "ĠFish erman",
      "ĠTele phone",
      "ĠSide car",
      "ĠStr ata",
      "-L ink",
      "QX n",
      "ĠCath erine",
      "ĠRad ar",
      "ĠPul sar",
      "ĠDis covery",
      "ĠDash er",
      "ĠRunabo ut",
      "ĠShipwreck ed",
      "b c",
      "b ike",
      "g un",
      "k i",
      "o t",
      "Ġ on",
      "at tle",
      "ĠL ight",
      "ĠN eed",
      "ĠC ow",
      "ĠC ord",
      "ck age",
      "ĠP ort",
      "ĠCo up",
      "ĠBu nge",
      "op lane",
      "ur ers",
      "il ot",
      "ĠSe attle",
      "bo ard",
      "ĠWheel gun",
      "ĠAdvent urers",
      "ĠSk ate",
      "ĠSk ele",
      "-S ki",
      "ĠPa ckage",
      "ĠCre am",
      "ĠMotor bike",
      "ĠUlt ra",
      "ĠBon nie",
      "ĠSav er",
      "Box ed",
      "-P ilot",
      "ĠAer oplane"
    ]
  }
}